<unk>	0
<s>	0
</s>	0
▁,	-3.3488
▁.	-3.42033
▁là	-4.13501
▁tôi	-4.25418
▁và	-4.26787
▁một	-4.31417
▁có	-4.32718
▁những	-4.56958
▁chúng	-4.5853
▁của	-4.59282
▁	-4.62395
▁không	-4.7787
▁ta	-4.78242
▁đó	-4.90335
▁người	-4.91743
▁bạn	-4.92149
▁trong	-4.99467
▁thể	-5.01266
▁này	-5.06404
▁đã	-5.06866
▁các	-5.08981
▁được	-5.11149
;	-5.1147
i	-5.12074
▁&	-5.16309
▁với	-5.18304
quot	-5.21684
▁cho	-5.22359
▁Và	-5.24928
ng	-5.25262
▁sự	-5.25865
▁ra	-5.26356
▁làm	-5.33118
▁nó	-5.3771
▁ở	-5.39753
▁mà	-5.40331
▁để	-5.42402
▁về	-5.43445
▁như	-5.45143
▁sẽ	-5.45523
t	-5.47666
▁điều	-5.5472
▁thế	-5.55582
▁khi	-5.60996
▁họ	-5.65576
▁Tôi	-5.67006
n	-5.67768
▁nói	-5.68001
y	-5.71174
▁đến	-5.73213
▁?	-5.76926
▁phải	-5.77172
▁rằng	-5.81057
▁gì	-5.82069
▁đang	-5.82298
▁vào	-5.82332
▁từ	-5.82666
▁việc	-5.82833
▁lại	-5.85652
▁thấy	-5.8711
▁cách	-5.89704
▁hơn	-5.90374
▁cả	-5.90668
▁nhiều	-5.92929
m	-5.97699
▁thực	-5.98369
▁đầu	-5.98779
▁đây	-6.01122
▁học	-6.02923
▁con	-6.03187
▁khác	-6.03445
▁trên	-6.06019
▁công	-6.06247
▁cái	-6.08862
▁vì	-6.09156
▁nào	-6.09197
▁chỉ	-6.09849
▁biết	-6.09974
▁Chúng	-6.10469
▁rấ	-6.11228
▁năm	-6.16372
▁b	-6.16939
▁đi	-6.18008
▁nghĩ	-6.18278
▁thứ	-6.18413
▁thành	-6.20316
▁:	-6.21354
▁--	-6.24442
▁t	-6.24544
▁cũng	-6.25472
▁nhà	-6.26431
▁số	-6.27624
▁bị	-6.29488
▁Như	-6.30421
▁quan	-6.30992
▁muốn	-6.31583
u	-6.32303
▁Đ	-6.33753
▁mình	-6.35117
ây	-6.3585
▁nhất	-6.36578
▁nhưng	-6.37719
▁tạo	-6.38034
▁động	-6.39021
▁giới	-6.39054
▁chính	-6.39139
ất	-6.39711
▁1	-6.41018
▁nên	-6.4126
▁vậy	-6.42509
▁c	-6.42866
▁đ	-6.44764
▁hình	-6.48137
a	-6.4925
▁giờ	-6.49553
▁hiện	-6.49882
▁sống	-6.51219
▁tại	-6.51671
▁nếu	-6.52005
▁nhận	-6.52049
▁m	-6.53166
▁N	-6.5333
▁cuộc	-6.54787
▁cần	-6.55604
▁hay	-6.56228
▁tự	-6.57325
▁thì	-6.57548
▁đề	-6.57658
▁tất	-6.61231
▁bởi	-6.62121
▁ấy	-6.6261
▁tới	-6.62742
▁T	-6.62853
▁theo	-6.63152
▁bắt	-6.63485
▁còn	-6.6419
▁ông	-6.64324
▁nhìn	-6.64598
▁lớn	-6.64814
▁cùng	-6.65967
▁n	-6.65996
▁bằng	-6.66177
▁ý	-6.66602
▁cơ	-6.66709
▁cảm	-6.67121
▁tế	-6.67425
▁sau	-6.68036
▁dụng	-6.68281
▁thật	-6.68435
▁lên	-6.68677
▁gia	-6.68979
▁bản	-6.69116
▁câu	-6.69127
▁anh	-6.69498
▁tin	-6.70388
▁qua	-6.70671
▁bộ	-6.7099
▁sao	-6.71246
▁thời	-6.71376
▁chuyện	-6.71675
▁trở	-6.71984
▁ngày	-6.72681
▁nhân	-6.72876
▁ch	-6.73045
▁sinh	-6.73577
▁mọ	-6.73681
c	-6.74496
▁năng	-6.76705
▁trước	-6.77369
▁nước	-6.77549
▁phát	-6.77555
▁đổi	-6.78136
▁Nó	-6.78436
▁toàn	-6.79287
▁phần	-6.79648
▁nơi	-6.80134
▁thông	-6.81238
▁nhau	-6.81983
▁tìm	-6.81983
▁mới	-6.82455
▁thay	-6.82544
▁vấn	-6.83789
▁định	-6.83907
▁hệ	-6.85352
▁trường	-6.85599
▁sử	-6.86041
▁nhiên	-6.8605
▁tính	-6.86969
▁trình	-6.87804
▁tốt	-6.88647
▁tưởng	-6.88896
▁kết	-6.89346
▁C	-6.89934
▁vật	-6.91028
▁lý	-6.91707
▁hàng	-6.91948
▁hỏi	-6.93241
▁Bạn	-6.94398
▁máy	-6.95358
▁ảnh	-6.95745
▁hợp	-6.96995
▁v	-6.9747
▁Đó	-6.97629
▁mặt	-6.98286
▁l	-6.99124
▁tiếp	-6.99353
▁hành	-6.99882
▁nữa	-7.00153
▁kinh	-7.00211
▁tr	-7.01252
▁r	-7.01331
▁hội	-7.01388
▁thức	-7.0161
▁gian	-7.01678
▁thiết	-7.02144
▁rồi	-7.02443
▁xem	-7.03186
▁cô	-7.03217
▁liệu	-7.03221
▁vị	-7.03414
▁trọng	-7.0375
▁hoá	-7.03872
▁thích	-7.04432
h	-7.06267
▁đồng	-7.06381
▁giải	-7.06979
▁độ	-7.0733
▁trẻ	-7.09153
▁lượng	-7.09354
▁hai	-7.09931
▁kh	-7.1083
▁thường	-7.11097
▁ai	-7.11401
▁đều	-7.12055
▁quá	-7.12412
▁Một	-7.12742
▁tiên	-7.12745
▁sáng	-7.1331
▁đối	-7.13314
▁do	-7.13639
▁hiểu	-7.14764
▁B	-7.14868
▁tâm	-7.15472
▁nay	-7.15563
▁quả	-7.15744
▁loại	-7.15966
▁giống	-7.16205
▁lần	-7.16474
▁Vì	-7.16494
▁cứu	-7.17082
-	-7.1775
▁bệnh	-7.17897
▁bao	-7.17992
▁thống	-7.18039
▁viên	-7.19425
▁th	-7.19504
▁nghệ	-7.21182
▁điểm	-7.21697
▁gọi	-7.22251
▁Có	-7.22311
▁nghĩa	-7.22314
▁nhỏ	-7.23261
▁hoàn	-7.24722
nh	-7.25236
▁Họ	-7.25744
▁đưa	-7.26139
▁nghiệm	-7.27085
▁tác	-7.28018
▁đường	-7.28214
o	-7.28761
▁V	-7.30138
▁thuật	-7.31912
▁bên	-7.32329
▁biệt	-7.32345
▁dùng	-7.3261
▁giá	-7.3262
▁ng	-7.32704
▁dân	-7.32818
▁hoặc	-7.3285
▁đại	-7.32971
▁cố	-7.33025
▁x	-7.33169
▁dự	-7.33652
▁triển	-7.34541
▁lúc	-7.34698
▁chuyển	-7.34759
▁diễn	-7.35228
.	-7.35721
▁từng	-7.36383
▁trị	-7.36396
▁quyết	-7.36508
▁nghe	-7.37229
▁cao	-7.37308
▁tuyệt	-7.39051
▁mỗi	-7.39379
▁cầu	-7.39701
▁ăn	-7.39878
▁kế	-7.40337
▁xả	-7.40462
▁lực	-7.4065
▁phụ	-7.41198
▁vẫ	-7.41266
▁chất	-7.41396
g	-7.41504
▁mô	-7.42123
▁lời	-7.43537
▁giáo	-7.43658
▁giúp	-7.44001
▁khá	-7.44366
▁đất	-7.44963
▁Vậ	-7.453
▁trung	-7.4564
▁bảo	-7.46509
▁nữ	-7.46558
▁cá	-7.46675
▁ơn	-7.46892
▁nghiên	-7.46961
▁tiến	-7.47172
▁hết	-7.47368
▁phòng	-7.47418
▁chưa	-7.47982
▁tình	-7.48149
▁xe	-7.48185
▁liên	-7.48311
▁M	-7.48405
▁xuất	-7.48429
▁khả	-7.49415
▁phân	-7.5028
ông	-7.50422
▁Anh	-7.50503
▁tranh	-7.50748
▁đơn	-7.51027
▁não	-7.51124
▁bài	-7.5119
▁truyền	-7.5126
▁em	-7.51291
▁tập	-7.51448
▁tuổi	-7.51671
▁đúng	-7.51818
▁phương	-7.51896
▁khoa	-7.51908
hững	-7.51958
▁điện	-7.51982
▁bình	-7.52104
ôi	-7.52235
▁sản	-7.52433
▁đặt	-7.52548
tương	-7.52646
▁tượng	-7.52975
▁Khi	-7.52977
▁biến	-7.53078
▁tiền	-7.53976
▁Các	-7.54056
▁yêu	-7.54062
▁giữa	-7.54073
▁tiếng	-7.54936
▁thu	-7.55519
▁trả	-7.56446
p	-7.56872
▁ngay	-7.569
▁2	-7.57399
▁Không	-7.57974
▁thú	-7.58239
▁tay	-7.58429
▁lấy	-7.59173
▁xã	-7.60182
▁gần	-7.60194
▁bỏ	-7.60388
▁d	-7.60408
s	-7.60683
▁hoạt	-7.60796
▁chiến	-7.6191
▁sách	-7.62113
▁đáng	-7.62239
▁phẩm	-7.63049
▁cứ	-7.63349
▁pháp	-7.63448
▁thân	-7.63486
▁khó	-7.63603
▁cuối	-7.63931
▁hiệu	-7.63961
▁dụ	-7.64366
▁đời	-7.64454
▁chủ	-7.64486
iều	-7.64721
▁chơi	-7.64838
mang	-7.65841
▁sức	-7.66039
▁minh	-7.66093
▁kể	-7.66691
▁trí	-7.66712
▁mất	-7.66791
▁khoả	-7.67308
▁Mỹ	-7.67455
▁H	-7.6758
ọi	-7.68017
▁đồ	-7.68079
▁mạnh	-7.68399
▁S	-7.68497
▁bé	-7.68897
▁k	-7.69329
▁nghiệp	-7.69332
▁ngoài	-7.69567
▁chí	-7.69859
▁dẫn	-7.69951
▁ít	-7.70102
▁khí	-7.70404
▁lập	-7.70522
▁đấy	-7.70602
▁tài	-7.70722
▁Đâ	-7.70954
▁-	-7.71117
▁loài	-7.71201
▁kỳ	-7.71468
▁bức	-7.71625
▁luôn	-7.726
▁tinh	-7.72795
▁vô	-7.73507
▁dựng	-7.73687
▁tiêu	-7.73737
ương	-7.7391
▁văn	-7.74056
▁cộng	-7.74665
▁h	-7.74777
▁tên	-7.74856
▁chứng	-7.7525
▁tử	-7.75918
▁âm	-7.76059
▁vi	-7.76194
▁3	-7.76212
▁phố	-7.76254
▁hướng	-7.76598
▁nhạc	-7.77098
▁giả	-7.77275
▁hạn	-7.77279
▁thử	-7.7817
▁viết	-7.79013
▁đâu	-7.79245
▁di	-7.79284
▁kiến	-7.79288
▁nguyên	-7.79295
▁chức	-7.79305
▁quốc	-7.79449
▁chiế	-7.79518
▁Nế	-7.79804
▁bà	-7.80247
▁vời	-7.80248
▁tư	-7.80277
▁chọn	-7.80598
▁chế	-7.80821
▁ứng	-7.8086
▁quyền	-7.80869
▁ba	-7.81021
▁giản	-7.81198
▁đặc	-7.81438
▁thị	-7.81469
▁L	-7.81565
▁ph	-7.81646
ánh	-7.82274
▁phá	-7.82416
▁chết	-7.82608
▁bào	-7.82693
▁mạng	-7.82715
▁cấp	-7.82974
▁suy	-7.83
▁khu	-7.83255
▁triệu	-7.83417
▁tăng	-7.83772
▁thần	-7.84072
▁đạo	-7.84459
▁lẽ	-7.85784
▁sĩ	-7.86309
ân	-7.86345
▁hã	-7.87385
ắc	-7.87738
▁vụ	-7.87903
▁mẹ	-7.87947
▁đánh	-7.87949
▁s	-7.88069
▁gặp	-7.88445
▁tháng	-7.88598
▁Thế	-7.88765
▁dưới	-7.88819
▁màu	-7.88821
▁cụ	-7.89777
▁xuống	-7.90239
▁chút	-7.90485
▁xác	-7.90672
▁gắng	-7.91606
▁phép	-7.92675
▁nhóm	-7.92917
▁án	-7.92965
▁dịch	-7.9306
▁mở	-7.93257
▁xu	-7.93294
▁vực	-7.93867
▁quanh	-7.94098
▁dữ	-7.94105
▁%	-7.94296
▁trò	-7.94704
▁chia	-7.9494
▁thêm	-7.95463
▁bay	-7.95493
▁đàn	-7.96202
▁thuyết	-7.96266
▁tổ	-7.96388
▁mức	-7.96471
▁nhanh	-7.96504
▁Hã	-7.96871
ối	-7.96873
▁dạng	-7.97368
▁rõ	-7.97628
▁cực	-7.97779
▁gây	-7.97809
▁quay	-7.97819
▁vọng	-7.97976
▁nguồn	-7.99077
▁xa	-7.9934
▁dù	-7.99583
▁vùng	-7.99617
▁duy	-7.99958
▁đẹp	-8.00294
▁báo	-8.00504
▁cảnh	-8.00635
▁tục	-8.00989
▁10	-8.01756
▁giác	-8.01861
▁sát	-8.02165
▁dễ	-8.02258
▁càng	-8.02413
▁đủ	-8.02604
▁ví	-8.02773
▁nhớ	-8.03788
▁phía	-8.03922
▁vũ	-8.03974
▁phim	-8.03981
▁trang	-8.04013
▁sợ	-8.04227
ắp	-8.04283
▁hưởng	-8.0457
▁cây	-8.04887
▁đoạn	-8.04911
ên	-8.05258
▁chú	-8.05775
hôm	-8.05906
▁...	-8.06013
▁kiểm	-8.06176
▁trái	-8.06438
tham	-8.07258
▁Quốc	-8.07298
▁thương	-8.07364
▁kì	-8.07518
▁Ông	-8.08114
▁dài	-8.08201
▁Nh	-8.0822
▁vòng	-8.08473
▁thư	-8.08615
▁ngữ	-8.08854
▁luận	-8.08906
▁phản	-8.09455
▁Trung	-8.10283
▁so	-8.10487
▁đầy	-8.10808
▁đôi	-8.11274
ãy	-8.11407
▁dục	-8.11687
▁lợi	-8.11914
▁kia	-8.12589
▁giảm	-8.13128
▁Tro	-8.1316
hiếc	-8.13397
▁thuốc	-8.13573
▁kiếm	-8.14014
▁chân	-8.147
▁g	-8.14898
▁tích	-8.1492
▁trăm	-8.15048
▁bố	-8.15281
▁thôi	-8.15818
▁đình	-8.16912
ầm	-8.17375
▁bước	-8.17396
ong	-8.17514
▁giao	-8.17716
▁Người	-8.17936
▁lai	-8.18107
▁sâu	-8.18673
▁Điề	-8.18694
▁đá	-8.18829
▁toán	-8.19456
▁trời	-8.20148
▁tồn	-8.20381
▁diện	-8.20628
▁sư	-8.20784
▁trải	-8.20999
▁giữ	-8.21264
▁rộng	-8.21317
▁quy	-8.21487
▁phục	-8.21843
▁thanh	-8.21898
▁trụ	-8.22056
iểu	-8.22417
▁địa	-8.22494
▁đoán	-8.22516
ền	-8.22568
▁nối	-8.22569
▁nh	-8.22603
ằm	-8.22624
▁lòng	-8.22711
▁ty	-8.22808
▁khoản	-8.22855
▁đô	-8.22899
▁thuộc	-8.2295
▁riêng	-8.23004
▁tạp	-8.23375
▁vệ	-8.23459
▁khỏ	-8.23603
▁!	-8.24082
▁mắt	-8.24096
▁mục	-8.24112
▁phủ	-8.24355
▁dạy	-8.24466
▁đứng	-8.24495
▁nổi	-8.24575
▁thí	-8.2487
▁vẻ	-8.24907
pos	-8.25012
▁đạt	-8.25046
▁sai	-8.25396
▁kỹ	-8.25894
▁luật	-8.26035
▁căn	-8.26043
▁thúc	-8.26195
▁lệ	-8.26212
▁chi	-8.26229
▁sẻ	-8.26232
▁mẫu	-8.27073
▁Tr	-8.27661
▁lịch	-8.27749
▁tối	-8.28264
▁20	-8.28427
▁bàn	-8.28612
ứa	-8.28687
▁đọc	-8.28767
▁lớp	-8.2912
▁kỷ	-8.29767
▁yếu	-8.30118
ái	-8.30191
▁Th	-8.30756
▁vui	-8.31451
▁Bở	-8.31621
▁khoẻ	-8.31657
▁tra	-8.31706
▁ngồi	-8.3226
▁chạy	-8.32372
▁chương	-8.32492
▁tiết	-8.32544
▁gái	-8.33103
▁phút	-8.33317
▁cậu	-8.33519
ăm	-8.33535
▁cuốn	-8.33565
▁trợ	-8.33756
ếu	-8.33937
▁Cá	-8.33979
▁phí	-8.34249
▁mối	-8.3432
ận	-8.34614
▁buổi	-8.34806
▁sắc	-8.34818
▁chắn	-8.35102
▁hầu	-8.35528
▁suốt	-8.35546
▁Phi	-8.35737
▁Cả	-8.36102
▁kiện	-8.36314
--	-8.36647
▁trúc	-8.36872
ầu	-8.3693
▁biển	-8.3695
▁5	-8.3737
▁ngôn	-8.37771
▁chung	-8.37808
e	-8.38017
▁mua	-8.3823
▁doanh	-8.383
▁la	-8.38501
▁kiểu	-8.3894
▁hoà	-8.38951
▁Vâng	-8.39339
▁4	-8.39461
▁tỉ	-8.39591
ào	-8.3975
▁ngạc	-8.39801
▁cửa	-8.39948
▁sở	-8.40209
▁Là	-8.40538
▁thiên	-8.40589
▁xúc	-8.41153
▁xét	-8.41196
▁khám	-8.41469
▁cánh	-8.41647
▁bán	-8.41849
▁R	-8.41853
▁ràng	-8.41884
▁lâu	-8.42016
▁thoại	-8.42045
▁tuần	-8.42092
▁hiểm	-8.42699
▁hồi	-8.43321
▁D	-8.43415
▁Sau	-8.43985
▁lạ	-8.44013
▁cấu	-8.44221
▁nhiệm	-8.4428
▁tố	-8.44304
▁phức	-8.45314
▁kích	-8.456
ục	-8.45687
ể	-8.45715
hẳng	-8.46025
▁chụp	-8.46474
▁cung	-8.46531
▁chuyên	-8.4654
▁nhập	-8.46739
Ở	-8.4696
▁bóng	-8.47903
▁kẻ	-8.48554
ung	-8.48687
▁cạnh	-8.48762
▁nề	-8.48854
▁thái	-8.48911
ốc	-8.49279
▁TED	-8.49645
▁chứ	-8.49825
▁viện	-8.50284
▁hữu	-8.50517
▁độc	-8.5056
▁băng	-8.50704
▁chỗ	-8.51256
▁ngành	-8.51414
▁ghi	-8.51668
▁trưởng	-8.52079
▁đa	-8.52095
▁da	-8.52167
▁hoạ	-8.52414
▁khủng	-8.5245
▁vẽ	-8.52518
ậy	-8.52522
ự	-8.53308
▁phi	-8.53407
▁xin	-8.53517
▁chuẩn	-8.544
ập	-8.54551
▁Cô	-8.54647
▁quý	-8.54663
▁phúc	-8.54714
▁bác	-8.54902
▁thiếu	-8.5523
▁chịu	-8.55485
▁khăn	-8.55486
▁K	-8.55797
▁ích	-8.55956
ùng	-8.56034
iễn	-8.56161
▁lắng	-8.56297
▁Xi	-8.56351
▁hề	-8.56373
▁xanh	-8.56615
▁khiế	-8.56686
▁sẵn	-8.56777
▁tấm	-8.56781
ăn	-8.56845
▁niệm	-8.57103
▁phạm	-8.57517
▁tệ	-8.57541
▁nhiêu	-8.57593
hắc	-8.57938
▁tức	-8.57985
▁hoa	-8.58147
▁đứ	-8.58229
▁to	-8.58284
ĩ	-8.58324
▁Độ	-8.58341
▁Tạ	-8.58577
▁đau	-8.58712
▁sắp	-8.58768
ơi	-8.59028
▁trai	-8.59229
▁Giờ	-8.59407
▁hơi	-8.59837
▁bấ	-8.59947
▁Thực	-8.60029
▁dung	-8.60226
▁mặc	-8.6026
▁lạc	-8.608
▁chống	-8.60813
▁Thậ	-8.60974
▁áp	-8.61208
▁xử	-8.61403
▁châu	-8.62137
▁cha	-8.62266
▁Ch	-8.62613
▁lo	-8.62825
▁thất	-8.63306
▁lựa	-8.6368
▁trực	-8.63739
▁ké	-8.64186
1	-8.64536
▁hậu	-8.64734
▁ban	-8.64791
▁lí	-8.64832
ừng	-8.64905
▁hộ	-8.64967
▁dàn	-8.65151
▁bánh	-8.65184
▁an	-8.65822
▁nội	-8.65932
▁tổng	-8.66353
ắm	-8.66678
▁khắc	-8.66695
▁mật	-8.6681
▁xấu	-8.66958
▁toà	-8.66966
▁tỷ	-8.66993
▁đội	-8.67182
▁gử	-8.67237
▁dần	-8.67317
▁cổ	-8.67321
▁30	-8.67804
▁nguy	-8.68334
ừa	-8.68586
▁vậ	-8.6877
▁thiện	-8.68968
▁hứng	-8.69061
ao	-8.69192
▁hạt	-8.69419
âu	-8.6959
▁ẩn	-8.69599
▁qu	-8.69737
▁tim	-8.70071
ến	-8.70328
▁khổ	-8.70331
▁lưu	-8.70501
▁trạ	-8.70712
▁danh	-8.70826
▁thậ	-8.70977
▁nhiệt	-8.71008
▁chiều	-8.71692
▁ca	-8.71924
ấu	-8.72173
▁dầu	-8.72235
▁niề	-8.72561
▁hạ	-8.73197
▁lã	-8.73424
▁nghèo	-8.73475
▁tội	-8.73582
ảy	-8.73858
▁ngoại	-8.73864
▁nạn	-8.74017
▁cận	-8.74642
▁dò	-8.74912
▁kính	-8.74999
▁chữa	-8.75104
hậm	-8.75349
▁Châu	-8.75557
▁dấu	-8.75754
▁đấu	-8.75782
▁Do	-8.76134
▁nghi	-8.76174
ần	-8.76195
ch	-8.76668
ại	-8.76673
▁nỗi	-8.76908
▁New	-8.77167
ăng	-8.77268
ấy	-8.77743
▁thủ	-8.77755
▁may	-8.78163
▁thách	-8.78208
à	-8.78361
▁50	-8.78712
▁đen	-8.7889
ắt	-8.78918
▁hát	-8.79025
▁giấy	-8.79307
▁ngược	-8.79698
▁tắc	-8.79948
▁nuôi	-8.7996
▁xâ	-8.80254
▁chữ	-8.81107
▁quản	-8.81193
▁100	-8.81301
▁khách	-8.81804
▁soát	-8.82161
▁vượ	-8.82523
▁bại	-8.82594
▁hy	-8.82622
▁6	-8.82648
▁kê	-8.82783
▁lĩnh	-8.83091
▁nửa	-8.83109
▁lỗi	-8.83165
▁tả	-8.83239
▁ngủ	-8.83353
▁Tây	-8.83411
▁hoạch	-8.83499
▁tiện	-8.8365
▁mơ	-8.83652
▁Con	-8.83772
▁gồm	-8.842
▁nhiễm	-8.84402
▁nghị	-8.8456
ởi	-8.84564
▁dương	-8.84891
▁cư	-8.84986
▁khiển	-8.85036
▁sóc	-8.85365
▁cắt	-8.85953
▁giết	-8.86608
▁gi	-8.86749
▁quen	-8.87341
▁hại	-8.87437
▁già	-8.87492
▁đóng	-8.87515
▁quân	-8.87542
▁thẳng	-8.87551
▁cử	-8.87563
▁G	-8.87646
▁tàu	-8.87739
▁ngờ	-8.88032
▁ước	-8.8827
▁dây	-8.88373
▁vừ	-8.88458
▁lưới	-8.88491
▁đích	-8.88531
▁bày	-8.88729
▁nhờ	-8.88794
▁Chỉ	-8.88859
▁chiếu	-8.89081
▁;	-8.89084
▁đức	-8.89112
▁mã	-8.89321
▁thấp	-8.89527
▁mê	-8.89664
▁trừ	-8.89743
▁Ph	-8.89796
▁đổ	-8.89958
▁đêm	-8.90108
▁cười	-8.90169
ẩy	-8.90247
▁niên	-8.90523
▁lái	-8.90689
▁phóng	-8.90821
ấn	-8.90876
ành	-8.91056
▁khai	-8.91155
▁sàng	-8.91166
▁dàng	-8.91262
▁xếp	-8.91478
▁ngắn	-8.91529
úng	-8.91656
ỗi	-8.91661
▁gốc	-8.91767
▁rối	-8.918
▁đông	-8.91862
▁thi	-8.91976
▁kỉ	-8.92365
▁gấp	-8.92506
▁khoá	-8.92691
▁phong	-8.92715
▁đem	-8.92975
▁đỡ	-8.93181
▁mù	-8.93234
▁hồ	-8.9377
ằng	-8.93852
▁bạo	-8.94026
▁lắm	-8.9412
▁giây	-8.94146
í	-8.94511
▁trách	-8.94917
▁gắn	-8.95012
▁vai	-8.95644
▁ô	-8.95687
▁cáo	-8.96172
▁ngàn	-8.96228
▁bốn	-8.9665
▁đợi	-8.96657
▁thụ	-8.96768
▁đo	-8.96832
▁Rồ	-8.97219
▁bí	-8.98041
▁xuyên	-8.98242
▁hài	-8.984
▁chị	-8.98735
▁nhảy	-8.99187
ường	-8.99211
ước	-8.99304
▁chuyến	-8.99558
rong	-8.99702
▁siêu	-8.99762
▁dừng	-8.99819
▁&#9	-9.00346
▁tôn	-9.00425
âm	-9.0056
▁thoả	-9.00601
▁món	-9.00655
▁&#93;	-9.01026
▁ký	-9.01334
▁Bà	-9.01558
▁lao	-9.01711
▁tầng	-9.01869
▁15	-9.02191
▁đảm	-9.02301
▁sa	-9.0241
▁tù	-9.02635
▁chim	-9.02673
ấp	-9.03033
▁phổ	-9.03404
▁video	-9.0352
▁Tuy	-9.04208
▁tải	-9.04686
ang	-9.04807
Với	-9.05149
ưa	-9.05249
▁hấp	-9.05619
inh	-9.0612
▁rừng	-9.06133
▁nhắc	-9.06178
iếc	-9.06237
òn	-9.06397
▁Nam	-9.06417
ẩn	-9.0644
▁nghiê	-9.06552
▁X	-9.06802
▁lá	-9.06806
▁góc	-9.06828
▁Internet	-9.07023
▁lộ	-9.07067
▁Ai	-9.07073
▁ảo	-9.07686
▁tá	-9.07792
ẫu	-9.08276
▁lồ	-9.08277
▁thải	-9.08282
▁chỉnh	-9.0831
▁hộp	-9.08395
▁đố	-9.08554
▁hút	-9.08608
▁luyện	-9.08738
ù	-9.0884
▁Được	-9.08841
▁gen	-9.09001
▁khuôn	-9.0925
▁nam	-9.09277
▁thơ	-9.09302
ải	-9.09361
▁ổn	-9.09461
▁Hiệ	-9.09653
▁tín	-9.10025
▁giàu	-9.101
▁chuột	-9.10194
▁ma	-9.10214
▁Ta	-9.10262
ống	-9.10834
▁cập	-9.10899
▁liệt	-9.11508
▁đỏ	-9.1159
▁coi	-9.11884
▁Cho	-9.12292
on	-9.12321
▁Hoa	-9.1236
▁phận	-9.12484
▁tuyến	-9.12507
rời	-9.12653
▁thắng	-9.12737
ám	-9.1286
▁chẳ	-9.13048
▁tấn	-9.13112
ẫn	-9.13213
ảo	-9.13584
▁lãn	-9.13722
iêu	-9.14182
▁Chúa	-9.14233
▁y	-9.14503
▁nặng	-9.14706
▁đảo	-9.14761
▁buồn	-9.15125
▁mềm	-9.15211
▁dậy	-9.15417
ề	-9.15486
▁hẳn	-9.15529
▁York	-9.15666
▁chứa	-9.15679
▁vân	-9.1595
▁huỷ	-9.1606
▁Từ	-9.16353
▁Bắc	-9.17242
ảnh	-9.17313
▁mấy	-9.17322
▁mạch	-9.17399
▁quyển	-9.17533
ững	-9.17611
▁môn	-9.1767
▁chóng	-9.17942
▁mẽ	-9.18038
▁buộc	-9.18204
▁điển	-9.18215
▁dưỡng	-9.1832
▁sóng	-9.18376
▁máu	-9.18496
▁cũ	-9.18948
▁sơ	-9.18967
▁linh	-9.19416
▁Công	-9.19425
▁nhu	-9.19729
▁khán	-9.1979
ẻ	-9.20119
▁dõi	-9.20191
r	-9.20272
▁hãi	-9.20293
▁vĩ	-9.20677
▁Kỳ	-9.20701
▁robot	-9.20738
ật	-9.20846
▁200	-9.2099
▁loạn	-9.21042
▁chờ	-9.21062
ính	-9.21142
uyên	-9.2128
▁tồi	-9.21285
▁7	-9.21773
▁tảng	-9.21846
▁lầm	-9.21942
▁Thứ	-9.22065
▁uống	-9.22275
▁chủng	-9.2228
▁điên	-9.22393
▁vững	-9.22407
▁mắn	-9.22622
éo	-9.23162
▁góp	-9.23194
▁lan	-9.2325
▁thưởng	-9.23727
▁màn	-9.23765
eo	-9.23997
ết	-9.2427
ặt	-9.24311
▁8	-9.24339
▁40	-9.25177
▁sửa	-9.25185
ữa	-9.25245
▁tường	-9.25526
áp	-9.25653
▁đèn	-9.25829
▁12	-9.26102
▁lạnh	-9.26153
▁A	-9.26808
iết	-9.27134
▁9	-9.27306
▁trắng	-9.2731
▁ủng	-9.27378
▁tộc	-9.27667
▁mái	-9.27754
ã	-9.27785
▁lẫn	-9.27851
an	-9.27971
▁tổn	-9.28032
▁đỉnh	-9.28129
▁Ng	-9.28219
▁diệu	-9.2847
▁núi	-9.28686
▁du	-9.28877
ở	-9.28912
▁web	-9.2892
▁bảng	-9.29866
▁tờ	-9.30167
iến	-9.30261
ốn	-9.30452
▁trì	-9.30513
▁Đông	-9.30817
▁giọng	-9.30835
▁tiểu	-9.31361
▁trận	-9.31642
▁bề	-9.31681
▁trồng	-9.31793
▁giỏi	-9.32022
▁quên	-9.32034
ấm	-9.32193
ời	-9.32672
▁Hồi	-9.3295
▁ống	-9.33077
▁chạm	-9.33249
▁tốn	-9.33468
hập	-9.33712
▁mãi	-9.33822
▁hảo	-9.33943
▁kim	-9.34019
▁cỡ	-9.34068
▁khuẩn	-9.34159
uổi	-9.34642
▁chó	-9.34671
▁cầm	-9.34854
▁bền	-9.34904
▁bật	-9.3493
▁in	-9.34986
▁phấn	-9.35129
ức	-9.35154
▁áo	-9.35299
▁sánh	-9.3574
▁phẫ	-9.35832
▁biể	-9.36124
▁nghỉ	-9.36343
▁nhé	-9.36409
hấp	-9.36445
▁chấm	-9.36669
ỏng	-9.37182
▁Đại	-9.37262
iên	-9.37483
▁vợ	-9.37516
▁tiề	-9.37615
▁khích	-9.37666
ũng	-9.37676
▁quần	-9.38101
▁mời	-9.38114
▁lửa	-9.38274
▁vỡ	-9.38645
k	-9.38735
▁ghế	-9.38933
▁bang	-9.38973
ẽ	-9.39064
▁điệu	-9.39073
▁hỗ	-9.39162
▁hào	-9.39243
▁xương	-9.39432
l	-9.39567
▁Trá	-9.39805
▁nổ	-9.39809
▁đừng	-9.39908
▁dường	-9.40348
▁tô	-9.40671
▁ấn	-9.40678
▁khẩu	-9.40916
▁kịch	-9.40932
▁thịt	-9.40956
hìn	-9.41097
▁rút	-9.4113
▁phối	-9.41152
▁sót	-9.41234
▁chảy	-9.41408
▁gió	-9.41728
▁biên	-9.42042
▁tách	-9.42054
▁sớm	-9.42177
ỏi	-9.42214
▁P	-9.42384
ảm	-9.42447
▁hoảng	-9.42505
▁thoát	-9.42655
▁loạt	-9.42695
▁bè	-9.42723
▁Qu	-9.43255
▁chồng	-9.43445
ễ	-9.43596
▁khứ	-9.43746
▁hổ	-9.43785
▁dĩ	-9.43835
▁chậm	-9.43842
▁sạch	-9.43924
in	-9.44265
iếng	-9.44283
àng	-9.44355
▁Mà	-9.44377
▁cà	-9.44432
hiến	-9.44525
▁giấc	-9.44582
áy	-9.44606
▁chu	-9.44648
ơn	-9.44685
▁Ba	-9.45054
▁tàn	-9.45137
▁tắt	-9.45498
▁lặp	-9.45726
▁Nga	-9.45832
▁suất	-9.46074
ẳng	-9.4614
iệu	-9.46709
▁quỹ	-9.47022
▁nóng	-9.47812
ý	-9.4792
▁lỗ	-9.47949
êu	-9.47962
▁18	-9.47968
▁25	-9.48275
▁phê	-9.48743
▁trưng	-9.48933
▁túi	-9.49282
ốt	-9.49364
▁ngại	-9.49422
▁Google	-9.49441
ệt	-9.49464
uỗi	-9.49757
▁trữ	-9.4984
▁80	-9.49916
ia	-9.49921
▁hôn	-9.49955
▁nguyện	-9.50332
▁sông	-9.50633
▁dặm	-9.50634
en	-9.50715
▁trại	-9.50987
▁chá	-9.51013
▁kiệm	-9.51078
▁Việ	-9.51342
ép	-9.51501
▁tán	-9.51534
▁thước	-9.51557
▁Hay	-9.52052
áu	-9.52589
▁sỹ	-9.53236
▁hi	-9.53655
▁cờ	-9.53914
▁nhẹ	-9.54419
▁nhắn	-9.54829
▁bơi	-9.54874
▁vỏ	-9.5492
▁11	-9.5493
▁thù	-9.5495
▁ghép	-9.552
ác	-9.55449
ột	-9.55791
õ	-9.55867
▁nhị	-9.56081
▁60	-9.56118
2	-9.56138
▁Thu	-9.56201
▁thăm	-9.5644
▁Gi	-9.56586
▁bờ	-9.56697
▁thở	-9.56889
▁đe	-9.57231
ồng	-9.57232
▁thảm	-9.57315
▁nỗ	-9.57439
▁lặng	-9.58003
▁bi	-9.58029
ặc	-9.58133
iệp	-9.58139
▁bọn	-9.58262
▁nhật	-9.58381
▁I	-9.58714
ợ	-9.58751
▁sáu	-9.58851
▁tàng	-9.59108
▁Hai	-9.59126
▁rẻ	-9.59132
▁mỏ	-9.59264
▁lọc	-9.5928
▁Nhật	-9.59353
▁Bản	-9.59443
▁E	-9.59525
▁J	-9.59853
ếp	-9.59978
xoay	-9.60158
▁trống	-9.60376
▁hùng	-9.60579
hiển	-9.60609
ực	-9.61073
hỏi	-9.61317
▁bò	-9.61502
▁Đất	-9.61957
iện	-9.6196
▁gợ	-9.62084
▁tròn	-9.6226
er	-9.62297
▁đẳng	-9.62338
▁voi	-9.62362
▁doạ	-9.62563
▁Liệ	-9.6258
▁Bộ	-9.6277
▁mùi	-9.63034
ịch	-9.63268
▁ưu	-9.63347
ói	-9.63516
ay	-9.63656
sang	-9.63742
▁sâ	-9.64214
▁hà	-9.64243
▁đam	-9.64321
▁chặn	-9.64322
▁đựng	-9.64469
▁rác	-9.64789
▁ghé	-9.65067
▁thừa	-9.65236
d	-9.65463
ược	-9.6555
▁tụ	-9.65606
▁thả	-9.65683
ới	-9.66038
▁thác	-9.6617
ích	-9.66212
▁đoàn	-9.66274
▁HIV	-9.6649
anh	-9.66579
▁Theo	-9.67111
▁né	-9.67153
ượng	-9.67232
ũ	-9.67261
ua	-9.67394
▁nhuận	-9.67424
▁Mặ	-9.67753
ạo	-9.68394
▁đạp	-9.68401
▁chắ	-9.68678
▁19	-9.68851
▁Đức	-9.69111
▁dị	-9.69412
▁lược	-9.69593
▁nhựa	-9.69653
hưng	-9.69751
▁cãi	-9.6977
▁Nào	-9.69879
ai	-9.70067
▁Dù	-9.70081
▁đế	-9.70124
▁tai	-9.70183
▁khấu	-9.70298
A	-9.70388
▁thang	-9.70483
▁mộ	-9.70759
▁90	-9.70896
▁sốt	-9.70999
▁đò	-9.71053
ình	-9.71192
ặp	-9.71216
▁ngoái	-9.71382
▁can	-9.7169
▁Cuố	-9.71872
hiệu	-9.72187
▁hè	-9.72202
ét	-9.72254
hảo	-9.72284
▁Em	-9.7246
▁tật	-9.72499
▁mừng	-9.72602
Đầu	-9.7262
▁tràn	-9.72852
▁diệt	-9.72909
▁dà	-9.72925
▁ngang	-9.73077
▁vú	-9.73519
▁xoá	-9.73909
ách	-9.73983
▁thao	-9.74172
▁sổ	-9.74175
ùa	-9.74383
▁giảng	-9.74445
▁quang	-9.74468
▁ngh	-9.74731
▁70	-9.74804
▁chép	-9.74936
▁thai	-9.75029
▁yên	-9.75095
▁đùa	-9.75281
▁mại	-9.75312
ra	-9.76016
▁Nê	-9.76196
▁tri	-9.76362
▁tỏ	-9.76526
▁vong	-9.76586
▁thận	-9.76812
▁trù	-9.77196
òng	-9.77351
▁bom	-9.77718
▁mập	-9.77905
▁mực	-9.78012
▁Ho	-9.78096
▁đói	-9.78122
▁ADN	-9.7837
▁súng	-9.7884
▁ko	-9.79099
ẩm	-9.79315
▁chán	-9.79343
▁bắn	-9.79395
iệt	-9.79515
▁tiêm	-9.79838
▁trào	-9.79887
uộc	-9.7998
▁Tron	-9.80049
▁ngọn	-9.80096
▁Mẹ	-9.80301
▁mây	-9.80345
▁móc	-9.80529
▁hiếm	-9.80592
▁kí	-9.80861
ô	-9.81213
▁lừa	-9.81287
▁Pháp	-9.81365
▁liền	-9.81448
▁Bằng	-9.81524
▁hương	-9.81591
▁gỗ	-9.81847
▁dối	-9.81868
▁khuyế	-9.82256
▁cứng	-9.8232
▁cam	-9.82465
▁tươ	-9.82525
▁thờ	-9.82774
ồi	-9.82797
▁đua	-9.83003
ỡ	-9.83028
▁béo	-9.83127
ê	-9.83748
ội	-9.84004
▁thầy	-9.84056
ài	-9.84072
uỳ	-9.84112
rước	-9.84151
▁bậc	-9.84379
▁mạc	-9.84402
▁lũ	-9.84428
▁Thái	-9.84741
hàng	-9.84764
▁ngưỡng	-9.84921
▁óc	-9.84946
,000	-9.8539
▁khung	-9.85633
▁ngu	-9.8605
oặc	-9.86087
▁rượu	-9.86424
▁căng	-9.86435
▁hoàng	-9.86502
▁John	-9.86714
▁thuyền	-9.86744
▁Hà	-9.86801
hay	-9.86854
▁ám	-9.86998
D	-9.87319
▁táo	-9.87545
ta	-9.87591
▁16	-9.87629
▁nhũng	-9.87658
óm	-9.87701
▁mét	-9.87726
▁che	-9.88025
▁hỗn	-9.88081
▁vâng	-9.88517
▁Lú	-9.88525
▁hối	-9.88564
ày	-9.88607
▁mì	-9.88706
▁côn	-9.88888
son	-9.89012
▁cỏ	-9.89491
▁ngón	-9.8954
▁Iran	-9.89749
▁khô	-9.90017
huỷ	-9.90106
ụp	-9.90154
▁cát	-9.9023
▁Phả	-9.90397
▁nút	-9.909
▁tỉnh	-9.9145
▁bó	-9.91472
▁Afghanistan	-9.91827
▁Al	-9.9191
▁truy	-9.91958
▁ong	-9.91986
la	-9.91992
▁dã	-9.92489
▁David	-9.92931
▁đắn	-9.93199
▁hồn	-9.93395
▁xứ	-9.93412
▁mạo	-9.93474
▁hắn	-9.93512
▁kiên	-9.93548
▁cản	-9.93784
▁ngừ	-9.93804
▁khở	-9.93856
▁gọn	-9.94022
▁protein	-9.94062
▁tò	-9.94271
▁mũi	-9.94392
▁túc	-9.94418
▁mò	-9.94506
▁song	-9.94623
▁dư	-9.94655
▁cỗ	-9.94738
▁giận	-9.94796
▁thiểu	-9.94906
▁trứng	-9.94907
úc	-9.95054
▁p	-9.95316
▁thạch	-9.95413
▁thọ	-9.95435
uấn	-9.96145
us	-9.96542
▁khiếp	-9.96673
▁hô	-9.96747
▁thiệp	-9.97122
▁tha	-9.97191
▁dày	-9.9727
te	-9.97425
▁lộn	-9.97499
▁Ngà	-9.97836
▁xong	-9.97896
uỷ	-9.98068
▁cụt	-9.98148
▁TV	-9.98329
▁phán	-9.98546
▁phó	-9.98765
▁truyện	-9.988
▁hước	-9.98802
▁thánh	-9.9895
▁tóc	-9.99231
ựa	-9.99275
▁rủ	-9.99299
ưởng	-9.99448
▁nhấ	-9.99474
▁xưa	-9.99495
▁21	-9.99616
▁mai	-9.99757
▁ngô	-9.99956
▁dọc	-10.0002
àm	-10.0005
▁răng	-10.0008
▁14	-10.0028
▁rưỡi	-10.005
▁mát	-10.0073
▁đài	-10.0113
▁nơ	-10.0114
.000	-10.0123
▁miền	-10.013
âng	-10.0139
▁bạc	-10.015
▁đĩa	-10.0175
▁tặng	-10.0194
▁Cơ	-10.0196
ọc	-10.0222
▁Sa	-10.0225
▁cột	-10.0244
▁gương	-10.0245
▁Y	-10.028
ười	-10.0285
▁vườn	-10.03
▁huyết	-10.0301
▁xạ	-10.0304
▁rồ	-10.0323
▁nhỉ	-10.0329
▁W	-10.0354
▁trộn	-10.0367
▁quê	-10.0373
▁ngài	-10.0398
▁mãn	-10.0406
▁Israel	-10.0428
▁cú	-10.0433
▁17	-10.0464
▁ti	-10.048
▁khố	-10.0498
▁Lan	-10.0532
▁dính	-10.0573
▁khóc	-10.0585
▁miệng	-10.061
hoảng	-10.0615
▁đớn	-10.062
▁lẻ	-10.0632
es	-10.0652
▁tuệ	-10.0675
▁kho	-10.0699
▁gà	-10.0706
▁than	-10.0711
ron	-10.0738
▁đẩ	-10.0769
▁hẹn	-10.0785
▁lành	-10.0801
▁Giáo	-10.0811
▁lỏng	-10.0827
▁huy	-10.0827
▁ngầm	-10.0865
▁game	-10.0867
▁Facebook	-10.0868
▁bắc	-10.089
▁bọ	-10.0904
▁vuông	-10.0936
ậm	-10.0945
▁đậu	-10.0964
ẩu	-10.0966
▁phổi	-10.0981
▁thuậ	-10.1001
▁lão	-10.1037
▁bạch	-10.1063
▁13	-10.1072
▁Ban	-10.1084
▁ro	-10.1098
▁khắ	-10.1143
▁Hô	-10.1157
▁ấm	-10.1168
▁Cực	-10.117
ậu	-10.1196
▁California	-10.1201
▁bổ	-10.1204
▁Mĩ	-10.1229
▁DNA	-10.1269
▁pin	-10.1285
▁cường	-10.1292
▁cốc	-10.1294
gày	-10.1317
hiệp	-10.1327
▁24	-10.1329
▁hằng	-10.1342
▁500	-10.1348
▁thoảng	-10.1363
▁The	-10.1373
▁leo	-10.1386
▁nướng	-10.1394
uân	-10.1432
▁hứa	-10.1433
▁ngã	-10.1445
ạng	-10.1456
▁su	-10.1463
▁đảng	-10.147
ỷ	-10.1489
▁hạng	-10.1498
▁tuy	-10.1505
▁giày	-10.152
rên	-10.153
▁Kinh	-10.1558
▁gã	-10.1565
▁buôn	-10.1592
▁nét	-10.1602
▁Gia	-10.1603
▁OK	-10.1613
▁ổ	-10.1673
êm	-10.1681
▁chăng	-10.1688
▁Khán	-10.1708
▁hoại	-10.1712
▁ức	-10.1716
▁lưng	-10.1726
▁bột	-10.1734
▁rô	-10.1738
▁tuyết	-10.175
▁mẻ	-10.1756
▁Chris	-10.1775
▁tĩnh	-10.1784
man	-10.1787
▁Bố	-10.1799
uyển	-10.1808
▁vắc	-10.1832
ảng	-10.1839
▁mèo	-10.1841
ụ	-10.1842
▁kèm	-10.1843
▁quà	-10.1853
▁xí	-10.1867
el	-10.1876
hiếp	-10.1884
▁tí	-10.1894
▁Nhân	-10.1908
▁dán	-10.1916
▁Giá	-10.1961
▁bụng	-10.1977
▁trăng	-10.1994
▁gói	-10.2
▁rơ	-10.2002
hăm	-10.2002
v	-10.2028
ượt	-10.2035
hật	-10.2053
▁San	-10.2115
▁Mexico	-10.2123
▁blog	-10.2151
▁lăn	-10.2174
▁tu	-10.2176
▁Kế	-10.2177
ợi	-10.2189
▁email	-10.2198
▁giấu	-10.2212
ờ	-10.2238
▁tám	-10.2276
▁O	-10.2284
▁2000	-10.2291
▁trần	-10.2301
▁thổ	-10.2302
huyện	-10.2334
▁mờ	-10.2342
▁va	-10.2349
▁dứt	-10.2351
▁Canada	-10.2357
▁Cậ	-10.2361
▁tiệc	-10.2362
▁Bill	-10.2363
▁quán	-10.238
ỗ	-10.2382
C	-10.2398
▁quái	-10.2413
▁lệnh	-10.2432
▁phiền	-10.2443
ton	-10.2446
▁chìm	-10.2448
▁trốn	-10.2464
óc	-10.2467
▁lặn	-10.2494
▁hố	-10.2501
▁Brazil	-10.2502
▁hỏng	-10.251
▁bão	-10.2515
▁sàn	-10.2533
▁cự	-10.2549
▁san	-10.2566
▁Tổ	-10.2578
▁ngọt	-10.2586
▁ngon	-10.2597
▁cụm	-10.2616
▁giơ	-10.2617
▁AIDS	-10.2657
▁Kenya	-10.2661
▁mồ	-10.2669
▁bụ	-10.2681
hải	-10.2687
▁bã	-10.2692
▁mệnh	-10.2752
▁quí	-10.2755
▁virus	-10.2759
▁Điển	-10.276
▁Số	-10.2781
quang	-10.2806
ôm	-10.2818
▁thấ	-10.2822
▁Trường	-10.2833
9	-10.2834
▁cúm	-10.2837
▁F	-10.2841
▁Paul	-10.2843
▁thuế	-10.2854
▁vò	-10.2858
▁tị	-10.2873
▁huố	-10.2893
▁phì	-10.2912
▁Cứ	-10.2926
▁Dự	-10.295
hỉnh	-10.2951
▁hư	-10.2955
▁chợ	-10.2963
▁and	-10.2968
▁trưa	-10.297
▁London	-10.298
ạm	-10.2985
ạch	-10.2996
▁sữa	-10.3
▁dáng	-10.3024
▁Kh	-10.3026
▁300	-10.3035
▁hàm	-10.3068
▁tạ	-10.3079
▁Rập	-10.3086
S	-10.31
▁pha	-10.3138
▁chố	-10.3169
▁tuý	-10.3189
▁heo	-10.3213
▁khỉ	-10.3227
▁hang	-10.3239
▁Tiếp	-10.3248
▁rét	-10.325
▁Giả	-10.3267
▁tung	-10.3269
▁ngắm	-10.3276
▁kị	-10.3324
▁cấm	-10.3332
hẩm	-10.3404
▁khoan	-10.3427
▁Hy	-10.343
▁La	-10.3463
iêm	-10.3506
▁muỗi	-10.3517
ley	-10.3518
▁cưới	-10.3532
▁Iraq	-10.3565
▁Chủ	-10.3566
▁lướt	-10.3568
▁rãi	-10.3604
ướng	-10.3616
▁trà	-10.3616
ắn	-10.3617
▁CO	-10.3622
▁khôn	-10.3625
▁George	-10.3649
▁tháp	-10.365
▁trượt	-10.367
áo	-10.3693
▁nhẫn	-10.3697
3	-10.3697
iệc	-10.3717
▁phú	-10.3734
ều	-10.3739
▁sứ	-10.3781
▁Thiên	-10.3789
▁ngốc	-10.3801
▁kín	-10.3809
▁feet	-10.382
▁Hàn	-10.3822
▁ngập	-10.3822
▁sơn	-10.383
▁thám	-10.3841
hành	-10.385
át	-10.3873
▁say	-10.3874
x	-10.3882
▁cuộ	-10.3882
,	-10.3895
▁tướng	-10.3896
▁GDP	-10.3908
hính	-10.3919
▁im	-10.3927
▁xóm	-10.3927
▁châm	-10.3928
▁nhãn	-10.3932
▁ly	-10.3937
▁chấ	-10.3938
▁nốt	-10.3946
▁lò	-10.3961
apo	-10.3974
▁Bao	-10.3991
▁Twitter	-10.3999
▁khớp	-10.4002
▁đà	-10.402
▁gián	-10.4024
ộng	-10.4027
ore	-10.4039
▁mắ	-10.4043
ủ	-10.4077
▁co	-10.409
▁tủ	-10.4099
▁Chín	-10.4125
▁nắng	-10.4149
▁nở	-10.4159
▁chúa	-10.4161
ạp	-10.4184
▁Hệ	-10.4194
▁phạt	-10.4196
▁toả	-10.4212
▁tháo	-10.4239
▁ngư	-10.4241
▁Ok	-10.4252
▁sung	-10.4269
▁thính	-10.4278
M	-10.4284
ưng	-10.4306
▁trú	-10.4312
▁thua	-10.4315
ứng	-10.432
ham	-10.4335
▁mạn	-10.4338
▁trán	-10.4353
ớt	-10.4362
▁mũ	-10.4364
▁đuôi	-10.4369
▁Khoa	-10.4376
▁tân	-10.438
amp	-10.4386
▁Ôi	-10.4392
ghệ	-10.4392
ầy	-10.4413
0,000	-10.4415
▁nâ	-10.4418
▁thô	-10.4435
▁nọ	-10.4438
▁Liê	-10.4442
▁Cha	-10.4462
▁quát	-10.4468
by	-10.4481
▁bốt	-10.4485
mera	-10.45
▁Bình	-10.4502
▁hầm	-10.4505
▁tây	-10.4515
▁nho	-10.4528
▁nàng	-10.453
▁Thông	-10.4548
▁slide	-10.4551
▁Einstein	-10.4552
huyền	-10.4563
▁nghì	-10.4571
em	-10.4583
▁thuẫn	-10.4586
▁kẹ	-10.46
▁vở	-10.4604
▁Tiến	-10.4612
▁Tự	-10.4628
am	-10.463
oảng	-10.4631
▁muộn	-10.4647
á	-10.4667
▁Dương	-10.4689
▁nhở	-10.469
ít	-10.4744
▁150	-10.4752
▁lát	-10.4785
uống	-10.4799
ử	-10.4809
▁400	-10.4824
▁ho	-10.4836
▁câ	-10.4848
▁mỹ	-10.4863
▁lõ	-10.4877
▁Hộ	-10.4886
▁ạ	-10.4896
▁Ngài	-10.4899
▁Phụ	-10.4902
uốt	-10.4941
▁Hoả	-10.4942
▁thoá	-10.4947
▁Tin	-10.4969
▁bút	-10.497
▁phẳng	-10.4972
▁hoả	-10.4982
▁Dan	-10.4985
K	-10.4992
▁ngực	-10.5014
▁Ma	-10.5019
▁Washington	-10.5038
▁múa	-10.5041
ổi	-10.5047
▁carbon	-10.5064
▁giam	-10.5066
▁Quá	-10.5071
▁khúc	-10.5075
▁Quan	-10.5078
▁lù	-10.5083
▁Nha	-10.5099
▁trấn	-10.5112
G	-10.5115
▁Ben	-10.5135
▁Cập	-10.5135
uần	-10.5142
▁thôn	-10.5171
▁hòn	-10.5173
▁Tấ	-10.5191
iếp	-10.5205
ổng	-10.5222
▁Chà	-10.5243
▁bá	-10.5297
▁Na	-10.5304
▁vàng	-10.5312
▁Nigeria	-10.534
▁Charles	-10.5342
▁củ	-10.5353
▁websi	-10.5353
al	-10.5365
▁quạ	-10.5367
▁lông	-10.5367
▁phái	-10.5384
chìa	-10.5416
▁internet	-10.5443
ó	-10.5462
▁nghiện	-10.5466
▁hưu	-10.5482
▁Oh	-10.5484
▁ráp	-10.5496
ịnh	-10.55
rào	-10.5519
▁mỏi	-10.5524
▁cong	-10.5537
▁đới	-10.5552
ơ	-10.5561
▁Hình	-10.5578
▁Thổ	-10.5579
▁Khá	-10.5583
▁lưỡng	-10.5584
▁nhặt	-10.5591
▁Joe	-10.561
ợt	-10.5618
co	-10.565
▁cuồng	-10.5669
ỗng	-10.5693
▁vươn	-10.5705
▁Tốt	-10.573
0.000	-10.5732
▁lụ	-10.5741
▁MIT	-10.5757
▁Nghe	-10.5764
▁hẹp	-10.5767
▁2008	-10.5775
▁1000	-10.5792
ãi	-10.5848
▁Adam	-10.5867
ỹ	-10.5871
▁gan	-10.5883
J	-10.5946
ưỡng	-10.5956
▁rắn	-10.5961
ôn	-10.5977
▁the	-10.5994
▁Francis	-10.5998
▁35	-10.5999
▁Los	-10.6003
ưu	-10.6011
▁45	-10.6031
▁Gầ	-10.6057
ỏ	-10.6059
▁hồng	-10.6076
▁rung	-10.6087
▁cừu	-10.6091
▁bơ	-10.6093
▁rửa	-10.6095
N	-10.6109
▁đoan	-10.6119
ạn	-10.6142
▁stress	-10.6196
▁Pakistan	-10.6201
▁đáo	-10.6206
▁tậ	-10.6269
▁vé	-10.6272
▁Michael	-10.6284
ạ	-10.6294
▁dẻo	-10.6311
▁dạo	-10.6349
▁sạn	-10.6375
▁cạn	-10.6384
▁dâm	-10.6386
▁đồi	-10.64
▁nấ	-10.6409
b	-10.6411
ine	-10.6419
▁vẹn	-10.643
omas	-10.6438
▁ga	-10.6448
▁trô	-10.645
4	-10.6451
▁lệch	-10.6457
hà	-10.6468
▁gene	-10.6485
▁đỗ	-10.6496
▁nhạ	-10.65
ghề	-10.6512
▁cacbon	-10.6524
▁PM	-10.6556
▁lợn	-10.6557
▁lận	-10.6592
▁ư	-10.6599
T	-10.6602
▁đạc	-10.6614
▁Haiti	-10.6654
ụt	-10.668
▁lờ	-10.6699
da	-10.671
th	-10.6712
ế	-10.6717
▁Đế	-10.6726
▁75	-10.6737
▁tần	-10.676
▁GPS	-10.6769
▁manh	-10.6774
▁dọn	-10.6775
▁buýt	-10.6777
▁kẹo	-10.6783
▁non	-10.6787
▁2010	-10.6793
rễ	-10.6814
ba	-10.6817
le	-10.6822
▁chín	-10.6825
▁Đi	-10.6859
▁Loạ	-10.6876
▁May	-10.6884
ey	-10.6998
▁ồn	-10.7022
ie	-10.7036
▁đạn	-10.7056
▁bắp	-10.7057
gay	-10.706
▁de	-10.7083
▁khói	-10.7115
▁mòn	-10.7115
▁Khoản	-10.7128
▁Dar	-10.7143
▁vây	-10.7157
▁Robert	-10.7161
▁hò	-10.7185
▁..	-10.7193
▁xám	-10.7215
di	-10.7228
win	-10.7241
▁lọ	-10.7247
▁chặ	-10.7254
ứt	-10.7298
▁cướ	-10.7306
▁rập	-10.7309
hạy	-10.7319
▁sốc	-10.7323
▁Chú	-10.7324
com	-10.7352
▁lũng	-10.7376
▁Lạp	-10.7389
▁dở	-10.7394
▁bia	-10.7401
▁Tuyệt	-10.7406
▁giã	-10.741
▁Jame	-10.7418
▁Richard	-10.7422
và	-10.7436
▁dốc	-10.7441
▁long	-10.7444
▁chả	-10.7475
▁chẳn	-10.7477
▁vay	-10.7484
▁ngừa	-10.7503
▁chăn	-10.7543
▁làng	-10.7553
uyền	-10.7561
▁chà	-10.7567
▁0	-10.7574
ụng	-10.7584
hai	-10.7586
▁Lầ	-10.7592
▁Bang	-10.7602
ạnh	-10.7605
iền	-10.7611
▁nát	-10.7617
▁amp	-10.762
▁lượt	-10.7632
ợp	-10.7632
áng	-10.7635
▁Xe	-10.7671
ne	-10.7681
▁Câ	-10.77
▁Mark	-10.771
00	-10.7731
ri	-10.7753
▁trá	-10.7757
▁nô	-10.7765
H	-10.7766
▁iPhone	-10.777
ỳ	-10.7799
▁vượng	-10.7813
▁Nghĩ	-10.7825
land	-10.7856
ắng	-10.7885
một	-10.7898
▁nản	-10.7901
▁Talk	-10.7903
▁2007	-10.7912
▁Da	-10.7914
▁dội	-10.7928
▁Bác	-10.794
▁Sinh	-10.7942
▁Dere	-10.7945
èo	-10.7948
▁phiế	-10.7954
5	-10.7956
▁NAS	-10.7989
ED	-10.7992
▁Di	-10.8023
▁men	-10.8024
▁Đa	-10.8033
▁khuy	-10.8049
▁23	-10.8051
án	-10.8058
▁mo	-10.8076
▁pho	-10.808
▁võ	-10.8089
oá	-10.8089
▁nghiệt	-10.8113
▁xăng	-10.8123
ice	-10.8142
▁Obama	-10.8165
▁xé	-10.8187
▁bìa	-10.819
▁bớ	-10.819
uỹ	-10.819
▁Cuộ	-10.8196
R	-10.8209
hử	-10.8222
▁sôi	-10.8235
▁đón	-10.824
▁Steve	-10.8242
▁thẳ	-10.8249
▁bù	-10.8254
út	-10.828
▁rau	-10.8295
▁ruồi	-10.8303
▁lơ	-10.8315
▁sụ	-10.8328
▁đẽ	-10.833
▁bách	-10.834
▁xích	-10.8367
▁muối	-10.8371
▁ngâ	-10.8435
▁trộm	-10.8445
▁hung	-10.845
▁lúa	-10.8453
ồn	-10.8466
▁ham	-10.8497
▁of	-10.8501
▁Hoà	-10.8526
▁Quả	-10.857
▁Qua	-10.8573
▁hóc	-10.8573
▁gũi	-10.8581
▁Martin	-10.8582
▁Wikipedia	-10.8582
▁van	-10.8585
▁mươi	-10.8595
ma	-10.8605
▁dạ	-10.8617
▁lắc	-10.862
▁phác	-10.8622
▁rũ	-10.8629
▁tiễn	-10.8632
úp	-10.8667
▁tím	-10.8675
▁mọc	-10.8683
▁thiệ	-10.8686
hiều	-10.8689
▁Li	-10.8699
▁cương	-10.8705
▁Peter	-10.8724
▁Harvard	-10.8725
▁ngẫm	-10.8753
▁Big	-10.8781
▁ván	-10.8789
▁An	-10.8789
▁dỗ	-10.8821
▁ếch	-10.8831
▁chẽ	-10.8866
ư	-10.8876
▁Trans	-10.888
▁hacker	-10.8881
▁Paris	-10.8885
ẫy	-10.8894
▁Chị	-10.8902
rus	-10.8911
ler	-10.8914
▁ngẩn	-10.8942
▁lề	-10.8944
as	-10.8966
▁đai	-10.8978
▁Mo	-10.8985
▁ác	-10.8989
ạt	-10.8989
▁Giọ	-10.8992
▁vả	-10.9
▁Angeles	-10.9017
▁bẩn	-10.9021
▁Luậ	-10.9021
ị	-10.9038
▁tráng	-10.9042
▁hét	-10.9048
▁sọ	-10.9073
▁nhường	-10.9082
▁tan	-10.9085
▁Eric	-10.9087
ti	-10.91
▁nhạt	-10.9108
▁Đồ	-10.9114
▁mỉ	-10.9117
Toàn	-10.9131
iểm	-10.9131
▁Điện	-10.9133
▁sô	-10.9154
▁Sahara	-10.9172
▁rỗng	-10.9182
▁ruộ	-10.9207
▁phun	-10.9227
▁sáo	-10.9237
▁sắm	-10.9261
▁bám	-10.9294
▁mến	-10.9304
▁logic	-10.9318
▁Nguyên	-10.9328
▁ồ	-10.9331
ệnh	-10.9332
▁nhện	-10.9338
▁ngự	-10.9342
▁Tom	-10.9355
▁lân	-10.9362
▁oh	-10.9363
▁Nob	-10.9387
▁lánh	-10.9402
huê	-10.944
hối	-10.9444
▁mổ	-10.9446
▁Smith	-10.9471
▁2005	-10.9472
là	-10.9479
▁micro	-10.9485
▁vạch	-10.9503
iếm	-10.9504
tôi	-10.9506
▁vụn	-10.9528
aptop	-10.9535
hề	-10.9539
học	-10.9577
▁---	-10.958
▁Amazon	-10.9627
õi	-10.9636
hiên	-10.9677
▁lỡ	-10.968
▁sét	-10.9681
▁rã	-10.9691
hép	-10.9697
▁bê	-10.9699
▁huynh	-10.9722
▁phiê	-10.9727
▁cọ	-10.9729
ệ	-10.9738
▁qui	-10.9768
▁Toà	-10.9781
ượn	-10.9781
▁vờ	-10.9783
▁Manhattan	-10.9786
▁giọ	-10.9792
▁tivi	-10.9795
▁Sĩ	-10.983
ủa	-10.9848
oài	-10.9859
▁léo	-10.988
▁inch	-10.9882
▁hoan	-10.9922
8	-10.9941
▁oxytocin	-10.9947
▁Alzheimer	-10.9948
▁nano	-10.9955
hỏng	-10.9969
▁độn	-10.9973
ì	-11.0042
lo	-11.0046
▁lăng	-11.0068
▁El	-11.0078
li	-11.009
những	-11.0099
ươi	-11.0101
uy	-11.0103
▁Chicago	-11.0111
▁Rwanda	-11.0111
▁22	-11.0121
▁chớp	-11.0123
▁Frank	-11.015
▁run	-11.0157
▁Su	-11.0171
▁biệ	-11.0171
▁tê	-11.0207
▁chuông	-11.0209
z	-11.0218
hạch	-11.0236
▁Gab	-11.024
▁hiể	-11.0246
▁Tư	-11.0258
▁rì	-11.0271
▁1990	-11.0277
▁nhiễu	-11.0281
▁27	-11.0285
▁Quy	-11.0286
ward	-11.0288
▁Sub	-11.0316
de	-11.0358
▁ngớ	-11.0369
▁xỉ	-11.0377
▁Phá	-11.0424
▁Tác	-11.044
▁Tony	-11.0449
▁Sử	-11.045
▁xà	-11.0476
▁Chưa	-11.0479
▁lố	-11.0484
▁kìa	-11.0496
hận	-11.0499
▁Chiế	-11.055
ce	-11.0559
▁Higg	-11.0619
▁Coca	-11.062
▁hoãn	-11.0621
▁lui	-11.0624
▁đôla	-11.0629
▁khoăn	-11.0633
xin	-11.0642
▁bồi	-11.0665
ỉnh	-11.0687
▁đuối	-11.0698
uyệt	-11.0699
▁bả	-11.0708
▁vịnh	-11.0709
L	-11.0723
ổ	-11.073
▁phô	-11.073
▁gậy	-11.0761
uối	-11.0765
▁Apple	-11.0777
▁golf	-11.0794
▁Web	-11.0802
▁hydro	-11.0802
hiếu	-11.0802
rẻ	-11.0804
▁chôn	-11.0809
▁MRI	-11.0814
▁đúc	-11.0822
▁rỉ	-11.0832
▁TEDx	-11.084
▁Nghiê	-11.0844
▁nhào	-11.0874
ẹp	-11.0891
▁li	-11.0894
▁mỡ	-11.09
chúng	-11.0918
ín	-11.0936
crip	-11.095
▁Gates	-11.0973
ill	-11.0974
▁Jer	-11.0991
ghê	-11.1
hân	-11.1016
iển	-11.1019
▁II	-11.1025
▁Lo	-11.1041
▁oxy	-11.1042
▁Quay	-11.1045
B	-11.1048
hằm	-11.1057
tles	-11.1062
▁000	-11.1074
▁tiệm	-11.1098
▁ngoa	-11.1117
▁bồ	-11.115
goài	-11.1151
▁nghẽn	-11.1155
▁Times	-11.1171
có	-11.1189
▁ngụ	-11.1193
▁Bos	-11.1194
uồng	-11.1196
▁95	-11.1219
óng	-11.1232
▁99	-11.1243
▁Latin	-11.1251
▁Jim	-11.1257
▁e	-11.1279
ha	-11.1285
ộp	-11.1319
▁Koran	-11.134
▁2004	-11.1342
▁Okay	-11.1345
▁mộng	-11.1348
▁2006	-11.1362
▁gien	-11.1365
▁Thá	-11.1377
▁gãy	-11.1387
ềm	-11.1437
ìn	-11.1505
W	-11.1513
▁Hans	-11.1533
▁súp	-11.1539
ike	-11.1553
hời	-11.1567
▁bể	-11.1586
7	-11.159
▁băn	-11.1591
▁Green	-11.1613
▁65	-11.1623
▁Kì	-11.1629
iếu	-11.1637
▁1970	-11.172
▁1960	-11.1721
▁Rio	-11.1728
hi	-11.173
Lấy	-11.1741
▁sướng	-11.1743
re	-11.1745
▁que	-11.1748
▁MT	-11.1754
▁mớ	-11.1771
▁250	-11.179
▁Hoàn	-11.1791
▁Lạ	-11.1805
ặng	-11.1809
oan	-11.1816
dio	-11.183
▁lam	-11.184
▁quyế	-11.185
od	-11.1854
gom	-11.1862
rút	-11.1877
▁vaccine	-11.192
▁mầm	-11.1933
▁2011	-11.1954
▁ngử	-11.1958
▁chày	-11.1973
▁xá	-11.1973
▁rộn	-11.1986
▁St	-11.1999
hần	-11.2004
▁lưỡ	-11.2008
ếm	-11.2023
▁Van	-11.2036
▁vớ	-11.2038
▁Henr	-11.2044
cô	-11.207
▁Sam	-11.2089
▁cộ	-11.2095
▁Ra	-11.2099
azz	-11.2104
▁Yemen	-11.2117
▁origami	-11.2117
▁Não	-11.2126
▁gố	-11.2139
▁600	-11.2149
O	-11.2149
ar	-11.2175
▁Nữ	-11.2184
▁Kim	-11.2209
een	-11.2218
▁lu	-11.2222
▁nàn	-11.2235
ro	-11.2242
▁khen	-11.2245
▁thắn	-11.2267
▁Man	-11.2271
▁piano	-11.2321
▁studio	-11.2321
▁YouTube	-11.2321
▁Lego	-11.2322
▁Brian	-11.2322
▁Congo	-11.2323
▁búa	-11.2334
▁Nă	-11.2363
ner	-11.2381
▁Khu	-11.2389
&	-11.2394
▁kem	-11.2399
ả	-11.24
hương	-11.2422
▁khùng	-11.2439
▁28	-11.2441
▁3000	-11.2442
▁kẽ	-11.2458
Cola	-11.2458
▁xộn	-11.2486
▁ngẫ	-11.2496
ọng	-11.2499
▁sườn	-11.2521
▁chóc	-11.2523
ganda	-11.2523
▁Ford	-11.2529
▁Ghana	-11.253
▁Syria	-11.253
▁mản	-11.253
▁Tasmania	-11.253
clip	-11.2544
▁26	-11.2548
one	-11.255
▁gạt	-11.2555
ưới	-11.256
▁So	-11.2565
V	-11.2568
oán	-11.2571
▁chíp	-11.2582
▁rỡ	-11.2582
▁Sáu	-11.2583
uyến	-11.2612
▁huý	-11.262
▁Wall	-11.2627
▁phe	-11.2636
ệm	-11.2666
▁chù	-11.2669
▁thơm	-11.2722
▁Oxford	-11.2742
▁Aristotle	-11.2743
▁bướm	-11.275
ửa	-11.2756
▁ủi	-11.2756
ố	-11.2764
hợ	-11.2769
hôn	-11.2794
▁choáng	-11.2795
▁10,000	-11.2798
▁gai	-11.282
I	-11.2825
▁Đỏ	-11.2826
▁120	-11.2847
▁dịu	-11.2848
▁FG	-11.2863
▁khan	-11.2871
▁King	-11.2891
▁Hi	-11.2893
▁kệ	-11.2905
không	-11.2926
▁rỗi	-11.2931
▁ố	-11.2933
▁Đô	-11.294
▁kiệ	-11.294
est	-11.2945
▁Go	-11.2952
hức	-11.2956
▁1950	-11.2959
▁Cambridge	-11.296
▁Microsoft	-11.2969
ẻo	-11.2971
▁trọn	-11.299
▁Bush	-11.303
▁xô	-11.3033
▁Ke	-11.3063
hâm	-11.3068
▁hàn	-11.307
ếch	-11.3092
▁Tim	-11.3094
▁vần	-11.3105
▁kề	-11.311
▁nha	-11.3117
▁lau	-11.3124
▁Jona	-11.3136
▁NL	-11.3139
ớc	-11.3159
▁loa	-11.3164
▁râu	-11.3183
▁Josh	-11.3187
ìm	-11.3188
▁Taliba	-11.3189
hủ	-11.32
▁Giới	-11.3205
▁uốn	-11.3214
▁lô	-11.3242
▁Thư	-11.3244
▁nhã	-11.3246
▁chì	-11.3265
▁giàn	-11.327
trong	-11.3271
▁sắ	-11.3284
len	-11.3285
▁Flori	-11.3292
E	-11.3296
▁bế	-11.3298
SW	-11.3328
người	-11.3334
▁trễ	-11.3356
▁bón	-11.3359
30	-11.3372
▁85	-11.3372
của	-11.3378
▁pizza	-11.3409
▁Charlie	-11.3409
▁Stanford	-11.3409
hen	-11.3409
▁Địa	-11.3412
▁man	-11.3418
▁dẹp	-11.3421
▁show	-11.3438
▁phốt	-11.3445
right	-11.3451
hì	-11.3452
ặn	-11.3473
▁chă	-11.3483
gen	-11.3497
SD	-11.3515
▁Tiế	-11.3524
▁Hoàng	-11.3524
▁nhàng	-11.3541
▁bầ	-11.3551
▁dơi	-11.3564
▁đè	-11.3565
▁u	-11.3567
▁cồn	-11.3578
▁Lin	-11.3616
▁32	-11.3617
ệp	-11.3626
▁Bob	-11.3627
▁Texas	-11.3641
▁Abraham	-11.3641
▁Yeah	-11.3642
▁ôtô	-11.3644
▁Bắ	-11.3649
▁Amy	-11.3656
▁ngộ	-11.3667
▁Sáng	-11.3673
gie	-11.3675
ướt	-11.3677
▁Xô	-11.3678
▁Đố	-11.3696
▁Pa	-11.3737
▁chẩ	-11.374
▁Dâ	-11.375
▁bồn	-11.3782
▁rốt	-11.379
▁trạn	-11.3803
ót	-11.3804
▁Nhì	-11.3808
▁nhó	-11.3811
au	-11.3812
▁rò	-11.3819
▁vẩn	-11.3822
huyến	-11.3832
Q	-11.3835
ence	-11.3843
▁Ca	-11.3859
▁đục	-11.3864
ide	-11.3872
▁1980	-11.3879
▁buồ	-11.3879
▁online	-11.3879
▁nan	-11.3879
▁entropy	-11.3879
▁Daniel	-11.3882
hông	-11.3914
ter	-11.3926
▁vạn	-11.3942
▁biế	-11.3954
▁Ha	-11.3975
▁phế	-11.3985
▁Q	-11.3987
ỉa	-11.4022
kg	-11.4022
▁Cụ	-11.4053
▁tầ	-11.4072
▁xế	-11.4079
▁196	-11.4102
▁33	-11.4121
▁Olympic	-11.4123
▁virút	-11.4129
▁Mike	-11.4131
▁William	-11.4143
org	-11.4148
st	-11.416
ram	-11.4173
▁quad	-11.42
▁Ne	-11.4203
▁Khả	-11.4215
▁Free	-11.4243
▁Wolf	-11.4248
▁nhộn	-11.425
▁pháo	-11.4268
▁Or	-11.428
▁mả	-11.4304
▁Ngâ	-11.434
ian	-11.436
▁Brown	-11.4372
▁Youtube	-11.4373
▁dollar	-11.4373
▁Rosling	-11.4373
▁2050	-11.4374
▁đòn	-11.4375
▁Arthu	-11.4411
EO	-11.4411
▁bẩy	-11.4413
ùi	-11.4415
▁rè	-11.4419
▁lượ	-11.4471
▁nhi	-11.4487
ỉ	-11.45
▁bát	-11.4509
der	-11.4515
gân	-11.4526
▁xảo	-11.4527
ìa	-11.4528
▁....	-11.4548
▁xướ	-11.4566
uyện	-11.4571
▁môt	-11.4598
▁Wow	-11.4629
▁Watson	-11.4629
▁Andrew	-11.4629
▁Norden	-11.4629
rao	-11.463
▁đươ	-11.4687
▁Lu	-11.4708
▁nạ	-11.4713
▁Hạ	-11.4734
▁Re	-11.474
▁cent	-11.4742
ria	-11.4742
ằn	-11.4748
èn	-11.4761
găn	-11.4763
▁Alex	-11.4766
▁tăm	-11.4788
▁Cam	-11.4814
▁hé	-11.4829
▁bùn	-11.4848
▁Steph	-11.4854
▁sùng	-11.4881
▁Neanderthal	-11.4887
▁ha	-11.4888
▁World	-11.4892
▁f	-11.4892
▁Detroit	-11.4892
▁insulin	-11.4893
▁lê	-11.4893
▁Scotland	-11.4893
bon	-11.4893
▁Hollywo	-11.4893
▁Mandela	-11.4895
▁To	-11.4897
▁Lớ	-11.4899
▁Palestine	-11.4904
▁29	-11.4914
▁tạng	-11.4915
▁Vương	-11.4919
▁xo	-11.493
▁khoán	-11.4941
▁Long	-11.4953
▁Jack	-11.4965
▁Bọn	-11.4984
▁bổng	-11.4987
▁Ray	-11.5004
▁Wa	-11.5006
▁36	-11.5007
ẫm	-11.5014
oạn	-11.5015
▁Vị	-11.5029
oắn	-11.503
dy	-11.5033
▁Mô	-11.5042
ữ	-11.5069
▁Le	-11.5081
se	-11.5082
▁Lib	-11.511
ol	-11.5115
▁Ah	-11.513
▁chip	-11.5133
▁trinh	-11.5135
▁Hill	-11.514
lin	-11.5158
▁muôn	-11.516
▁Bronx	-11.5162
▁Street	-11.5162
▁Black	-11.5163
▁Indonesia	-11.5163
▁Singapore	-11.5163
▁Shakespear	-11.5163
▁laser	-11.517
▁South	-11.5197
▁nhăn	-11.5276
▁Thị	-11.5278
▁lậ	-11.5288
▁War	-11.5293
▁Edi	-11.5295
▁vọ	-11.5299
▁cẩu	-11.5312
▁Nghị	-11.5321
▁Cố	-11.5331
▁Ted	-11.5331
eda	-11.5334
▁mẩ	-11.5337
is	-11.5343
hệ	-11.5343
▁rổ	-11.5344
▁scan	-11.5357
▁khuất	-11.536
bốt	-11.5368
▁Wi	-11.5384
▁Thờ	-11.5384
▁Đan	-11.5394
▁800	-11.5397
▁luồn	-11.5404
▁55	-11.5416
▁DVD	-11.5439
▁market	-11.544
▁Joseph	-11.544
▁Iceland	-11.544
▁Simon	-11.5456
▁Xã	-11.5457
▁lội	-11.5464
ĩnh	-11.5481
▁Chí	-11.5497
we	-11.5507
hưa	-11.5507
▁Montan	-11.551
▁Co	-11.5511
et	-11.5518
▁lử	-11.5519
▁Chá	-11.5525
▁lượn	-11.5527
▁ki	-11.5535
hăng	-11.5536
▁mạ	-11.5545
▁Lee	-11.5547
xi	-11.5549
▁Ô	-11.556
▁sỏi	-11.5575
▁Chi	-11.5588
▁khốn	-11.5613
▁nhắ	-11.5615
▁Thú	-11.5615
▁xơ	-11.5629
ly	-11.5652
▁In	-11.5656
▁khe	-11.5664
▁xài	-11.5675
▁Mac	-11.5676
ck	-11.5677
▁Ja	-11.5698
▁Thí	-11.5706
BM	-11.5709
▁37	-11.5716
▁Albert	-11.5727
▁logo	-11.573
▁Carolina	-11.5732
▁2002	-11.5734
cho	-11.5734
nén	-11.5737
▁Nhạc	-11.5745
▁Ga	-11.5747
▁194	-11.576
▁ngơi	-11.5764
▁viê	-11.5766
èm	-11.5767
gram	-11.5773
▁khiếu	-11.5773
6	-11.5778
▁Ven	-11.579
to	-11.5792
▁31	-11.5811
▁chốn	-11.5814
▁Victor	-11.582
well	-11.583
BC	-11.5834
▁De	-11.5841
▁đoạ	-11.5852
age	-11.5855
▁nuối	-11.5871
hái	-11.5875
▁xi	-11.5888
oạt	-11.5904
▁Chữ	-11.5946
▁Se	-11.5948
▁Ka	-11.5955
ow	-11.5962
▁700	-11.5963
ation	-11.5963
đó	-11.5964
20	-11.5965
▁Cộ	-11.5967
▁Ken	-11.5981
▁Bảy	-11.5984
hiếm	-11.5985
▁devil	-11.6019
▁Gandhi	-11.602
▁toilet	-11.6021
▁Mos	-11.6021
▁pound	-11.6025
▁Silicon	-11.603
▁click	-11.603
▁Si	-11.6042
▁chuộng	-11.6043
col	-11.6047
▁vố	-11.6064
▁Mộc	-11.6078
▁quăng	-11.6088
▁ngoạn	-11.609
▁Mi	-11.6092
▁197	-11.6092
▁Đàn	-11.6096
f	-11.6097
bạn	-11.6117
do	-11.6118
Tôi	-11.6119
or	-11.6141
▁cò	-11.6146
▁Jane	-11.6149
▁Alexand	-11.6177
▁nhược	-11.6178
▁Băng	-11.6201
▁thề	-11.6231
ard	-11.6239
ster	-11.6241
▁toa	-11.626
▁đun	-11.6268
▁dì	-11.6277
▁lách	-11.6283
sey	-11.6285
▁phả	-11.6294
ho	-11.6321
▁Delhi	-11.6323
▁1930	-11.6323
▁1999	-11.6323
▁Chile	-11.6324
▁electron	-11.6325
▁1900	-11.6325
CD	-11.6328
000	-11.6329
▁quặ	-11.6334
▁mày	-11.6345
ph	-11.6349
hêm	-11.6354
berg	-11.6357
▁Mary	-11.6366
▁Kev	-11.6376
▁Gô	-11.6377
▁lay	-11.6382
▁đợ	-11.6385
▁Newto	-11.6387
▁CP	-11.6404
▁dời	-11.6421
▁hả	-11.6443
▁tre	-11.6451
▁xó	-11.6455
▁Bệ	-11.6457
▁Pat	-11.6472
huyết	-11.6473
▁khử	-11.6475
▁chuối	-11.648
than	-11.6493
▁tiế	-11.6501
um	-11.6509
ver	-11.6516
▁Matt	-11.6538
ing	-11.6544
▁nắp	-11.6563
uả	-11.6598
▁gán	-11.6606
▁ngào	-11.6613
go	-11.6615
▁km	-11.6615
▁lấn	-11.6615
os	-11.6617
ka	-11.6622
pamine	-11.6628
▁High	-11.6635
▁Scott	-11.6635
▁cafe	-11.6635
▁Sarah	-11.6644
▁Robot	-11.6647
▁len	-11.6651
▁đan	-11.6664
▁2012	-11.6672
hiết	-11.6676
▁chay	-11.6691
▁chạp	-11.6704
red	-11.6708
▁Mc	-11.6732
▁tớ	-11.6734
▁Me	-11.6735
▁nhát	-11.6735
▁Dạ	-11.6738
hiệt	-11.6751
ghĩa	-11.6764
ot	-11.6764
▁Carol	-11.6773
▁ché	-11.6795
▁bỏng	-11.6804
▁Xu	-11.6813
▁bì	-11.6822
▁thốn	-11.6844
▁ngo	-11.6883
hướng	-11.6885
Global	-11.6895
▁Lewi	-11.6903
beria	-11.6905
▁cắn	-11.6931
điêu	-11.6947
ville	-11.6953
▁xốp	-11.6957
▁Columb	-11.6957
▁Stewart	-11.6969
▁Disney	-11.697
ren	-11.6971
▁đạm	-11.6974
tin	-11.6975
▁48	-11.6977
vi	-11.6982
▁oxi	-11.6986
olly	-11.6987
▁bon	-11.6989
▁Eve	-11.6989
ney	-11.7
▁nộp	-11.7004
▁cưỡi	-11.7028
axit	-11.7038
▁Jay	-11.7044
▁Hơ	-11.7045
▁phàn	-11.7056
Yêu	-11.7105
▁dang	-11.7114
▁ngả	-11.7136
erry	-11.7153
way	-11.7157
▁Vi	-11.7163
▁bin	-11.7187
họ	-11.7197
▁vứ	-11.7223
P	-11.7224
ger	-11.7245
ẳn	-11.7261
▁Car	-11.7276
▁đồn	-11.7286
▁bạ	-11.729
▁1984	-11.7291
▁Bosnia	-11.7291
▁Brooklyn	-11.7291
▁Anders	-11.7291
▁Johnny	-11.7292
▁Tanzania	-11.7292
uyết	-11.7301
▁Trò	-11.7313
ệch	-11.7331
▁Ron	-11.7337
ston	-11.7356
▁Julian	-11.7379
▁Khác	-11.7407
▁Nano	-11.7409
▁hán	-11.7409
▁đă	-11.7441
▁Tes	-11.7444
▁Nathan	-11.7467
▁ấu	-11.7475
oster	-11.7479
▁đắ	-11.7493
▁cọc	-11.75
hường	-11.7507
▁xẻ	-11.7516
▁Trí	-11.7519
lon	-11.7528
BA	-11.7531
▁Yo	-11.7534
è	-11.754
▁Ky	-11.754
den	-11.7543
▁Carl	-11.7546
▁sờ	-11.7548
▁Julia	-11.755
▁tạc	-11.7554
▁kiê	-11.7568
▁gắt	-11.7569
▁Kenne	-11.7574
được	-11.7582
▁má	-11.7589
▁ok	-11.7597
▁xoa	-11.7598
▁nắ	-11.7614
▁thừng	-11.7615
our	-11.7615
▁dào	-11.7621
▁iPod	-11.7634
▁gớm	-11.7635
▁Parkinson	-11.7636
▁Virginia	-11.7636
▁poster	-11.7637
▁Power	-11.764
desh	-11.7646
▁Maya	-11.7651
▁đốn	-11.7661
▁Jones	-11.7663
▁dá	-11.7667
ed	-11.767
ủng	-11.7673
▁bar	-11.7674
▁khoác	-11.7677
▁kiề	-11.768
▁pop	-11.7681
▁Rose	-11.769
▁Căn	-11.7698
ure	-11.7702
▁2.5	-11.771
chia	-11.7713
rực	-11.7722
chi	-11.7724
▁gạo	-11.7739
▁bỉ	-11.7741
▁thỏ	-11.7747
▁Bo	-11.7779
▁mìn	-11.7779
▁Bra	-11.7814
ford	-11.7828
ản	-11.783
▁hu	-11.7836
▁cua	-11.7838
▁Mu	-11.7849
binh	-11.7864
▁nộ	-11.787
sa	-11.7882
▁Sky	-11.7884
ez	-11.7889
ki	-11.7896
▁OE	-11.7906
ọn	-11.7909
▁1.5	-11.791
▁Gar	-11.7911
▁Bi	-11.7914
▁Dian	-11.7914
▁Sai	-11.7914
nda	-11.7922
▁toạ	-11.7947
▁Giữ	-11.7967
so	-11.797
▁Cy	-11.7975
usal	-11.7982
▁chừ	-11.7984
▁Má	-11.7985
opera	-11.7987
▁album	-11.7992
▁Qatar	-11.7992
▁Sylvi	-11.7992
▁EDI	-11.7992
▁Sal	-11.7992
▁Susan	-11.7993
▁Clinton	-11.7993
▁Argentina	-11.7993
▁vitamin	-11.7994
▁trệ	-11.8001
▁ngủi	-11.8001
ủi	-11.8031
▁46	-11.8042
▁nhí	-11.8052
▁tua	-11.8056
▁195	-11.8056
hơi	-11.8057
gừng	-11.807
▁Baby	-11.8077
▁Jo	-11.8082
▁tweet	-11.8089
na	-11.8106
▁Mill	-11.8109
MS	-11.8112
▁Ngô	-11.8114
reo	-11.8118
▁Mù	-11.8132
▁nế	-11.8145
▁thỉ	-11.8148
▁Bell	-11.8152
om	-11.8157
▁Johns	-11.8188
▁chổ	-11.8196
▁tho	-11.8213
ghen	-11.8214
rái	-11.8215
▁He	-11.8227
hóm	-11.8243
ad	-11.8273
▁Emma	-11.8319
ban	-11.8326
ber	-11.8331
▁Pro	-11.8335
▁đặn	-11.8341
▁Bồ	-11.8355
▁miến	-11.8356
stein	-11.8361
▁Muhammad	-11.8363
▁silicon	-11.8363
▁Ethiopia	-11.8363
▁Sierra	-11.8364
▁Julie	-11.8365
ạy	-11.837
▁Doug	-11.8373
▁quầy	-11.8382
thể	-11.8383
▁Nick	-11.8391
Y	-11.8399
▁vá	-11.8423
▁hở	-11.8424
ten	-11.8436
ers	-11.8449
▁Hoạ	-11.8458
▁tơ	-11.8482
con	-11.8484
này	-11.8503
▁đự	-11.8505
ex	-11.8508
▁đinh	-11.8516
▁Bay	-11.8527
▁Steven	-11.8528
▁ơ	-11.854
▁Nội	-11.8544
▁hao	-11.8573
▁nhốt	-11.858
oto	-11.858
ca	-11.8587
▁Cu	-11.8614
én	-11.8632
▁kép	-11.8634
F	-11.8634
ọt	-11.8636
▁Ham	-11.864
▁Emil	-11.8651
▁130	-11.8652
ever	-11.8661
▁huỳ	-11.8664
▁Khan	-11.8666
▁Lang	-11.8684
▁Jenn	-11.8699
uê	-11.8699
pe	-11.8715
▁Ki	-11.8725
amin	-11.8731
ington	-11.8736
imbab	-11.874
fer	-11.8745
▁acid	-11.8746
▁Broad	-11.8747
▁Roger	-11.8747
▁72	-11.8747
▁Philade	-11.8747
▁pheromone	-11.8748
▁Ross	-11.8748
▁Leonardo	-11.8749
▁West	-11.8752
▁Somalia	-11.8752
▁Hawaii	-11.8753
▁suýt	-11.8754
các	-11.8755
▁Cameron	-11.8758
▁Anas	-11.8762
shahi	-11.8786
phone	-11.8789
▁gót	-11.879
▁Phí	-11.8791
2,000	-11.8803
▁mư	-11.8805
▁Bali	-11.8816
be	-11.8821
sia	-11.8824
đã	-11.8842
▁Tỉ	-11.8845
iễu	-11.8853
▁For	-11.8855
▁cưỡ	-11.8906
rock	-11.8918
▁Apol	-11.892
kh	-11.8966
▁Khó	-11.8972
▁phiện	-11.8977
▁dạn	-11.8984
▁khiết	-11.8996
▁fil	-11.8998
vít	-11.9016
ate	-11.9039
▁bự	-11.91
▁Os	-11.9127
▁cớ	-11.913
hầm	-11.9138
ẹo	-11.9141
▁Tokyo	-11.9146
▁Earth	-11.9146
▁Sputnik	-11.9147
▁Berkeley	-11.9147
▁Starbuck	-11.9147
▁virut	-11.9151
▁Kelly	-11.9152
▁tởm	-11.9153
▁Bangla	-11.9155
▁Carne	-11.9157
▁triệ	-11.916
▁Wal	-11.9162
▁tru	-11.9163
▁giầy	-11.9163
▁Ngoạ	-11.9166
▁Marc	-11.9166
▁rà	-11.9177
▁Xanh	-11.9188
▁Phố	-11.9189
▁hoi	-11.919
▁Marco	-11.9193
▁gấ	-11.9195
X	-11.9199
▁City	-11.9199
▁Park	-11.9209
▁quấn	-11.9219
ational	-11.922
▁Dub	-11.9224
▁xun	-11.9226
iêng	-11.9235
▁Evan	-11.9246
▁xổ	-11.9255
▁Ro	-11.9277
▁News	-11.928
ớp	-11.9286
hốt	-11.929
▁sương	-11.9295
▁Tinh	-11.9313
hờ	-11.9321
▁Mar	-11.9333
▁ngợ	-11.9344
▁bệ	-11.9347
low	-11.9362
▁xì	-11.9365
▁96	-11.938
▁vãn	-11.9394
▁Bí	-11.9411
▁Mã	-11.9429
era	-11.9444
▁sộ	-11.9452
zle	-11.9453
▁gặ	-11.9463
▁Temp	-11.9471
▁diễ	-11.9476
▁5000	-11.9487
▁Hồ	-11.9489
é	-11.9517
▁ướ	-11.9517
▁2.0	-11.9522
▁CD	-11.9523
▁Nguồ	-11.9527
ruyền	-11.9541
▁chử	-11.9556
huyên	-11.956
▁1996	-11.9563
▁Tesla	-11.9564
▁Copernic	-11.9564
▁Michigan	-11.9564
▁Colombia	-11.9564
▁Luther	-11.9564
▁hamburger	-11.9564
▁Atlanta	-11.957
▁bướu	-11.9576
▁Hả	-11.9576
▁Well	-11.9578
▁ngâm	-11.9579
▁Hungar	-11.9581
▁Lester	-11.9584
▁Roy	-11.9584
arry	-11.9587
▁198	-11.9592
▁140	-11.9603
▁cửu	-11.9607
▁Be	-11.961
▁láng	-11.9611
▁Rome	-11.9614
▁vã	-11.9621
azeera	-11.9628
ừ	-11.9639
gũ	-11.9648
uel	-11.9656
▁vầy	-11.9666
với	-11.9666
▁loé	-11.9674
▁rậm	-11.9676
▁Pho	-11.9677
làm	-11.9688
▁hip	-11.9716
km	-11.9718
▁Leon	-11.9721
▁gas	-11.9736
oái	-11.9738
▁Prince	-11.9742
▁Fort	-11.9745
hấu	-11.9748
ier	-11.9751
me	-11.9753
▁al	-11.982
▁64	-11.9836
đi	-11.9839
chai	-11.9846
▁Marg	-11.9859
ranh	-11.9866
▁44	-11.9884
▁mi	-11.9908
▁Sea	-11.992
id	-11.992
úm	-11.9932
▁42	-11.9959
openha	-11.9959
▁ion	-11.9975
▁túng	-11.9985
aden	-11.9996
▁yeah	-11.9997
▁Fried	-11.9998
▁Lakota	-11.9998
▁Galapagos	-11.9998
▁Jackson	-11.9999
▁Movem	-11.9999
▁nê	-12
▁ooh	-12.0001
▁Rick	-12.0001
▁nực	-12.0003
▁AK	-12.0004
▁1998	-12.0013
▁Hawkin	-12.0014
▁giun	-12.0014
▁Bhut	-12.0019
▁My	-12.0028
▁Jon	-12.003
▁tước	-12.0047
▁180	-12.0048
▁Điể	-12.0049
hiền	-12.0052
aland	-12.0053
tan	-12.0053
w	-12.0059
ihad	-12.0064
▁á	-12.0067
▁tú	-12.0089
▁Time	-12.0092
▁vù	-12.0099
▁Dea	-12.011
▁Chia	-12.0112
▁2,5	-12.0113
▁đâ	-12.0119
▁test	-12.012
iza	-12.0134
óp	-12.0134
▁Ed	-12.0136
▁Jesu	-12.0147
NA	-12.0151
▁chồn	-12.0158
▁Khí	-12.0168
hào	-12.0173
let	-12.0174
mart	-12.0187
▁Hầ	-12.0189
▁350	-12.0192
▁Op	-12.02
mail	-12.0205
▁Chứ	-12.0206
▁Leo	-12.0206
▁Dàn	-12.0243
uồn	-12.0247
▁Star	-12.0265
▁Wei	-12.0265
tha	-12.0277
▁a	-12.0281
▁Alan	-12.0282
▁trớ	-12.031
▁Gra	-12.0311
mét	-12.0318
ish	-12.0318
ry	-12.0329
▁Christophe	-12.0354
lock	-12.0373
▁Est	-12.038
▁Sun	-12.0385
▁mó	-12.0392
ơm	-12.0394
ộc	-12.0403
ect	-12.0405
▁Đôn	-12.0409
▁Quản	-12.0411
▁98	-12.0418
▁Sher	-12.0418
rdy	-12.0419
uôn	-12.0419
▁Jean	-12.042
▁Pop	-12.0421
▁Chad	-12.0421
▁93	-12.0429
aret	-12.0435
uẩn	-12.0437
điều	-12.0442
CAPTCH	-12.0446
▁viền	-12.0446
rải	-12.0448
▁Bea	-12.0451
▁Jeopa	-12.0452
▁Nepal	-12.0452
▁1995	-12.0452
▁Sudan	-12.0452
▁1994	-12.0452
▁Mumbai	-12.0452
▁Afghan	-12.0452
▁Arizona	-12.0452
▁Ira	-12.0453
▁giềng	-12.0453
▁violin	-12.0453
▁Romo	-12.0455
ansas	-12.0469
sau	-12.0476
▁Dave	-12.0479
▁Giấ	-12.0498
bert	-12.0506
▁ớt	-12.0507
▁Rằ	-12.0526
▁ah	-12.0533
za	-12.0538
lphi	-12.0538
▁ron	-12.0543
liza	-12.0544
▁rạc	-12.0547
▁suôn	-12.0548
RN	-12.0552
nó	-12.0558
ò	-12.056
▁Đá	-12.0561
▁Louis	-12.0562
▁AO	-12.0566
▁Trừ	-12.057
▁nguyệt	-12.0573
uốn	-12.0596
▁na	-12.0597
àn	-12.0616
gập	-12.0626
▁Jess	-12.0628
▁160	-12.0632
▁1,5	-12.0638
woo	-12.0649
úi	-12.0649
▁AM	-12.0649
▁nham	-12.0658
▁86	-12.0663
▁Roma	-12.067
ện	-12.0673
▁thâ	-12.0675
▁Berli	-12.0684
▁lẫ	-12.0699
▁Ge	-12.0738
▁38	-12.0738
▁Kiri	-12.0739
▁Grand	-12.0741
▁Map	-12.0748
▁Mong	-12.0749
▁ngặt	-12.0755
▁Ali	-12.0765
uột	-12.0765
▁Edward	-12.0774
mà	-12.0776
▁Philip	-12.078
▁Te	-12.0785
atch	-12.0785
hẹn	-12.0805
▁dồ	-12.081
▁lâ	-12.0816
▁Ir	-12.0821
ko	-12.083
▁photo	-12.0837
▁Har	-12.085
▁đệ	-12.0853
▁rụ	-12.0855
▁só	-12.0862
▁đấ	-12.0867
▁ve	-12.0867
RA	-12.0877
ity	-12.0898
▁ngoặ	-12.0899
▁heli	-12.0911
▁Phậ	-12.0918
▁Jeff	-12.0926
▁Fox	-12.0927
▁Lawr	-12.0928
▁Taylor	-12.0928
▁Havard	-12.0928
▁Grace	-12.0928
▁Rachel	-12.0928
▁Beethoven	-12.0929
▁enzym	-12.0929
▁Jeffer	-12.0929
▁ôn	-12.093
▁Plato	-12.093
tra	-12.0933
▁Cuba	-12.0934
▁sẹo	-12.0936
▁North	-12.094
0	-12.094
Và	-12.0941
▁Tra	-12.0942
pass	-12.0943
ẹ	-12.0945
▁Clay	-12.0947
▁thản	-12.0949
xy	-12.0957
▁chê	-12.0964
ú	-12.0975
▁Jordan	-12.0976
bet	-12.0978
▁fan	-12.1
▁Han	-12.1002
▁Leb	-12.1008
àu	-12.1009
chằm	-12.1015
▁Mama	-12.1015
oàn	-12.1034
▁Bal	-12.1054
▁Chế	-12.1058
net	-12.1071
▁gá	-12.1078
witz	-12.1092
hống	-12.1102
▁PH	-12.1106
▁cán	-12.111
ơc	-12.111
▁Bả	-12.1112
▁43	-12.1112
▁bầm	-12.1118
▁Bue	-12.1121
▁gồ	-12.1123
▁34	-12.1124
ere	-12.1125
eep	-12.113
▁No	-12.1133
▁vự	-12.1135
▁Palm	-12.1143
huận	-12.1172
▁Win	-12.1179
▁Will	-12.1181
▁Gor	-12.1189
▁gầ	-12.1189
▁Can	-12.1198
▁làn	-12.1209
▁Bolt	-12.1223
▁Who	-12.1224
▁khoé	-12.123
ary	-12.1251
▁cừ	-12.1251
▁Kar	-12.1252
aska	-12.1255
tic	-12.1273
lyn	-12.1281
bar	-12.1281
▁Blue	-12.1282
▁Bon	-12.1282
▁Gold	-12.1283
▁Gen	-12.1284
▁Nel	-12.1285
gan	-12.1294
flu	-12.131
▁Hall	-12.1317
▁bâ	-12.132
▁Red	-12.1324
▁điề	-12.1367
▁thoa	-12.1373
▁Bé	-12.1404
▁Net	-12.1412
NG	-12.142
word	-12.1422
▁soạ	-12.1425
▁CNN	-12.1427
▁IQ	-12.1427
▁Ryan	-12.1428
▁1975	-12.1428
▁Europa	-12.1428
▁McDonald	-12.1429
▁Lesterland	-12.1429
▁sandwich	-12.1429
▁State	-12.1431
and	-12.1433
▁Yorker	-12.1441
▁sạc	-12.1443
▁liễu	-12.1443
ớ	-12.1457
▁Murr	-12.1458
eographic	-12.1465
▁Tora	-12.1465
mer	-12.1467
▁Peru	-12.147
itus	-12.147
▁Fa	-12.1475
lair	-12.1475
ves	-12.1476
▁trầ	-12.1478
▁xị	-12.1481
▁Ann	-12.1483
▁loã	-12.1487
▁nhôm	-12.1496
▁Die	-12.1499
▁125	-12.1501
20.000	-12.1501
▁thà	-12.1516
▁amin	-12.1519
▁God	-12.1522
own	-12.153
▁Nô	-12.1539
▁dẫ	-12.1545
họn	-12.1546
nd	-12.156
hiện	-12.156
▁Yu	-12.1569
▁mác	-12.1569
yên	-12.1576
▁And	-12.158
▁52	-12.1596
▁hươ	-12.16
▁phồn	-12.1607
▁SR	-12.1622
▁50,000	-12.1623
▁dè	-12.1636
▁Sara	-12.1638
húng	-12.1644
▁Rock	-12.166
▁0.	-12.1665
▁Kare	-12.167
▁4000	-12.1671
▁Port	-12.1691
▁Harl	-12.1702
▁Đoạ	-12.1713
muel	-12.1731
oor	-12.1732
link	-12.1733
mee	-12.1736
▁Aye	-12.1737
ronto	-12.1741
▁xen	-12.1769
▁Cù	-12.1771
▁thối	-12.1773
▁gram	-12.1783
▁nhằ	-12.1787
▁Olive	-12.1788
burgh	-12.1798
▁ròng	-12.1833
▁Iv	-12.1849
▁Wo	-12.1855
ía	-12.1876
▁Colli	-12.1877
▁Super	-12.1887
▁vu	-12.1891
▁bú	-12.1906
▁go	-12.1911
▁Has	-12.1915
lash	-12.1916
bốn	-12.1917
▁FBI	-12.1953
▁FOXO	-12.1953
▁Guinea	-12.1954
▁Oregon	-12.1954
▁Bertie	-12.1954
▁Nairobi	-12.1954
▁Island	-12.1954
▁Katrina	-12.1954
▁1997	-12.1954
▁marathon	-12.1954
▁Mitchell	-12.1954
▁canxi	-12.1954
▁spaghetti	-12.1954
▁Craig	-12.1954
▁Walker	-12.1956
▁nitri	-12.1968
▁Doha	-12.1968
▁Kal	-12.1973
EG	-12.1973
▁phthalate	-12.1974
art	-12.1976
▁Mario	-12.1983
▁games	-12.2001
▁hack	-12.2008
▁Ru	-12.201
▁Eri	-12.2026
▁Nhớ	-12.2039
hu	-12.2042
▁Nan	-12.2048
▁vác	-12.205
▁khuya	-12.2057
▁AV	-12.206
bi	-12.2061
▁thạc	-12.2069
istan	-12.2072
▁58	-12.2077
euron	-12.2082
gi	-12.2085
ns	-12.2091
ồ	-12.2097
▁nhẽ	-12.2104
sự	-12.2106
DP	-12.2108
▁Am	-12.2114
▁97	-12.2125
bo	-12.2125
hôi	-12.2125
mar	-12.2132
▁mon	-12.2132
▁Thanh	-12.2134
tô	-12.2135
▁Don	-12.216
fi	-12.2162
▁Ko	-12.2165
▁tro	-12.217
▁giế	-12.2204
hặt	-12.2206
▁Mạ	-12.2207
▁Lad	-12.2216
hứng	-12.222
shop	-12.2223
oại	-12.223
▁Ku	-12.2234
▁Art	-12.2246
uck	-12.2258
như	-12.2261
▁tý	-12.2261
▁Ti	-12.2268
▁rẩy	-12.2271
▁Cười	-12.2273
▁Beau	-12.2273
▁1.2	-12.2274
ợc	-12.2278
▁lẽo	-12.2279
25	-12.2288
▁Alp	-12.2302
▁Meli	-12.2317
Chúng	-12.2319
▁đê	-12.232
hục	-12.2321
▁Biến	-12.2324
100	-12.233
▁You	-12.2334
lson	-12.2339
hock	-12.2356
▁6000	-12.2358
ean	-12.2364
▁Bru	-12.2366
▁Bờ	-12.2397
▁Rand	-12.2405
▁sero	-12.2414
▁Men	-12.2419
▁tứ	-12.2449
▁Whit	-12.2454
▁Mag	-12.2469
▁41	-12.2474
▁thò	-12.2474
▁kên	-12.2484
▁Stan	-12.2485
▁calo	-12.2486
▁Qa	-12.2493
▁lé	-12.2495
▁185	-12.2503
▁TH	-12.2506
▁Gehr	-12.2509
▁Oakland	-12.2509
▁Himalaya	-12.2509
▁Venezuela	-12.251
▁Fibonacci	-12.251
▁Stefan	-12.251
▁Brenda	-12.251
▁Pal	-12.2514
▁Stone	-12.2515
▁Cape	-12.2516
moud	-12.2518
im	-12.2522
▁1992	-12.2528
▁đắp	-12.253
lbert	-12.2533
▁American	-12.2537
để	-12.2544
matic	-12.2549
nói	-12.2558
▁nặn	-12.2567
▁mịn	-12.2567
▁sá	-12.2573
▁Gord	-12.2578
▁Abu	-12.2606
▁Tham	-12.2607
▁sỡ	-12.2611
hét	-12.2635
▁nôn	-12.2638
ve	-12.2674
▁Mê	-12.2681
2.000	-12.2681
▁199	-12.2686
reat	-12.2692
▁việ	-12.2695
▁tản	-12.2707
háo	-12.2711
▁Tob	-12.2737
▁1,000	-12.2755
vis	-12.2759
bao	-12.2761
▁ngà	-12.2762
▁Linu	-12.2763
▁Thiế	-12.2765
▁thủng	-12.2778
▁uy	-12.2783
ette	-12.2785
ic	-12.2789
▁lự	-12.2789
▁điệ	-12.2796
▁Farm	-12.2827
ister	-12.2832
old	-12.2839
▁trọt	-12.2842
▁Cri	-12.2846
all	-12.2869
ge	-12.287
▁Tha	-12.2879
▁Ror	-12.2883
AD	-12.2883
▁Jami	-12.2899
oel	-12.2909
▁Mah	-12.2914
▁Gu	-12.2917
▁Oo	-12.292
▁Bán	-12.2939
▁ló	-12.295
yl	-12.2951
▁900	-12.2954
oyo	-12.2958
▁meta	-12.2974
▁Frankl	-12.2975
▁kè	-12.2985
uk	-12.2988
▁hẻ	-12.2996
ãn	-12.3008
▁nhổ	-12.3015
▁CE	-12.3015
field	-12.3016
RG	-12.3024
▁nhọc	-12.3033
▁gò	-12.3058
▁yo	-12.306
ón	-12.3063
key	-12.3076
▁you	-12.3077
ớn	-12.3078
▁Alf	-12.3087
lan	-12.3091
#	-12.3091
▁Che	-12.3093
▁Gaza	-12.3097
▁ả	-12.3097
▁Pepsi	-12.3097
▁Yale	-12.3097
▁Potter	-12.3097
▁Norman	-12.3097
▁Pantheon	-12.3097
▁Stirling	-12.3097
▁Chernobyl	-12.3098
▁SOPA	-12.3098
▁Bonnie	-12.3098
▁Sch	-12.3099
ctor	-12.3102
▁blogger	-12.3103
▁progeri	-12.3106
▁quỳ	-12.3112
▁Sweeney	-12.3119
line	-12.3124
hết	-12.3132
▁Xé	-12.3133
▁Tami	-12.3141
obul	-12.3155
▁giũ	-12.3165
▁450	-12.3169
▁White	-12.3169
▁Justi	-12.3178
▁hormone	-12.3186
iống	-12.319
▁Vui	-12.3191
▁loà	-12.3193
OL	-12.3193
ga	-12.3202
▁Gayl	-12.3211
ghiên	-12.3213
▁CL	-12.3219
az	-12.3221
car	-12.323
▁sút	-12.3235
anon	-12.324
▁Az	-12.3241
attle	-12.3242
▁ngó	-12.3245
▁Tô	-12.3246
về	-12.3258
▁giòn	-12.3261
ibera	-12.3264
▁East	-12.327
ture	-12.327
▁Fi	-12.3274
▁Brit	-12.3282
thế	-12.3294
▁Rob	-12.3306
ĩa	-12.3308
▁Ig	-12.3325
▁Bur	-12.3332
▁gel	-12.3332
oi	-12.3336
▁ax	-12.3338
▁Po	-12.334
▁Billy	-12.3343
ll	-12.3351
87	-12.336
ran	-12.3361
▁gôn	-12.337
03	-12.3377
Spee	-12.3378
ola	-12.3396
▁gáy	-12.3414
▁Mel	-12.3414
les	-12.3432
ạc	-12.3433
▁nghê	-12.3442
▁47	-12.3443
▁ghề	-12.3443
▁nhún	-12.3444
▁cẩ	-12.3455
▁vặ	-12.346
met	-12.3462
▁đóm	-12.3464
nberg	-12.348
lore	-12.348
▁bữ	-12.3484
▁Fe	-12.3491
▁bịch	-12.3497
hran	-12.3518
▁Sir	-12.3534
▁mĩ	-12.3537
▁Ar	-12.3547
ộ	-12.3549
▁mặ	-12.356
uyễn	-12.3565
fa	-12.3566
▁Allen	-12.3577
▁Tay	-12.3581
adio	-12.3585
▁nhì	-12.3588
▁Shir	-12.3598
-2	-12.36
ium	-12.361
▁Tiên	-12.3627
ộm	-12.3631
▁Gand	-12.3633
▁Evere	-12.3658
vào	-12.3659
▁77	-12.3659
▁Williams	-12.3671
ựng	-12.3673
ew	-12.3674
▁Nico	-12.3679
rey	-12.368
▁110	-12.3683
▁Giê	-12.369
enter	-12.3695
gall	-12.3696
▁q	-12.3706
▁Cair	-12.3707
▁Fred	-12.3707
▁chò	-12.371
▁Matthew	-12.3715
ight	-12.3716
▁MoMA	-12.3721
▁Anthon	-12.3722
▁Tahrir	-12.3722
▁Jamaica	-12.3722
▁1989	-12.3722
▁Meyer	-12.3722
▁Helen	-12.3722
▁Hanna	-12.3724
▁Intel	-12.3726
CO	-12.3731
▁360	-12.3732
obo	-12.3737
▁Caltech	-12.3743
▁Nguy	-12.3747
▁să	-12.3748
pu	-12.375
nivers	-12.3758
▁Harr	-12.3771
▁thê	-12.3772
▁Mathe	-12.3774
▁Dol	-12.3777
ak	-12.3779
biết	-12.3784
tia	-12.3788
▁suố	-12.3789
hút	-12.3796
▁Tai	-12.3797
▁1.3	-12.3797
oà	-12.38
▁rợ	-12.3809
ryl	-12.3818
▁top	-12.382
▁hun	-12.3821
▁foot	-12.3831
▁Home	-12.3831
▁Mad	-12.3837
hiệm	-12.3838
việc	-12.3842
▁AR	-12.3843
▁Las	-12.3848
olm	-12.3857
▁iPa	-12.3859
▁khờ	-12.3866
▁Aar	-12.39
▁Bu	-12.3901
▁CC	-12.3905
▁Dr	-12.3912
▁Stand	-12.3915
▁phu	-12.3923
ire	-12.3925
94	-12.3925
▁Sin	-12.3928
evo	-12.3929
▁gạc	-12.3938
ifer	-12.3944
▁Mau	-12.3957
▁Sug	-12.3963
▁bén	-12.3972
▁Mars	-12.3973
▁Bil	-12.3976
▁Dur	-12.3997
su	-12.3999
hiêu	-12.4003
taxi	-12.4007
▁Kay	-12.4017
▁dốt	-12.4024
phải	-12.4038
scar	-12.4047
▁nà	-12.4051
▁Nichol	-12.4052
rô	-12.4057
▁78	-12.4071
rt	-12.4079
illa	-12.4085
huật	-12.4088
hấn	-12.4088
▁trê	-12.4092
▁Air	-12.4094
▁She	-12.4099
cca	-12.4109
cốt	-12.4114
▁rộ	-12.4116
▁57	-12.4124
sẽ	-12.4133
hát	-12.4141
▁Tri	-12.4146
AG	-12.4154
oát	-12.4157
▁gào	-12.4178
▁Ram	-12.4182
ịt	-12.419
ica	-12.4208
▁Maria	-12.4209
orn	-12.4211
nô	-12.4212
hù	-12.4224
able	-12.4229
heo	-12.424
ườn	-12.4252
hĩ	-12.4252
đến	-12.4261
kins	-12.4276
stan	-12.4279
▁báng	-12.4291
av	-12.4292
que	-12.4308
▁cỗi	-12.4309
▁10000	-12.431
▁Ess	-12.4326
▁trôn	-12.4329
▁lư	-12.4331
lô	-12.4335
▁rắ	-12.4335
▁dâ	-12.4345
▁82	-12.4351
oya	-12.4361
▁Nổ	-12.4364
▁Archi	-12.4369
▁Im	-12.4374
79	-12.4383
▁PIPA	-12.4384
▁1986	-12.4384
▁Jake	-12.4385
▁Palestin	-12.4386
▁Agn	-12.4386
▁Ariel	-12.4388
▁Ireland	-12.4388
▁Hiroshi	-12.4388
▁Arkansas	-12.4388
water	-12.4388
▁Charlotte	-12.4388
▁TEDTalk	-12.4389
▁Tennessee	-12.4389
▁Pennsylvania	-12.4389
▁TEDWomen	-12.4389
▁Dennis	-12.4389
▁Cooper	-12.4389
▁Miller	-12.4391
uốc	-12.4394
▁Brook	-12.4395
▁Serge	-12.4397
▁SA	-12.4399
▁prô	-12.4399
▁hoóc	-12.4402
▁noi	-12.4403
▁Pe	-12.4407
quẳng	-12.4408
▁Brand	-12.441
▁INC	-12.4411
▁Palextin	-12.4413
▁Grant	-12.4416
▁193	-12.4418
▁Malco	-12.4426
cratch	-12.4426
▁cello	-12.4426
▁nhoáng	-12.4426
▁hằn	-12.4427
▁bu	-12.4434
watt	-12.4443
▁cu	-12.4445
ểu	-12.4453
daf	-12.4457
▁Coch	-12.446
▁Tara	-12.4461
▁copy	-12.4464
▁hót	-12.4467
▁2013	-12.4467
▁Mahat	-12.4479
▁Job	-12.4487
▁68	-12.4498
▁Alto	-12.4502
mala	-12.4503
▁Avi	-12.4506
▁Hom	-12.4507
▁Goer	-12.451
▁Anne	-12.4513
▁Eli	-12.4515
khi	-12.4516
▁Case	-12.4531
▁bíp	-12.4532
ão	-12.4538
rằng	-12.458
▁Sebastia	-12.4584
iề	-12.4585
▁Phổ	-12.4594
▁sụn	-12.4599
▁Trice	-12.461
▁nhoi	-12.461
▁ngò	-12.462
▁Acce	-12.4625
berry	-12.465
DA	-12.465
ith	-12.4661
Tuổi	-12.4672
▁Chắ	-12.4678
iro	-12.4679
ama	-12.4682
▁Juan	-12.4687
▁Fl	-12.4692
▁dắ	-12.4698
hổi	-12.4698
Point	-12.4706
▁CH	-12.4718
▁Angel	-12.4732
lu	-12.4732
he	-12.4745
rick	-12.4756
▁Cal	-12.4771
Đ	-12.4772
▁giở	-12.4779
fli	-12.4785
rack	-12.4792
▁Arm	-12.48
▁nhai	-12.4817
iffe	-12.4827
q	-12.4829
ồm	-12.4832
▁Ngư	-12.4837
▁Đả	-12.4841
môn	-12.4857
▁tuôn	-12.4867
ke	-12.4867
hire	-12.4872
▁Ac	-12.4874
anka	-12.488
▁bậ	-12.488
▁Val	-12.4881
▁BP	-12.4885
▁dả	-12.4888
rah	-12.4892
▁gluco	-12.4896
▁Luc	-12.49
▁nón	-12.4903
abad	-12.4904
▁ngơ	-12.4905
ven	-12.4906
nie	-12.4907
oah	-12.4908
ound	-12.4913
▁Ni	-12.4918
▁nghẹ	-12.4937
▁LH	-12.4939
▁Màn	-12.495
gh	-12.4965
▁Clo	-12.4978
▁dũ	-12.4987
▁rán	-12.4991
▁Max	-12.4992
▁En	-12.4993
▁giặ	-12.4997
▁phớ	-12.5005
wen	-12.5008
ulu	-12.5012
ek	-12.5013
lê	-12.5029
▁miên	-12.5047
▁1500	-12.5048
đây	-12.5059
hói	-12.506
▁Mari	-12.5064
▁proto	-12.5064
ska	-12.5073
▁Len	-12.5078
per	-12.508
▁Euro	-12.5082
▁sò	-12.5082
▁HS	-12.5083
▁Fellow	-12.5089
▁bla	-12.509
▁Alis	-12.5094
▁lầ	-12.5097
oogle	-12.5097
▁Odysse	-12.5098
▁Rezero	-12.5098
▁Aurora	-12.5098
▁Sioux	-12.5098
▁milimet	-12.5098
▁Hopkins	-12.5098
▁IKE	-12.5098
▁Kiva	-12.5099
▁Bonnet	-12.5099
▁Austral	-12.5099
▁Bayes	-12.51
▁CIA	-12.51
▁Oz	-12.51
▁Xa	-12.5102
▁Connecticut	-12.5103
▁Sẵn	-12.5103
▁Nauy	-12.5104
▁Tunisia	-12.5105
▁Browne	-12.5106
▁1800	-12.5111
▁Hmm	-12.5112
▁Malay	-12.5116
13	-12.5125
▁Scoo	-12.5125
▁Donald	-12.5126
▁Found	-12.5128
▁Sỹ	-12.5134
horn	-12.514
▁rẫy	-12.5154
▁Amsterdam	-12.5155
▁Liber	-12.5155
▁lạy	-12.5159
▁Brad	-12.516
▁Rocket	-12.5163
uận	-12.5177
▁chuồn	-12.5178
▁Russel	-12.5179
▁Tso	-12.5182
port	-12.5199
hụ	-12.5201
▁Kle	-12.5214
▁Mont	-12.5216
▁Tiề	-12.5236
12	-12.5238
▁Jud	-12.5242
▁76	-12.5242
▁Papu	-12.5247
▁Burn	-12.525
▁qú	-12.5257
▁Tu	-12.5269
▁đùi	-12.5272
▁Stockh	-12.5278
▁Sant	-12.5282
▁54	-12.5286
▁Gua	-12.5286
huynh	-12.5289
▁Vớ	-12.5292
▁Rebe	-12.5298
bul	-12.532
▁Jacque	-12.5323
▁Robins	-12.534
xe	-12.534
▁84	-12.5342
▁Pier	-12.5343
rở	-12.5349
▁Indiana	-12.5349
▁53	-12.5354
har	-12.5364
lại	-12.5366
▁gam	-12.5367
▁Pun	-12.537
lip	-12.5378
hư	-12.5379
▁Eco	-12.5385
sburg	-12.5397
▁Cent	-12.5408
▁187	-12.5418
ker	-12.5419
89	-12.5436
▁Lock	-12.5439
ynth	-12.5442
ris	-12.5463
thời	-12.5477
▁hon	-12.5489
▁RI	-12.5493
▁Alla	-12.5499
▁Wang	-12.5515
Pad	-12.5518
hóc	-12.5518
▁chiê	-12.5519
▁đả	-12.552
▁Cher	-12.553
▁ủ	-12.5535
▁chậu	-12.5537
Qa	-12.5545
nick	-12.5548
▁Bach	-12.555
BI	-12.5558
sai	-12.5572
00.000	-12.5572
ari	-12.5593
▁hop	-12.5616
hía	-12.5622
yne	-12.5624
here	-12.5626
bro	-12.5645
▁7000	-12.5656
ọ	-12.566
hình	-12.5661
▁cata	-12.5667
▁Gre	-12.568
love	-12.5684
▁Boy	-12.5694
ame	-12.5699
▁cưng	-12.5703
thấy	-12.5709
▁euro	-12.571
▁dặ	-12.5716
▁Gene	-12.5738
arty	-12.5741
▁vế	-12.5745
▁thè	-12.5747
▁1.6	-12.5754
mas	-12.5762
▁67	-12.5773
▁Tor	-12.5794
▁thiển	-12.5805
ặm	-12.5818
▁doo	-12.5835
▁Aust	-12.5836
▁Ju	-12.5838
▁Ber	-12.5839
hể	-12.5841
▁thiê	-12.5842
▁Phó	-12.585
▁mị	-12.5855
▁Ri	-12.5863
▁Hirsh	-12.5867
▁Gapminder	-12.5867
▁Ixaren	-12.5867
▁Picasso	-12.5867
▁cocktail	-12.5867
▁Gabriel	-12.5867
▁Rives	-12.5868
▁Studio	-12.5868
acre	-12.5868
▁Heather	-12.5868
▁nọc	-12.5868
▁Shaw	-12.5868
▁Wales	-12.5869
▁Danny	-12.5869
▁1940	-12.5869
▁marat	-12.5871
▁Photo	-12.5873
▁Mạc	-12.5873
▁demo	-12.5873
tz	-12.5873
▁JK	-12.5874
▁Huck	-12.5876
▁Minne	-12.5876
▁Oxy	-12.5876
▁Tel	-12.5879
▁Bloom	-12.5881
scal	-12.5884
▁Seth	-12.5887
▁dằn	-12.5891
▁suyễn	-12.5891
▁Kiế	-12.5895
kraine	-12.5898
▁Wilson	-12.5899
▁3,5	-12.5907
SF	-12.5908
ins	-12.5912
45	-12.5913
▁40.000	-12.5914
▁Viki	-12.5916
▁Heh	-12.5919
▁Ash	-12.5923
▁TEDster	-12.5927
▁56	-12.5955
cả	-12.596
▁Chu	-12.5969
▁kha	-12.5969
▁Michel	-12.5972
sion	-12.5973
▁Git	-12.5981
thì	-12.5983
▁Cú	-12.5987
▁SS	-12.5991
ghi	-12.5992
▁bợ	-12.5996
▁Rag	-12.6
▁gara	-12.6
.5	-12.6
▁Sc	-12.6006
▁Far	-12.6007
▁Robbi	-12.6011
▁meme	-12.6013
▁Phillip	-12.6033
16	-12.6033
▁Christ	-12.6038
đang	-12.6058
hop	-12.6064
meer	-12.6068
▁1,2	-12.6071
ina	-12.6072
▁Child	-12.6079
▁nạt	-12.6085
▁MW	-12.6086
▁Patric	-12.6086
amma	-12.6094
▁Pran	-12.6102
▁1,3	-12.6117
▁Ala	-12.6118
▁thố	-12.6119
▁Moo	-12.6124
▁SB	-12.6127
44	-12.6129
▁Phil	-12.6129
▁Chim	-12.6134
từ	-12.6139
▁tem	-12.6144
mond	-12.6146
▁sú	-12.6148
▁bit	-12.6166
▁Chen	-12.6185
▁Đặ	-12.6185
rưở	-12.6186
▁Lab	-12.6196
ical	-12.6204
men	-12.6205
▁2-3	-12.6206
▁Ya	-12.6214
▁Rivers	-12.622
▁Trắ	-12.6226
bes	-12.6227
iley	-12.6228
ud	-12.6234
▁Sợ	-12.6253
▁sả	-12.6254
▁Kos	-12.6255
▁liê	-12.6266
bu	-12.6268
▁Sim	-12.6271
uit	-12.6273
▁Pra	-12.6296
▁Bern	-12.6299
▁pa	-12.6302
▁Harris	-12.6307
ARPA	-12.6323
▁Tớ	-12.6323
200	-12.6345
LA	-12.6347
khác	-12.6358
▁Ser	-12.6358
ovo	-12.6361
ller	-12.6367
ower	-12.6371
▁BR	-12.6373
▁Georgi	-12.639
▁trơ	-12.6411
up	-12.6412
▁nhò	-12.6418
ple	-12.6425
▁Dick	-12.6426
▁Đề	-12.6431
▁Ele	-12.6433
▁baz	-12.6445
▁Kat	-12.6447
ortis	-12.6451
fus	-12.6465
▁Kiể	-12.6471
▁Ahmed	-12.6472
gal	-12.6472
▁39	-12.649
un	-12.6496
▁Sh	-12.6496
ul	-12.6511
rd	-12.6512
rọng	-12.6517
SC	-12.6517
▁Gian	-12.6526
▁Bar	-12.654
▁Trea	-12.6543
▁Ever	-12.6547
▁hù	-12.6559
din	-12.6561
▁Mard	-12.6592
mbor	-12.6603
▁Jan	-12.6607
▁Rod	-12.6621
▁Gan	-12.6638
công	-12.6649
yến	-12.6653
▁Had	-12.6658
nburg	-12.666
▁HP	-12.6672
▁Cự	-12.6676
hoạt	-12.6678
▁đu	-12.6685
▁Woo	-12.6689
▁Campuchia	-12.6701
▁Illinois	-12.6701
▁Massachusetts	-12.6701
▁Pittsburgh	-12.6701
▁Guardian	-12.6701
▁Achill	-12.6701
▁giỏ	-12.6701
▁Geoff	-12.6701
▁Ottoman	-12.6701
▁Kendal	-12.6701
▁Neuman	-12.6701
▁Show	-12.6701
▁Java	-12.6701
▁Hunter	-12.6701
▁Nicole	-12.6701
▁Ohio	-12.6701
▁1918	-12.6702
▁1983	-12.6702
▁1965	-12.6702
▁token	-12.6703
▁ARN	-12.6703
▁1920	-12.6704
wow	-12.6704
▁Brother	-12.6705
▁2015	-12.6706
▁Ital	-12.6706
▁Jerem	-12.6708
▁Vinc	-12.6711
▁Galil	-12.6711
▁Owen	-12.6713
▁Barbar	-12.6718
▁Aa	-12.6719
▁Mellon	-12.6721
usse	-12.6727
▁Shah	-12.6735
nhiều	-12.674
▁Monter	-12.6742
▁Yv	-12.6743
▁Turin	-12.6754
▁30.000	-12.6756
▁Walter	-12.676
her	-12.676
▁Thầ	-12.6763
▁401	-12.6764
▁Pilot	-12.6766
▁Prize	-12.6767
▁Rama	-12.6767
onia	-12.6769
iệm	-12.6773
▁House	-12.6774
▁sen	-12.6784
thực	-12.6785
▁Her	-12.6798
90	-12.6801
▁Moza	-12.6802
▁Clark	-12.6804
▁Lake	-12.6806
▁Lũ	-12.6809
▁đọ	-12.6813
OS	-12.6816
sek	-12.6817
▁à	-12.6818
ltim	-12.6819
▁Thoả	-12.6824
▁4.000	-12.6829
cách	-12.683
▁rặ	-12.6832
▁Lạnh	-12.6835
▁Valle	-12.6837
▁thuyên	-12.6855
▁mu	-12.6855
over	-12.6861
▁Vai	-12.6866
▁Chả	-12.6867
bia	-12.6871
▁Sang	-12.6871
▁Song	-12.6884
wick	-12.6888
cha	-12.6889
ntu	-12.689
urek	-12.6899
▁gỉ	-12.69
hích	-12.6901
▁Hỗ	-12.6909
hẻ	-12.6914
▁Lim	-12.6914
▁Basi	-12.6923
▁Dra	-12.6928
CL	-12.6932
▁nhô	-12.6932
huma	-12.6937
▁Baha	-12.6941
MP	-12.6944
▁nai	-12.6955
nish	-12.6957
▁Anna	-12.6966
▁Thán	-12.6967
▁Mik	-12.6971
at	-12.6979
▁Ell	-12.7009
ze	-12.7012
▁Mũ	-12.7017
▁vv	-12.702
▁Young	-12.7021
uddin	-12.7022
tion	-12.7026
ah	-12.7027
atops	-12.703
ya	-12.7038
▁laze	-12.7051
hồi	-12.7054
ẵn	-12.707
▁Water	-12.7075
92	-12.7075
ral	-12.7084
▁Radio	-12.7088
ilton	-12.7102
▁Del	-12.7105
▁bô	-12.7114
vin	-12.7121
ipcar	-12.7123
ans	-12.7126
ickr	-12.7143
ego	-12.7144
ẹn	-12.7147
▁nhan	-12.7171
15	-12.7179
ideo	-12.719
hước	-12.7197
ness	-12.7197
29	-12.7203
Prince	-12.7207
guồn	-12.7208
58	-12.7209
eil	-12.722
▁Rad	-12.7223
▁ni	-12.7223
ali	-12.7225
▁w	-12.7227
arter	-12.7238
ies	-12.7244
unk	-12.7252
CA	-12.7252
động	-12.7262
ook	-12.7264
▁xao	-12.7269
▁bở	-12.7272
lee	-12.7278
mara	-12.7292
▁Khơ	-12.7295
rin	-12.7299
ala	-12.7311
▁dế	-12.7335
▁Au	-12.7342
▁nit	-12.7345
rập	-12.7346
▁Du	-12.7346
tein	-12.7347
▁Row	-12.7347
are	-12.7358
▁triế	-12.7375
vì	-12.7388
▁750	-12.7394
▁Quyế	-12.7399
▁dí	-12.74
▁Emman	-12.7411
▁von	-12.7413
ago	-12.7414
▁Is	-12.7416
▁365	-12.7426
chỉ	-12.7428
▁Gamb	-12.7433
SDA	-12.7437
off	-12.7445
▁Vẫ	-12.7447
▁Tweet	-12.7458
oga	-12.7465
▁Đạ	-12.7472
thành	-12.7474
hủng	-12.7476
600	-12.7481
▁Son	-12.7483
nos	-12.7483
rren	-12.7493
RS	-12.75
▁Bandu	-12.7501
húc	-12.7502
▁rầu	-12.7503
dale	-12.751
▁FD	-12.7516
burg	-12.7521
▁mili	-12.7523
▁Kí	-12.7524
tro	-12.7535
đ	-12.7538
hỉ	-12.7539
▁Limb	-12.7552
▁Greg	-12.7553
tler	-12.7558
hơn	-12.7576
▁Mang	-12.7587
ưỡi	-12.7594
▁Doll	-12.7596
▁tợn	-12.7603
▁Hunt	-12.7604
oxy	-12.7606
▁Sứ	-12.7608
▁Afganistan	-12.761
▁Duoling	-12.761
▁Enceladus	-12.761
▁Exxon	-12.761
▁Kentuck	-12.761
▁Mozambique	-12.761
▁Roosevelt	-12.761
▁penicillin	-12.761
▁Madagas	-12.761
▁Senegal	-12.761
▁Malawi	-12.761
▁complex	-12.761
▁England	-12.761
▁Jarret	-12.761
▁Reddit	-12.761
▁Morgan	-12.761
▁School	-12.761
▁kilô	-12.761
▁Aspe	-12.7611
▁Clevela	-12.7611
▁Church	-12.7611
▁Glad	-12.7611
▁1949	-12.7612
-40	-12.7612
Hz	-12.7612
▁năn	-12.7612
▁Hyder	-12.7613
▁Window	-12.7613
▁Lã	-12.7614
NICE	-12.7616
ookie	-12.7617
▁nga	-12.7619
▁Wiki	-12.762
▁Philippine	-12.7621
▁mic	-12.7622
▁Full	-12.7628
raft	-12.7628
▁Wire	-12.7629
▁Mall	-12.7632
▁At	-12.7634
▁phỉ	-12.7634
▁Ola	-12.7635
▁1-2	-12.7635
▁IP	-12.764
manda	-12.7645
▁12.000	-12.7652
▁Ngh	-12.7653
▁Wood	-12.7658
▁McCa	-12.7664
▁Christian	-12.7666
▁biê	-12.7669
run	-12.7672
▁Lar	-12.7675
▁8000	-12.7682
▁Pri	-12.7688
▁Dam	-12.7688
ax	-12.7689
ff	-12.7689
▁Nicola	-12.7696
owan	-12.7697
▁trũng	-12.7697
▁Jenni	-12.7703
▁Adria	-12.7705
ru	-12.7712
09	-12.7716
▁0.5	-12.7725
▁Lí	-12.7728
▁1.8	-12.7729
▁Robi	-12.7737
▁Camp	-12.7743
▁Kath	-12.7744
48	-12.7749
▁74	-12.775
enix	-12.7757
▁Medi	-12.7758
▁ừm	-12.7759
▁vồng	-12.7762
Chryst	-12.7771
▁oxide	-12.7776
uýt	-12.7783
▁neo	-12.7784
tar	-12.7784
▁vượn	-12.7788
▁TG	-12.7793
▁Hard	-12.7802
▁Diễ	-12.7811
▁Kan	-12.7812
res	-12.7816
cher	-12.7818
▁răn	-12.7821
▁NI	-12.7831
otto	-12.7832
ợn	-12.7832
▁101	-12.7834
liu	-12.7845
hưởng	-12.785
▁Head	-12.785
▁lươn	-12.7851
▁Color	-12.7853
▁0.1	-12.7855
▁Jas	-12.7856
▁Perc	-12.7867
▁Lega	-12.7873
ridge	-12.7874
cent	-12.7878
▁Hiể	-12.788
ase	-12.7886
▁Rum	-12.7889
▁Barto	-12.7894
sus	-12.7896
raham	-12.7897
lm	-12.7899
▁ngoạ	-12.7907
▁Tuyết	-12.7913
amie	-12.7915
▁mix	-12.7919
▁Gilli	-12.7919
▁nhả	-12.7925
zơ	-12.7926
▁Rita	-12.7926
▁Đứ	-12.7936
eline	-12.7938
gì	-12.794
nhưng	-12.7941
▁Perr	-12.7941
▁Mira	-12.7943
▁vẹ	-12.7945
tất	-12.7953
▁Goldi	-12.7958
▁bư	-12.7963
cus	-12.7965
ale	-12.7966
▁mú	-12.7973
▁gra	-12.7974
mình	-12.7989
▁AI	-12.7991
ition	-12.7998
hất	-12.8005
oir	-12.8011
▁Luri	-12.802
oanh	-12.8025
uga	-12.8026
27	-12.8047
▁quyê	-12.8051
▁trờ	-12.8056
va	-12.8063
▁Cla	-12.8064
cụ	-12.8065
300	-12.8072
▁It	-12.8077
▁We	-12.8089
85	-12.809
MA	-12.8092
▁Hamp	-12.8103
ealan	-12.8121
insky	-12.8127
rèm	-12.8128
▁Sta	-12.8134
▁Mur	-12.8136
qu	-12.8136
▁Point	-12.8138
MF	-12.8144
▁lon	-12.815
▁66	-12.8163
▁ngỏ	-12.8164
Phi	-12.8164
▁Davi	-12.8166
TS	-12.817
qua	-12.8184
ene	-12.8195
---	-12.8208
▁Wu	-12.8211
ddie	-12.8223
ffit	-12.8233
▁for	-12.824
▁DD	-12.825
ion	-12.8251
rich	-12.8268
▁McK	-12.827
Lee	-12.8276
ouse	-12.8277
oad	-12.8278
lic	-12.8279
nhồi	-12.8301
umari	-12.8305
AL	-12.8308
bê	-12.8312
ippi	-12.8324
▁Bou	-12.8325
aria	-12.8346
fu	-12.8346
une	-12.8354
wa	-12.8356
▁woo	-12.8356
elle	-12.8361
▁190	-12.8367
anor	-12.8369
▁Cap	-12.8373
lick	-12.8375
las	-12.8379
kat	-12.8388
cái	-12.8406
▁giậ	-12.841
nders	-12.841
dez	-12.8413
▁Br	-12.8418
ieu	-12.8419
▁bổn	-12.8419
▁eB	-12.8425
ES	-12.8434
▁Toro	-12.8457
đầu	-12.8458
huộ	-12.846
▁PC	-12.846
llage	-12.8461
yle	-12.8466
▁Sadd	-12.8468
rrow	-12.8469
▁mượ	-12.8469
▁Post	-12.8477
endo	-12.8483
sky	-12.8489
blog	-12.8496
ould	-12.8502
oney	-12.8505
▁Pac	-12.8515
uza	-12.8516
▁Robin	-12.8517
▁wi	-12.8521
trên	-12.8541
huỳ	-12.8548
▁00	-12.855
▁ngượng	-12.8553
▁Shre	-12.857
▁Ata	-12.8585
dad	-12.8596
▁1200	-12.8607
toni	-12.8609
▁Sisyph	-12.861
engineering	-12.861
▁Android	-12.861
▁Cassini	-12.861
▁Chechnya	-12.861
▁Feynman	-12.861
▁Missouri	-12.861
awesome	-12.861
▁Balkan	-12.861
▁Online	-12.861
▁Isabel	-12.861
▁Budrus	-12.861
▁Darfur	-12.861
▁Knight	-12.861
▁Nikola	-12.861
ennis	-12.861
▁Gifford	-12.861
▁Buffet	-12.861
▁Splashy	-12.8611
▁Food	-12.8611
▁Ferris	-12.8611
▁webcam	-12.8611
shmi	-12.8612
93	-12.8612
▁CDC	-12.8613
osph	-12.8613
▁Bagh	-12.8615
Murdo	-12.8616
▁Vila	-12.8617
▁0,0	-12.8618
▁mấ	-12.8618
▁Newcast	-12.8618
▁China	-12.8621
▁Wor	-12.8622
▁Denisovan	-12.8624
▁Sting	-12.8627
▁59	-12.8629
▁Good	-12.8634
prof	-12.8637
▁Trinida	-12.8637
▁Frederic	-12.8641
▁nháp	-12.8644
▁bloop	-12.8647
geria	-12.8649
▁Lind	-12.865
▁One	-12.8651
▁Missis	-12.8652
ni	-12.8655
▁63	-12.8656
▁Phúc	-12.8657
▁Beth	-12.8658
ễu	-12.8659
aki	-12.8661
▁Kant	-12.8663
▁Lauren	-12.8663
ado	-12.8664
ack	-12.8675
▁polymer	-12.8677
▁Play	-12.8683
▁2014	-12.869
▁ươ	-12.8694
▁Nino	-12.8695
www	-12.8697
▁12,000	-12.8706
▁Bin	-12.8708
▁DC	-12.8713
▁1.7	-12.8715
antha	-12.8715
▁BK	-12.8716
idro	-12.872
▁2.3	-12.8722
▁Fabi	-12.8722
▁3.5	-12.8729
ợng	-12.8729
▁hơ	-12.8739
iff	-12.8745
HO	-12.8746
▁LA	-12.8747
▁HC	-12.8747
▁05	-12.8753
▁Rica	-12.8772
▁Cloud	-12.8777
▁Bỉ	-12.8779
▁Brun	-12.8779
ata	-12.8781
▁Chip	-12.8788
▁Ghi	-12.8792
bach	-12.8793
ava	-12.8795
reud	-12.8797
▁NO	-12.8804
▁Thê	-12.881
rồi	-12.881
▁Gall	-12.8813
▁More	-12.8815
▁luyến	-12.8817
28	-12.8826
quan	-12.883
▁Kho	-12.8832
▁Trận	-12.8835
hí	-12.8837
▁Kins	-12.8852
▁Rub	-12.8866
▁centim	-12.8866
hê	-12.8868
arin	-12.8871
▁186	-12.8873
Philips	-12.8892
TO	-12.8893
ứ	-12.8896
▁Bond	-12.8903
cou	-12.8911
▁Orl	-12.8913
▁As	-12.8922
▁Shei	-12.8926
row	-12.8933
van	-12.8936
rid	-12.8937
▁đú	-12.8937
▁83	-12.8962
▁sé	-12.8969
▁Isa	-12.897
▁Sina	-12.897
vada	-12.8971
▁ngươ	-12.8974
nica	-12.8981
hìa	-12.8989
▁Res	-12.8994
gia	-12.8998
70	-12.9005
ts	-12.9006
▁1.4	-12.9008
uther	-12.9011
bara	-12.9015
▁poly	-12.9023
▁am	-12.9024
▁Vận	-12.9031
eta	-12.9051
▁Thi	-12.9059
▁dơ	-12.9059
▁Ste	-12.9061
▁khẩ	-12.9064
gác	-12.9076
▁Arab	-12.9076
ats	-12.9078
ttle	-12.9087
75	-12.9088
80	-12.909
▁Berg	-12.9096
roso	-12.9099
▁vắ	-12.9108
▁Saf	-12.9116
▁prot	-12.9118
▁trăn	-12.912
năm	-12.9124
▁gân	-12.9124
▁Byr	-12.9125
▁chè	-12.9132
▁fu	-12.9138
▁Beatle	-12.9142
hoáng	-12.9147
34	-12.9151
ander	-12.9155
inger	-12.9162
▁gù	-12.9178
▁Kara	-12.918
goá	-12.9195
▁Chung	-12.9196
,5	-12.9196
▁McKe	-12.9214
▁650	-12.9214
▁73	-12.9216
Man	-12.9218
▁seri	-12.9222
sha	-12.9222
▁serie	-12.9222
▁Jose	-12.9223
14	-12.9229
▁Arabi	-12.9229
uten	-12.9249
ft	-12.9265
amen	-12.9265
▁Thom	-12.9269
lpha	-12.9273
IM	-12.9276
▁Bott	-12.9277
Như	-12.928
AO	-12.9284
▁Scien	-12.9292
▁Kong	-12.9292
▁Bol	-12.9295
thứ	-12.9298
ubu	-12.9304
▁Gr	-12.931
hế	-12.9324
▁té	-12.9328
Hurt	-12.9335
▁Casa	-12.935
bin	-12.9368
giới	-12.9371
▁Pauli	-12.9373
▁cù	-12.9376
sin	-12.9377
▁ft	-12.9381
▁91	-12.9384
tim	-12.9386
ùn	-12.9393
ẵ	-12.9393
▁Jacob	-12.9402
▁cảng	-12.9402
▁đơ	-12.9404
▁Nơ	-12.9427
▁Fo	-12.9429
▁Mir	-12.9434
ania	-12.9435
ev	-12.944
tinh	-12.9441
ty	-12.945
▁hạc	-12.9454
lar	-12.946
die	-12.9504
▁Mali	-12.9517
▁are	-12.9518
nce	-12.952
ue	-12.9521
▁sun	-12.9525
ivi	-12.9527
SM	-12.9542
▁thự	-12.9549
42	-12.9551
riển	-12.9556
nào	-12.9558
ylon	-12.9564
▁Mee	-12.9566
bus	-12.9567
wait	-12.9567
▁Trả	-12.9576
▁Love	-12.9585
▁lún	-12.9585
▁Sie	-12.959
▁Andre	-12.9594
bat	-12.9594
▁Walt	-12.9594
57	-12.9597
gme	-12.962
▁nghên	-12.9629
▁Alai	-12.964
▁Seli	-12.9656
lose	-12.9662
▁Saul	-12.9669
lux	-12.9674
-1	-12.9676
ach	-12.968
ero	-12.9686
▁me	-12.9686
kut	-12.9687
▁mệ	-12.9698
▁America	-12.9703
unes	-12.9704
▁Myhrvold	-12.9721
▁Airstream	-12.9721
▁Bitcoin	-12.9721
▁Eskimo	-12.9721
▁MOOC	-12.9721
▁McGoni	-12.9721
▁Randolph	-12.9721
▁Hoffman	-12.9721
▁Turbo	-12.9721
▁gluten	-12.9721
▁Simpson	-12.9721
▁Maslow	-12.9721
▁Ridge	-12.9721
▁whisk	-12.9721
▁Botswan	-12.9721
▁Elliot	-12.9721
▁Titanic	-12.9721
▁Vivian	-12.9721
▁XDR	-12.9721
▁Skid	-12.9721
▁Sleep	-12.9721
▁Pants	-12.9721
▁Viagra	-12.9721
▁Eames	-12.9721
▁WikiLeaks	-12.9721
▁1976	-12.9722
▁747	-12.9722
▁Spi	-12.9722
▁Garden	-12.9723
▁1953	-12.9723
▁Sophia	-12.9723
▁Sally	-12.9723
▁Theodor	-12.9724
▁mafia	-12.9724
▁1982	-12.9724
rồng	-12.9724
hấy	-12.9725
▁Coke	-12.9727
▁quark	-12.9727
▁MR	-12.9729
▁Insta	-12.9729
▁Cruze	-12.973
▁Bren	-12.973
bama	-12.9732
med	-12.9733
▁Count	-12.9734
▁Jordans	-12.9735
▁Hazle	-12.9735
▁Allo	-12.9741
▁Rich	-12.9744
▁pounds	-12.9744
▁cents	-12.975
▁Stalin	-12.9753
▁Sandy	-12.9756
▁August	-12.9759
oint	-12.976
▁Hindu	-12.9761
ứu	-12.9762
▁muội	-12.9762
▁Húp	-12.9763
AM	-12.9767
▁Code	-12.9768
eck	-12.9768
arro	-12.9768
▁Brent	-12.9769
▁Shack	-12.9771
phần	-12.9772
▁Nghiệp	-12.9772
▁Gaga	-12.9775
▁200.000	-12.9776
▁Tulle	-12.9784
▁sin	-12.9785
▁Matth	-12.9788
▁Bowl	-12.9791
ubble	-12.9808
▁Lis	-12.981
uật	-12.9811
▁Pol	-12.9814
▁Kerry	-12.9816
rew	-12.9822
▁Whe	-12.9823
▁Jeann	-12.9829
▁Barbi	-12.983
nsky	-12.9831
Gregor	-12.9832
tạo	-12.9833
nghĩ	-12.9836
tr	-12.9838
ir	-12.9842
▁80.000	-12.9845
gger	-12.9848
▁Kid	-12.985
ieber	-12.9857
ick	-12.9859
ite	-12.9863
dan	-12.9865
▁Paol	-12.9866
ment	-12.9867
▁Tuc	-12.9868
▁Khali	-12.9874
uộ	-12.9876
aux	-12.9886
lia	-12.9889
▁thắ	-12.9892
erba	-12.9903
mon	-12.9906
▁Hama	-12.9911
▁Carib	-12.9912
▁âu	-12.9914
muốn	-12.9927
dema	-12.9928
uynh	-12.9932
bell	-12.9937
▁há	-12.9938
▁Wag	-12.9944
▁LM	-12.9945
▁BM	-12.9946
ơng	-12.9953
ec	-12.9959
theo	-12.9961
▁goi	-12.9962
yum	-12.997
▁Abd	-12.9977
▁Pink	-12.9978
▁Carro	-12.9996
aro	-12.9998
▁IM	-13.0015
úa	-13.0016
▁Hadr	-13.0017
erald	-13.0019
▁Hud	-13.003
▁Dư	-13.0031
hiểu	-13.0031
koko	-13.0031
rego	-13.0036
uana	-13.0039
omi	-13.0044
▁Shirk	-13.0049
▁4,5	-13.0053
▁Rocke	-13.0055
il	-13.0057
▁Merc	-13.0057
ISA	-13.0058
gu	-13.0059
▁Pia	-13.0064
▁ngạ	-13.0067
▁Hu	-13.0071
▁sỉ	-13.0082
onald	-13.0093
rách	-13.01
50	-13.011
read	-13.0112
▁Penn	-13.0114
sta	-13.012
▁Cole	-13.0131
▁Hanse	-13.0158
▁Er	-13.0159
min	-13.0162
etc	-13.0168
▁Trac	-13.0176
nil	-13.0177
vậy	-13.0181
war	-13.0181
ryn	-13.0183
▁Dy	-13.0183
▁geo	-13.0189
▁quệ	-13.0189
▁mụ	-13.02
▁Gil	-13.0209
▁Fer	-13.021
rming	-13.0213
ome	-13.0227
▁Rot	-13.0233
iles	-13.0241
▁25000	-13.0242
▁chọ	-13.0248
chính	-13.0253
indle	-13.0255
iki	-13.0255
▁7.5	-13.0256
▁lú	-13.0261
▁Aria	-13.0264
ius	-13.027
press	-13.0275
▁Hal	-13.0276
▁Lệ	-13.0291
agen	-13.0291
▁đờ	-13.0292
hằng	-13.0322
hầy	-13.0334
▁Kin	-13.0337
azo	-13.0342
▁tấu	-13.0343
ER	-13.0344
▁Biể	-13.0352
▁Tere	-13.0352
sama	-13.0354
▁Wid	-13.0357
▁Marsha	-13.036
18	-13.0364
▁xù	-13.0367
47	-13.038
40	-13.0392
wl	-13.0401
▁Rese	-13.041
hộp	-13.041
via	-13.0424
cz	-13.0436
?	-13.0436
hừng	-13.0439
▁cơm	-13.0441
▁Gran	-13.0442
500	-13.045
▁AB	-13.045
lder	-13.0458
▁Rea	-13.0461
oul	-13.0469
igr	-13.0488
▁Sala	-13.0488
▁lắ	-13.0489
▁Sand	-13.0492
▁Lou	-13.0493
▁Hua	-13.0495
TB	-13.0501
▁1,6	-13.0506
▁Inter	-13.051
▁ru	-13.0512
ấc	-13.0515
▁Dro	-13.0518
▁Min	-13.0528
▁Mon	-13.0539
SG	-13.054
the	-13.0542
AA	-13.0548
▁mè	-13.0549
▁Lago	-13.0566
beta	-13.0568
mô	-13.0572
tern	-13.0572
▁đễ	-13.0574
▁62	-13.058
▁vơ	-13.058
▁71	-13.058
▁Carolin	-13.0582
▁Electro	-13.0586
cũng	-13.0601
60	-13.0601
phi	-13.0618
▁Chev	-13.0618
lơ	-13.062
chu	-13.0633
▁rap	-13.064
▁Lak	-13.064
▁Loa	-13.0645
ehr	-13.0646
▁Hot	-13.0648
ap	-13.065
SB	-13.0661
TD	-13.0662
▁Tan	-13.0665
▁trắ	-13.0668
▁Gram	-13.067
▁Khad	-13.067
▁Gw	-13.0673
nom	-13.0673
▁Ter	-13.0677
hòng	-13.0683
yền	-13.0695
Fi	-13.0696
ance	-13.0703
nee	-13.071
10	-13.0713
tốt	-13.0713
▁giông	-13.0721
ora	-13.0728
▁Economi	-13.073
▁Les	-13.0731
98	-13.0737
hú	-13.0742
rtis	-13.0742
hung	-13.0742
giờ	-13.0743
roge	-13.0748
ừm	-13.0751
▁Gh	-13.0753
▁tuyê	-13.0779
▁Ngữ	-13.0779
▁Nor	-13.0792
▁xê	-13.0793
lab	-13.0795
▁PR	-13.0795
▁Jen	-13.0798
▁rạ	-13.0799
▁Old	-13.08
eed	-13.08
mble	-13.0802
ss	-13.0826
▁Para	-13.0845
▁Wes	-13.085
▁trọ	-13.0852
▁Rup	-13.0856
▁170	-13.0862
rấ	-13.0866
▁Meg	-13.0872
late	-13.0878
▁Swa	-13.088
▁Sol	-13.0884
▁Rhode	-13.09
▁Engel	-13.0911
▁How	-13.0913
rug	-13.0916
hùng	-13.0916
▁Vik	-13.0919
SA	-13.0925
▁Grou	-13.0935
▁BB	-13.094
▁Sue	-13.0941
nic	-13.0946
▁Hono	-13.0949
inawa	-13.0949
ulli	-13.0969
▁Motor	-13.0969
▁Virgin	-13.097
▁Joa	-13.097
▁Mob	-13.0971
▁KIPP	-13.0971
▁Kuznet	-13.0971
▁Thatcher	-13.0971
▁Wisconsin	-13.0971
▁Yellowstone	-13.0971
▁guitar	-13.0971
▁terawatt	-13.0971
▁Ahmad	-13.0971
▁Bolivia	-13.0971
▁DIY	-13.0971
▁Debora	-13.0971
▁IPCC	-13.0971
▁Sachs	-13.0971
▁Journal	-13.0971
▁Mohamed	-13.0971
▁Igbo	-13.0971
▁Bernard	-13.0971
▁Griffi	-13.0971
▁adrenalin	-13.0971
▁Democra	-13.0971
▁Orwell	-13.0971
▁Durga	-13.0971
▁Derart	-13.0971
▁Budape	-13.0971
▁Greenville	-13.0972
▁Peace	-13.0972
▁Earle	-13.0972
▁Kirk	-13.0972
▁Duke	-13.0972
▁1977	-13.0972
▁McL	-13.0972
▁Hatz	-13.0973
▁neutron	-13.0973
▁MAS	-13.0973
▁Bionicle	-13.0973
▁Gell	-13.0973
▁Titan	-13.0974
▁Life	-13.0974
▁Kamen	-13.0974
▁Smithson	-13.0974
▁Jaw	-13.0974
▁Marx	-13.0974
Card	-13.0975
▁Snowden	-13.0975
▁Wilkins	-13.0976
▁Porter	-13.0977
▁Gross	-13.0977
▁kilomet	-13.0977
▁Ice	-13.0977
▁sexy	-13.0977
▁Fear	-13.0977
Atten	-13.0978
▁Hỡi	-13.0979
roll	-13.0979
▁Music	-13.098
▁1981	-13.098
▁nghén	-13.098
▁socola	-13.098
▁Pope	-13.098
ethan	-13.0984
▁Silver	-13.0985
urich	-13.0985
NES	-13.0986
viết	-13.0987
▁Deb	-13.0991
▁NSA	-13.0993
▁Bank	-13.0996
▁Night	-13.0999
▁Bro	-13.0999
▁lùn	-13.1004
▁Bart	-13.1005
▁guồng	-13.1007
elli	-13.1015
▁Nixon	-13.1015
▁TNC	-13.1018
▁1100	-13.1018
▁Tru	-13.1019
enzi	-13.1019
▁sán	-13.102
Nó	-13.1025
▁All	-13.1026
ited	-13.1026
▁rup	-13.1028
▁Rem	-13.1031
code	-13.1031
▁Barry	-13.1035
rocco	-13.1038
▁Cash	-13.1039
▁India	-13.1039
incent	-13.104
▁Natal	-13.1041
▁Atlant	-13.1042
▁acr	-13.1045
háng	-13.1045
▁Brita	-13.1046
▁Atala	-13.1046
▁Kurdis	-13.1047
▁Albani	-13.1047
ops	-13.1049
▁Leh	-13.1051
▁Citi	-13.1054
wal	-13.1057
▁Midwest	-13.1058
goại	-13.106
▁ái	-13.1065
▁1978	-13.1068
▁Pur	-13.107
▁Hell	-13.107
of	-13.1078
▁Edd	-13.1079
weil	-13.1081
▁Genev	-13.1081
▁Glenn	-13.1081
Scrip	-13.1083
AT	-13.1084
ote	-13.1086
yo	-13.1086
▁Jac	-13.1088
ding	-13.1092
▁hợ	-13.1096
▁kền	-13.1098
▁Yan	-13.1101
eibo	-13.1101
▁Mecha	-13.1101
hô	-13.1101
▁Suzan	-13.1103
▁Turk	-13.1104
▁Mulli	-13.1107
▁nhâ	-13.1109
▁Antoni	-13.111
▁Mani	-13.1116
▁Dược	-13.1117
▁Vel	-13.1139
▁Watt	-13.1139
▁Cử	-13.1139
▁Bei	-13.114
▁Schul	-13.1145
nus	-13.115
▁Pug	-13.1151
▁fis	-13.1156
ole	-13.1163
▁Dhara	-13.1164
sh	-13.1168
dne	-13.117
ờng	-13.1171
▁Fire	-13.1172
▁Guy	-13.1181
▁dật	-13.1191
ượu	-13.1196
▁xỉn	-13.1196
▁Verme	-13.1203
▁Av	-13.1204
ok	-13.1209
▁Vệ	-13.1209
▁Luk	-13.1211
ump	-13.1217
ushi	-13.1227
▁Miến	-13.1229
▁Mây	-13.1238
▁Coll	-13.1242
số	-13.1249
ust	-13.1253
ert	-13.1261
tas	-13.1262
▁cacbonat	-13.1263
ickli	-13.1266
ana	-13.128
ffen	-13.1291
băng	-13.1291
ise	-13.1293
abin	-13.1296
▁Evel	-13.1306
Pes	-13.1307
▁AD	-13.1317
huyển	-13.1319
▁râ	-13.1324
▁Marcel	-13.1324
▁búp	-13.1326
▁mode	-13.1326
▁88	-13.1327
▁Kap	-13.1335
for	-13.1337
▁Beck	-13.1337
thay	-13.1339
ee	-13.1339
lub	-13.1342
▁Hart	-13.1344
DH	-13.1346
isco	-13.1364
ahl	-13.1369
owa	-13.137
▁Chand	-13.1378
▁Mala	-13.1382
edia	-13.1382
kov	-13.1384
▁vỉ	-13.1384
PA	-13.1386
raniu	-13.1392
plin	-13.1393
ữu	-13.1393
nhà	-13.1394
đổi	-13.1395
▁nú	-13.1401
FL	-13.1402
▁thă	-13.1402
Edwards	-13.1407
hall	-13.1407
cini	-13.1411
abyte	-13.1416
▁cấ	-13.1423
cam	-13.1426
chim	-13.1432
kar	-13.1438
PO	-13.1445
▁Dep	-13.1454
▁Bett	-13.1482
▁Dai	-13.1482
▁rạn	-13.1482
▁Ses	-13.1486
Của	-13.1491
hoá	-13.1493
nên	-13.1494
fon	-13.1498
▁Per	-13.1502
▁tấ	-13.1509
▁IV	-13.1512
loch	-13.1513
▁Game	-13.1516
ague	-13.1519
▁Bir	-13.1524
▁nick	-13.154
▁Nint	-13.1546
▁thớ	-13.1547
▁Bre	-13.1547
sel	-13.1551
view	-13.1551
▁bass	-13.1553
▁Buy	-13.1554
wan	-13.1555
rị	-13.1555
▁SI	-13.1591
eise	-13.1592
▁tó	-13.1602
▁no	-13.1602
▁gọ	-13.1603
ullin	-13.1623
▁Than	-13.1623
gầm	-13.1634
inux	-13.1638
▁Sar	-13.1639
etz	-13.1643
hoa	-13.1646
▁ES	-13.165
▁Wy	-13.1653
▁Pen	-13.1663
▁Jani	-13.1666
▁nhỡ	-13.1668
▁Jun	-13.1677
ese	-13.1685
iger	-13.1686
ớm	-13.1687
▁TE	-13.1689
▁Cod	-13.1691
SS	-13.1697
tal	-13.1699
tu	-13.1701
▁Lượ	-13.1702
imo	-13.1705
rbus	-13.1706
▁Joan	-13.1716
▁2500	-13.1725
▁XI	-13.1727
core	-13.1737
▁Dew	-13.1746
foot	-13.1759
▁River	-13.1761
sống	-13.1763
▁oli	-13.1764
▁Christin	-13.1769
▁Quê	-13.1776
bur	-13.1782
ink	-13.1788
nhất	-13.1788
▁uý	-13.1803
val	-13.1804
virus	-13.1804
▁Ros	-13.1811
3-4	-13.1818
▁khuỷ	-13.1821
▁quậy	-13.1822
36	-13.1823
▁lim	-13.1835
▁dioxi	-13.1839
▁Va	-13.1841
▁ep	-13.1844
33	-13.1858
carbon	-13.1862
▁AC	-13.1865
▁pro	-13.1869
▁GI	-13.1869
▁Nova	-13.187
ury	-13.1876
▁TB	-13.1879
ock	-13.1881
TC	-13.1881
fe	-13.1888
▁Lạc	-13.1891
▁Nhu	-13.19
▁Richards	-13.191
eal	-13.1911
▁Liz	-13.1918
95	-13.1921
▁ỏi	-13.1924
▁est	-13.1932
ood	-13.1936
▁On	-13.1948
MCA	-13.1953
gas	-13.1958
ima	-13.1974
▁Moi	-13.1976
thai	-13.1983
Hub	-13.1984
AC	-13.1987
lus	-13.1992
out	-13.1994
xa	-13.1997
▁Sha	-13.2001
▁tweets	-13.2008
▁IN	-13.201
uý	-13.2015
▁HI	-13.2018
erin	-13.2018
▁Cous	-13.2025
arch	-13.2032
▁Fre	-13.204
▁phà	-13.2049
▁hect	-13.205
lean	-13.2052
ens	-13.2055
pat	-13.2062
zer	-13.2069
stone	-13.207
oko	-13.2084
▁Ran	-13.2084
▁Cor	-13.2087
mo	-13.209
▁Dun	-13.2101
▁Trạ	-13.2103
▁Palme	-13.2105
huốc	-13.2105
eine	-13.2128
▁AT	-13.2129
rung	-13.2129
uhan	-13.213
enz	-13.2137
tanbu	-13.2142
Bund	-13.2143
TV	-13.2147
ein	-13.2148
▁Krist	-13.2148
▁Low	-13.2163
onica	-13.2169
▁Bus	-13.2172
68	-13.218
zman	-13.218
uba	-13.2181
oyd	-13.2181
ễn	-13.2183
▁Kaa	-13.2192
terdam	-13.2198
hoà	-13.2198
arcelo	-13.2199
ist	-13.221
▁nắn	-13.2218
ather	-13.2221
plan	-13.2226
▁Tam	-13.2228
▁trĩ	-13.2236
▁Den	-13.2237
lên	-13.2242
rque	-13.2247
-20	-13.225
dol	-13.2254
si	-13.2255
▁vê	-13.2265
ổn	-13.227
▁Bul	-13.2277
▁thầ	-13.228
▁hắt	-13.2289
heim	-13.2294
▁Comp	-13.23
▁nhú	-13.2301
ash	-13.2303
asa	-13.2307
him	-13.2331
▁Harri	-13.2331
ati	-13.2338
nder	-13.2339
▁Patt	-13.2341
▁Cru	-13.2345
▁Burt	-13.235
▁Ces	-13.235
sala	-13.2354
▁Pinke	-13.2358
▁9000	-13.236
MW	-13.2362
▁gươ	-13.2366
kinh	-13.2366
▁Reut	-13.237
ling	-13.2378
▁vaccin	-13.2382
▁Michoac	-13.2385
▁1,	-13.2387
▁1300	-13.2391
▁kilo	-13.2393
hớt	-13.2398
krain	-13.2399
▁Pyth	-13.2399
andel	-13.2399
ển	-13.2399
▁Adventist	-13.24
▁favela	-13.24
▁soundscape	-13.24
▁BRCK	-13.24
▁Improv	-13.24
▁Malthus	-13.24
▁Ecuado	-13.24
Miguel	-13.24
▁NRK	-13.24
▁Morris	-13.24
▁Toxo	-13.24
▁Pimp	-13.24
▁fMRI	-13.24
▁Coast	-13.24
▁Daily	-13.24
▁Meadow	-13.24
▁Anato	-13.24
▁amyloid	-13.24
▁Monster	-13.24
▁Maasai	-13.24
Houston	-13.24
▁khiê	-13.24
▁1926	-13.24
▁Grove	-13.2401
▁Parik	-13.2401
▁Johannes	-13.2401
▁Hyper	-13.2401
▁Kool	-13.2401
▁Socrate	-13.2402
▁cocaine	-13.2402
▁PSA	-13.2402
▁Galen	-13.2402
▁Astro	-13.2402
▁Health	-13.2402
▁Loren	-13.2402
▁1963	-13.2403
▁Shephela	-13.2403
▁transistor	-13.2404
▁Prospera	-13.2404
▁1910	-13.2404
▁JE	-13.2404
erial	-13.2404
wind	-13.2405
▁Hacker	-13.2405
▁TEDxR	-13.2405
▁ôxy	-13.2405
▁Milan	-13.2406
▁Motors	-13.2406
▁Out	-13.2407
▁Springs	-13.2408
▁Moham	-13.2408
▁blue	-13.2409
▁Rodrig	-13.2409
▁Lance	-13.241
▁radar	-13.241
▁Babb	-13.241
▁Damas	-13.2411
▁Franken	-13.2411
▁Burk	-13.2413
▁Benoi	-13.2414
▁Ay	-13.2415
▁Ida	-13.2415
abasc	-13.2417
▁Agar	-13.2418
▁Novo	-13.242
▁ESP	-13.2421
ckel	-13.2422
▁Rosali	-13.2424
▁Sufi	-13.2425
▁Puer	-13.2428
▁Denis	-13.2435
▁1600	-13.2437
88	-13.244
▁hep	-13.244
▁DAR	-13.2446
▁20000	-13.2446
▁Volta	-13.2446
▁Buck	-13.2447
▁ROV	-13.2447
ntosh	-13.2452
▁Nina	-13.2454
▁Bel	-13.2457
nếu	-13.2458
ile	-13.246
▁Ghr	-13.2463
▁Mèo	-13.2466
▁trướ	-13.2468
▁Blanc	-13.2471
▁Cornel	-13.2473
▁pH	-13.2473
▁Heid	-13.2474
▁Por	-13.2475
▁Market	-13.2478
list	-13.2478
▁Webb	-13.2479
▁Ethe	-13.2479
▁Niels	-13.2479
▁Colleg	-13.2481
bit	-13.2481
apa	-13.2484
▁Bike	-13.2485
▁Flow	-13.2488
▁Dry	-13.2491
trở	-13.2492
▁Des	-13.2493
▁FB	-13.2496
▁Beatri	-13.2496
homa	-13.2499
▁Pino	-13.2502
máy	-13.2503
▁Fey	-13.2504
ghèo	-13.2512
illi	-13.2512
iel	-13.2517
shoo	-13.2519
loud	-13.252
ability	-13.2522
gaga	-13.2526
▁Diet	-13.2527
ât	-13.2533
▁NH	-13.2538
Jazz	-13.2542
▁Cope	-13.2543
▁Rau	-13.2546
cker	-13.2549
erners	-13.2552
bel	-13.2554
llis	-13.2555
▁Missi	-13.2557
ierre	-13.2563
ose	-13.2564
▁Móc	-13.2565
avi	-13.2567
esha	-13.2569
▁mega	-13.2572
▁toan	-13.2579
▁Now	-13.2583
ano	-13.2588
▁Apo	-13.2593
▁Tal	-13.2593
▁hoocm	-13.2595
gli	-13.2596
▁rain	-13.2597
▁Vul	-13.2598
▁post	-13.2598
▁calorie	-13.2599
▁Every	-13.2599
▁Ely	-13.2601
▁Gulf	-13.2601
▁Fish	-13.2602
37	-13.2602
▁Holo	-13.2604
▁Master	-13.2605
▁Donn	-13.2608
cola	-13.2616
▁Karm	-13.2618
▁Răn	-13.263
▁SM	-13.2631
▁Best	-13.2636
▁61	-13.2639
▁Ren	-13.2642
▁Ly	-13.2644
▁Kne	-13.2644
▁7.	-13.2645
▁Lord	-13.2651
▁sunf	-13.2654
▁Vishn	-13.266
▁Jod	-13.2661
▁Solo	-13.2661
lian	-13.2662
bab	-13.2662
▁Vibr	-13.2666
uất	-13.2666
▁Pin	-13.267
▁6.5	-13.2685
▁Lynn	-13.2687
erony	-13.2688
ibu	-13.2689
ea	-13.2692
▁Stewar	-13.2694
▁Main	-13.2695
Your	-13.2704
54	-13.2715
▁Ath	-13.2722
▁Biệt	-13.2724
▁it	-13.2726
▁Boe	-13.2726
endor	-13.273
▁Đấ	-13.2731
gắn	-13.2732
▁Mobi	-13.2733
▁Bab	-13.2734
▁Laura	-13.2735
han	-13.2737
đồng	-13.2739
▁thớt	-13.2744
▁Nghi	-13.2745
▁Maci	-13.2746
uflo	-13.275
cần	-13.2763
NH	-13.2766
▁tìn	-13.2773
▁nhá	-13.2797
▁Templ	-13.28
etson	-13.2805
fell	-13.2817
gôn	-13.2821
ur	-13.2825
nay	-13.2827
▁thán	-13.2829
▁gở	-13.2836
▁Ker	-13.2837
▁Levin	-13.284
▁Hol	-13.2848
-10	-13.2854
▁vắn	-13.2859
▁Maris	-13.2865
▁Mor	-13.2866
trin	-13.2878
▁Diam	-13.2884
CR	-13.2887
▁Luca	-13.2887
ye	-13.2891
▁kara	-13.2892
▁tuốc	-13.2897
uội	-13.2914
26	-13.2917
▁Kerm	-13.2918
▁Veg	-13.2936
hhh	-13.2937
pta	-13.2953
▁Jur	-13.2965
pam	-13.2966
ncou	-13.2968
▁Sur	-13.2968
▁Lò	-13.297
▁Bora	-13.297
▁Lun	-13.2973
pha	-13.2974
▁ten	-13.2977
hirl	-13.298
monia	-13.2981
bị	-13.2988
gô	-13.2989
fisch	-13.2991
ovan	-13.2991
oza	-13.2993
.6	-13.2994
cơ	-13.2995
▁Ver	-13.3003
▁Jacobs	-13.3005
▁Lá	-13.3007
kia	-13.3014
hở	-13.3016
▁Page	-13.3018
▁Khoá	-13.302
▁Dall	-13.3036
ôla	-13.305
▁192	-13.3054
evin	-13.3063
▁Hamburg	-13.3067
chan	-13.3073
▁out	-13.3073
▁Lau	-13.3079
,8	-13.3089
▁Dust	-13.3091
ive	-13.3094
▁Alb	-13.3101
asma	-13.3104
ery	-13.3111
hợp	-13.3115
▁EL	-13.3118
ipe	-13.3125
▁Lars	-13.3127
hán	-13.3133
ony	-13.314
orse	-13.314
hanh	-13.3144
uke	-13.3146
tor	-13.315
alad	-13.3154
OM	-13.3163
▁Côn	-13.3164
▁lổ	-13.3166
hả	-13.3188
lông	-13.3196
▁Marian	-13.3196
▁quậ	-13.3201
▁Yah	-13.3201
its	-13.321
ngo	-13.322
▁fa	-13.3222
▁LB	-13.3226
▁hãn	-13.323
▁Fr	-13.3234
▁Rid	-13.3242
yd	-13.3248
▁DB	-13.3258
19	-13.3265
▁Tata	-13.3266
it	-13.3279
49	-13.3308
▁Môn	-13.3315
▁Tech	-13.332
bre	-13.3324
▁Maa	-13.3324
reas	-13.3342
thật	-13.3346
▁Fed	-13.3358
verl	-13.3358
feld	-13.3359
hiễm	-13.3373
chen	-13.3397
aspar	-13.3398
▁thó	-13.3402
84	-13.3407
▁chùn	-13.3413
thi	-13.342
▁Marl	-13.3423
▁Torre	-13.3424
▁càn	-13.3431
▁liệ	-13.3432
▁organ	-13.3441
▁Angelin	-13.3441
uriti	-13.3454
nhận	-13.3458
▁giỡ	-13.3461
xơ	-13.3464
bắt	-13.3467
▁tâ	-13.3468
▁Gri	-13.3469
▁Ande	-13.347
oh	-13.3485
io	-13.3492
974	-13.3498
wak	-13.3504
umen	-13.3508
abe	-13.352
ool	-13.3534
▁Carte	-13.3534
pp	-13.3535
erro	-13.3537
▁Stephan	-13.3541
osta	-13.3544
rit	-13.3545
▁Rey	-13.3558
opper	-13.3562
08	-13.3563
▁kiế	-13.3564
wee	-13.3567
ov	-13.3572
gà	-13.3574
too	-13.3592
▁bẹ	-13.3609
hỗ	-13.3609
▁Par	-13.3611
enny	-13.3614
olem	-13.3616
fford	-13.3619
PL	-13.3634
HD	-13.364
▁nò	-13.3641
▁Tod	-13.3644
▁Kob	-13.3657
dom	-13.3658
af	-13.3659
▁DR	-13.3664
lanh	-13.3664
hội	-13.3668
2000	-13.3672
lis	-13.3682
reen	-13.369
▁Mug	-13.3696
▁Blai	-13.3705
oo	-13.3716
ello	-13.3716
koff	-13.3716
upp	-13.3725
Ex	-13.3736
Mann	-13.3737
▁51	-13.374
obe	-13.3741
▁1400	-13.3744
gược	-13.3752
cuộc	-13.3755
▁Top	-13.3758
▁WT	-13.3763
▁Ap	-13.3763
iz	-13.3769
Day	-13.3779
64	-13.378
oả	-13.378
50,000	-13.3782
trước	-13.3783
sworth	-13.3795
▁nít	-13.3795
▁Mino	-13.3799
anda	-13.38
thic	-13.38
sinh	-13.3801
eau	-13.3807
hore	-13.3812
▁Clar	-13.3817
cảm	-13.3819
▁giớ	-13.3821
▁Dee	-13.3821
PT	-13.3839
▁Dicke	-13.384
gic	-13.3852
▁Stein	-13.3855
▁Pi	-13.3858
▁calori	-13.387
ons	-13.3871
burger	-13.3872
nton	-13.3881
ld	-13.3886
ell	-13.3889
▁Abo	-13.3892
ule	-13.3895
▁tà	-13.3898
opat	-13.3902
orio	-13.3902
▁í	-13.3904
rillo	-13.3911
▁FE	-13.3918
▁Cầ	-13.3921
atan	-13.3922
ML	-13.3924
▁gàn	-13.3925
Kohn	-13.3928
airo	-13.3933
hĩa	-13.3934
tte	-13.3934
▁dượ	-13.3938
hắn	-13.3943
▁Wol	-13.3943
tron	-13.3946
ware	-13.3947
pic	-13.3972
▁toá	-13.3976
kin	-13.3982
sen	-13.3989
llon	-13.3992
nson	-13.3995
▁Maz	-13.3998
laug	-13.4005
▁Read	-13.4006
đề	-13.4008
und	-13.401
▁50000	-13.4013
▁đị	-13.4015
dka	-13.4017
▁Moz	-13.4024
hơ	-13.4024
▁Pear	-13.4027
bee	-13.4028
▁Schwartz	-13.4032
tự	-13.4034
gian	-13.4037
▁prôt	-13.404
▁99.9	-13.4042
ivers	-13.4046
▁FM	-13.4046
▁Ngượ	-13.4047
▁Es	-13.4051
▁Cruz	-13.4055
cor	-13.4057
▁SO	-13.4058
eatbox	-13.406
Sh	-13.4061
▁Somali	-13.4063
▁Oc	-13.4065
borough	-13.4066
▁PostSecret	-13.4066
Pachycephalosaur	-13.4066
▁Autodesk	-13.4066
▁Avelile	-13.4066
▁Dakota	-13.4066
▁Dunlap	-13.4066
▁Enrique	-13.4066
▁IGF	-13.4066
▁International	-13.4066
▁Lazarus	-13.4066
▁Polaroid	-13.4066
▁SOLE	-13.4066
▁Sardinia	-13.4066
▁Sarkozy	-13.4066
▁bucardo	-13.4066
▁container	-13.4066
▁Creative	-13.4066
▁Participa	-13.4066
▁nucle	-13.4066
▁Ashdown	-13.4066
▁Record	-13.4066
Bertrand	-13.4066
▁Caucas	-13.4066
▁Manchester	-13.4066
▁Lamanite	-13.4066
▁Sheena	-13.4066
▁Small	-13.4066
▁Wonder	-13.4066
▁impact	-13.4066
Women	-13.4066
▁caffein	-13.4066
▁Behar	-13.4066
▁Swaptree	-13.4067
arayan	-13.4067
▁Atlas	-13.4067
▁ozone	-13.4067
▁Flemi	-13.4067
▁WorldWi	-13.4067
▁McCart	-13.4067
▁Quixote	-13.4067
▁Fitz	-13.4067
▁Faso	-13.4067
Pallot	-13.4067
▁1938	-13.4067
▁Tommy	-13.4068
▁Elias	-13.4068
Spock	-13.4068
▁Bogot	-13.4068
▁Fuller	-13.4068
▁Pomp	-13.4068
▁Telescope	-13.4068
▁Saint	-13.4068
▁1929	-13.4068
▁Square	-13.4068
ommons	-13.4069
▁Kaza	-13.4069
▁CSI	-13.407
▁Sheikh	-13.407
▁NGO	-13.4071
▁Volvo	-13.4071
▁Prick	-13.4071
▁1850	-13.4072
rado	-13.4072
▁Birds	-13.4072
▁466	-13.4072
fel	-13.4073
▁Word	-13.4073
▁def	-13.4074
▁Kiran	-13.4074
▁Rabin	-13.4075
▁49	-13.4075
▁Glass	-13.4076
▁Frances	-13.4078
▁Mason	-13.4081
▁Ricard	-13.4082
▁Match	-13.4083
▁TiV	-13.4083
▁Shiv	-13.4086
▁Axi	-13.4089
▁Kit	-13.4089
path	-13.4089
▁Mul	-13.409
▁Mahab	-13.409
▁Pasht	-13.4092
▁Reich	-13.4093
▁Budd	-13.4095
▁Juli	-13.4096
▁cùn	-13.4096
▁Nash	-13.4098
gate	-13.4102
assa	-13.4105
istry	-13.4105
▁Hemi	-13.4105
▁trổ	-13.4106
▁Neanderthals	-13.4108
wing	-13.411
3.7	-13.4114
▁Town	-13.4118
nisi	-13.412
tại	-13.412
hánh	-13.4121
trich	-13.4124
▁poke	-13.4125
▁Herb	-13.4125
▁boom	-13.4126
▁Bass	-13.4127
riend	-13.4128
unker	-13.4128
▁Spit	-13.4133
▁Born	-13.4136
▁Fernand	-13.4136
▁Type	-13.4136
upl	-13.4136
▁Hers	-13.4138
alah	-13.4144
ooth	-13.4147
▁EP	-13.4149
suit	-13.415
▁bện	-13.4155
▁Day	-13.4167
▁LG	-13.417
▁Parag	-13.417
▁Fu	-13.4171
awto	-13.4174
cer	-13.4177
▁Camill	-13.4179
mi	-13.4181
mor	-13.4182
▁Sty	-13.4182
▁Prin	-13.4185
psy	-13.4186
▁Kis	-13.4189
▁TEDxS	-13.4195
ldred	-13.4196
▁Cà	-13.4197
▁Tâ	-13.4203
nước	-13.4203
▁hẵn	-13.4205
izza	-13.4205
ycop	-13.4206
logy	-13.4209
▁Eman	-13.4211
▁Capit	-13.4215
▁carame	-13.4224
vik	-13.4225
if	-13.4225
▁Ventur	-13.4226
▁Barricel	-13.4227
▁Fren	-13.4229
▁us	-13.4229
▁hemo	-13.423
▁Jenning	-13.4232
▁Jr	-13.4233
▁Adi	-13.4235
▁Giêng	-13.4239
form	-13.4241
lam	-13.4243
5-6	-13.4246
▁thali	-13.425
▁Basqu	-13.4251
▁Ango	-13.4255
▁Matty	-13.4258
▁TQ	-13.426
trường	-13.4262
rình	-13.4264
▁Huh	-13.4265
roth	-13.4265
▁Nhện	-13.4267
ent	-13.4277
▁Bá	-13.4277
tner	-13.4281
op	-13.4285
rman	-13.4289
▁Sing	-13.4297
▁bridge	-13.4313
▁Scal	-13.4317
refo	-13.4323
recht	-13.4326
▁Chek	-13.4329
▁Dut	-13.433
BO	-13.4336
▁Bee	-13.4341
▁micr	-13.4345
▁Robb	-13.4353
đa	-13.4355
ial	-13.4356
▁Hari	-13.4359
Ward	-13.4367
▁Cave	-13.4371
▁Godi	-13.4374
▁Pana	-13.4376
tzman	-13.4379
▁đư	-13.4385
▁cac	-13.4387
400	-13.4389
▁Cro	-13.4404
▁Nell	-13.4408
▁like	-13.4409
▁Kemp	-13.4413
erol	-13.4414
▁quẩ	-13.4415
800	-13.4422
dah	-13.4422
san	-13.4429
▁Wool	-13.4431
▁Fras	-13.4433
annes	-13.4442
▁Tì	-13.4447
mặt	-13.445
▁Marsh	-13.4451
mbia	-13.4455
▁Phú	-13.4459
▁MC	-13.4467
osni	-13.4467
▁Dow	-13.447
▁Pha	-13.4471
PP	-13.4473
▁Madr	-13.4487
light	-13.4489
▁Mick	-13.4496
17	-13.4499
▁Rap	-13.4515
▁PT	-13.4517
▁Willi	-13.4521
▁Lợ	-13.4524
had	-13.4532
hị	-13.4535
ara	-13.4545
▁Gun	-13.4548
name	-13.4548
bard	-13.4549
bor	-13.4561
▁Olso	-13.4567
▁Poll	-13.4574
▁NA	-13.4575
gạc	-13.4581
▁Scra	-13.4589
91	-13.4599
▁Bluet	-13.46
▁Aba	-13.4602
uff	-13.4603
▁Carrie	-13.4603
▁Hyp	-13.4604
ril	-13.4606
annon	-13.4611
▁vo	-13.4611
▁Fran	-13.4617
▁Laure	-13.4623
uồi	-13.463
▁dẻ	-13.4634
vald	-13.4637
▁hoo	-13.4645
65	-13.4646
TA	-13.4648
▁bo	-13.465
vante	-13.4657
▁Ol	-13.4665
rma	-13.4672
▁Act	-13.4687
▁Mat	-13.4688
▁Rush	-13.4695
uay	-13.4697
rs	-13.47
▁Boyd	-13.4702
định	-13.4727
aster	-13.4739
▁cuô	-13.4747
▁Wil	-13.4757
ilwa	-13.4765
eric	-13.4779
▁Trụ	-13.478
▁Oxi	-13.4783
▁Ger	-13.4785
▁Have	-13.4787
▁Shin	-13.4788
▁Interv	-13.4788
ory	-13.4788
▁lả	-13.4792
▁Ree	-13.4808
▁Are	-13.4809
idan	-13.481
ab	-13.4812
▁Flor	-13.4815
▁Vir	-13.4817
▁uh	-13.4825
tưởng	-13.4825
ỡi	-13.4825
nhìn	-13.4828
ino	-13.4832
chuyện	-13.4847
azi	-13.4849
▁cầ	-13.4851
▁hổn	-13.4855
▁trậ	-13.4858
▁Glas	-13.4859
▁Ric	-13.4862
▁Nin	-13.487
▁Madel	-13.4872
huấ	-13.4872
▁lằn	-13.4875
▁Sô	-13.4875
▁Shell	-13.4876
▁Harv	-13.4884
▁Tar	-13.4886
urst	-13.4887
▁Arch	-13.4888
▁Chap	-13.4889
▁khé	-13.489
pro	-13.4894
▁Cali	-13.4896
▁Stu	-13.4902
▁Flip	-13.4906
▁Nei	-13.491
▁Gut	-13.4914
▁Bara	-13.4916
giống	-13.4927
▁son	-13.4927
Sp	-13.493
▁Je	-13.4932
aw	-13.4935
▁Madi	-13.4936
ovic	-13.4936
▁BAS	-13.4939
▁Hè	-13.4949
▁Roth	-13.4954
cken	-13.4966
ortland	-13.4977
cùng	-13.4979
eh	-13.498
▁Lê	-13.4986
iving	-13.499
ini	-13.4997
bằng	-13.5001
ươ	-13.5007
▁si	-13.502
▁Kê	-13.5021
▁Mas	-13.503
Trung	-13.503
▁đạ	-13.503
burn	-13.5034
▁Hipp	-13.5036
ps	-13.504
▁Donne	-13.5041
nesia	-13.5041
urz	-13.5046
▁Cath	-13.5047
thống	-13.5067
AP	-13.5078
▁lở	-13.508
bine	-13.5081
▁Moh	-13.5081
cal	-13.5082
tơ	-13.5083
▁Quạ	-13.5089
▁rỏ	-13.5102
chel	-13.5103
xem	-13.5111
▁Khô	-13.5119
abba	-13.512
▁vồ	-13.5121
▁Hep	-13.5139
▁Mw	-13.5152
TT	-13.5164
▁Laur	-13.5168
▁Borg	-13.5173
tow	-13.5176
pin	-13.5176
▁Bó	-13.518
▁Mil	-13.5186
ox	-13.5189
down	-13.519
tus	-13.5194
olic	-13.5195
hy	-13.5196
▁Khổ	-13.5198
íc	-13.5204
hồng	-13.5211
▁Pav	-13.5211
▁ami	-13.5216
ndberg	-13.5217
shir	-13.5221
dụng	-13.5233
▁Pas	-13.5236
▁Aur	-13.5237
:	-13.5241
▁Jung	-13.5242
▁tằm	-13.5249
Ông	-13.5251
tuổi	-13.5261
24	-13.5264
bởi	-13.5265
lest	-13.527
pper	-13.5276
▁Dia	-13.5281
oard	-13.5281
▁Save	-13.5288
▁Toda	-13.5296
▁Pr	-13.5302
▁Cran	-13.5303
afi	-13.531
▁Ngự	-13.5311
sis	-13.5322
ndy	-13.5325
ail	-13.5327
▁nhậ	-13.5335
tới	-13.5335
ted	-13.5337
▁mí	-13.5343
OR	-13.5349
box	-13.5349
▁175	-13.535
▁Laf	-13.5352
anzi	-13.5359
ỡn	-13.5366
ussel	-13.5374
itchi	-13.5381
▁chụ	-13.5398
Một	-13.5407
▁Bas	-13.541
11	-13.5414
▁Nou	-13.5415
▁Less	-13.5417
▁Mai	-13.5421
nett	-13.5422
viên	-13.5427
▁Band	-13.5428
zar	-13.5429
▁mé	-13.5439
Rập	-13.5441
▁ngoằn	-13.5441
▁Prat	-13.5443
▁Ras	-13.5447
zo	-13.5448
rner	-13.5449
▁Champ	-13.5451
đối	-13.5451
▁xú	-13.5452
tối	-13.5453
hám	-13.5457
tium	-13.5461
DI	-13.5463
Ba	-13.5474
outh	-13.5476
amer	-13.5486
2010	-13.5487
còn	-13.5494
▁ngỗ	-13.5498
▁Goo	-13.5501
gần	-13.5505
▁Emp	-13.5506
wling	-13.551
▁220	-13.551
tri	-13.5519
aib	-13.552
▁nhằn	-13.5526
rry	-13.5528
tica	-13.5529
aste	-13.5541
TM	-13.5542
▁Gle	-13.5556
urma	-13.5558
▁Bris	-13.5559
lớn	-13.5563
▁Wad	-13.5563
2011	-13.5569
▁Cl	-13.5569
▁Kimb	-13.5582
▁Eva	-13.5584
▁Kha	-13.5589
face	-13.5589
▁Châ	-13.5607
đun	-13.5609
Space	-13.5609
loa	-13.5613
▁Ope	-13.5618
▁CT	-13.5636
▁Tali	-13.5641
▁Dari	-13.5662
hoo	-13.5663
pur	-13.5676
▁dấ	-13.5681
set	-13.569
pop	-13.5702
▁Fin	-13.5703
ison	-13.5706
rvey	-13.5717
ngày	-13.5719
▁Há	-13.5723
▁bio	-13.5723
eri	-13.5727
▁Lux	-13.5733
▁Coi	-13.5739
nhân	-13.5741
uôi	-13.5741
ark	-13.5764
heid	-13.5769
▁Nao	-13.5773
▁vịn	-13.5773
star	-13.5773
tê	-13.5777
Mart	-13.5781
▁Cron	-13.5786
▁Sk	-13.5786
des	-13.5791
▁8.	-13.5794
yển	-13.5806
81	-13.5806
▁Mass	-13.5814
▁Lem	-13.5817
agan	-13.5818
oa	-13.5819
▁Kai	-13.5823
▁Aru	-13.5825
▁Lev	-13.5828
▁luâ	-13.5828
▁Janet	-13.5829
▁188	-13.5839
▁bịt	-13.5846
▁Ye	-13.585
▁Mach	-13.5851
yon	-13.5856
stafa	-13.586
▁Alli	-13.586
wings	-13.5861
▁se	-13.5862
▁hí	-13.5868
ening	-13.587
▁Gang	-13.5881
In	-13.5881
▁Forer	-13.5883
Bot	-13.5885
▁Walk	-13.589
▁Sz	-13.5891
apar	-13.5895
▁Mer	-13.5898
NY	-13.5901
▁Monro	-13.5903
rắng	-13.5908
,4	-13.5925
▁Mộ	-13.5926
▁gạ	-13.5927
▁ngấy	-13.5927
▁240	-13.5933
ishman	-13.5937
vật	-13.5938
▁min	-13.5938
▁Kam	-13.5946
▁viế	-13.5953
ave	-13.596
acha	-13.5961
▁Genera	-13.5972
chuyển	-13.5985
▁Saga	-13.5986
tec	-13.599
oming	-13.6001
▁Krishna	-13.6007
▁đầ	-13.6017
ador	-13.6025
pus	-13.6026
oss	-13.603
▁Camero	-13.6035
bản	-13.6039
câu	-13.604
graph	-13.6041
▁Bear	-13.6043
Chống	-13.6044
▁330	-13.6051
▁sê	-13.6051
ubli	-13.6054
cester	-13.6055
▁Leonard	-13.6056
luegrass	-13.6057
▁z	-13.6059
aroo	-13.6061
▁cocain	-13.6063
ahid	-13.6066
▁Dor	-13.6066
▁sulfur	-13.6066
▁FOX	-13.6066
▁Cedars	-13.6066
▁Benedict	-13.6066
▁Discover	-13.6066
▁Goliath	-13.6066
▁Kymaerica	-13.6066
▁Lindbergh	-13.6066
▁Lovegrove	-13.6066
▁Negroponte	-13.6066
▁Pandora	-13.6066
▁Paralympic	-13.6066
▁Partners	-13.6066
▁Scrubs	-13.6066
▁Yosemite	-13.6066
▁analog	-13.6066
▁hotdog	-13.6066
▁Armenia	-13.6066
▁Taniyama	-13.6066
▁headphone	-13.6066
▁Belshaz	-13.6066
▁LGBT	-13.6066
▁Snoop	-13.6066
▁vacxin	-13.6066
▁parabol	-13.6066
▁nicotin	-13.6066
▁Control	-13.6066
▁Financ	-13.6066
▁Mormon	-13.6066
▁kilowatt	-13.6066
▁Garret	-13.6066
▁reCAPTCH	-13.6066
▁Ommm	-13.6066
▁free	-13.6066
xytocin	-13.6066
▁Mercedes	-13.6066
▁Magell	-13.6066
▁Rift	-13.6067
▁Ibra	-13.6067
▁Hebrew	-13.6067
▁Yugoslavia	-13.6067
▁PBS	-13.6067
NAIDS	-13.6067
▁Mountain	-13.6067
▁2,3	-13.6067
▁Joyce	-13.6067
▁măt	-13.6067
▁biophon	-13.6067
▁Vasco	-13.6067
▁xenlulo	-13.6067
▁1904	-13.6067
▁Fai	-13.6068
▁KPI	-13.6068
▁Castle	-13.6068
▁vè	-13.6068
lawa	-13.6068
▁with	-13.6068
▁1919	-13.6068
▁Eisen	-13.6069
▁Worth	-13.6069
▁silic	-13.6069
▁Satur	-13.6069
plex	-13.6069
fast	-13.6069
▁Karolin	-13.607
▁1956	-13.607
▁Milk	-13.607
▁Golden	-13.607
▁Rolls	-13.6071
▁Off	-13.6071
Raymond	-13.6071
▁Summer	-13.6071
▁Dooli	-13.6071
▁Babble	-13.6071
▁Rookie	-13.6071
▁lbs	-13.6072
▁3.3	-13.6072
▁Dennet	-13.6072
▁Ines	-13.6072
▁Lear	-13.6073
▁Audio	-13.6073
▁Kamkwam	-13.6075
▁Frans	-13.6075
rigami	-13.6075
▁Scot	-13.6075
▁Next	-13.6075
▁Law	-13.6076
fur	-13.6077
fee	-13.6078
▁GBM	-13.6078
glob	-13.6078
▁Dela	-13.6078
▁App	-13.6078
▁Bismar	-13.608
▁Tuts	-13.608
▁Petra	-13.6081
akis	-13.6082
▁PRI	-13.6082
▁Benefiel	-13.6084
▁Smart	-13.6084
▁Mmmm	-13.6085
▁Pretor	-13.6085
bucha	-13.6086
inas	-13.6086
omo	-13.6087
▁Image	-13.6087
▁Tree	-13.609
esign	-13.6091
pont	-13.6092
▁Take	-13.6093
▁Aldo	-13.6093
▁Christie	-13.6093
▁trư	-13.6093
▁homeo	-13.6094
▁Wolpe	-13.6095
▁SP	-13.6095
▁Tiger	-13.6096
▁check	-13.6097
▁Queens	-13.6097
▁gh	-13.6098
ienna	-13.6098
▁Mons	-13.6098
▁Tahit	-13.6102
▁Whites	-13.6103
▁Ramon	-13.6103
▁phăng	-13.6104
▁gelat	-13.6105
span	-13.6106
AID	-13.6107
▁Johann	-13.6107
ycin	-13.6112
▁Stud	-13.6116
▁Ganesh	-13.6116
▁Gallo	-13.6117
▁play	-13.6118
agra	-13.6119
▁Finn	-13.6123
▁List	-13.6129
▁See	-13.6129
▁Wis	-13.613
39	-13.613
▁Imp	-13.6131
▁Lama	-13.6134
Change	-13.6135
▁Natural	-13.6136
▁oxal	-13.6137
▁megawatt	-13.6138
▁Herman	-13.6139
▁solo	-13.6144
bows	-13.6144
▁Aqua	-13.6145
olf	-13.6146
▁Pepper	-13.6147
▁high	-13.6153
▁Real	-13.6154
no	-13.6156
▁Roche	-13.6157
tive	-13.6159
▁Two	-13.616
năng	-13.6166
mens	-13.6167
▁Mahal	-13.6168
▁Thor	-13.6171
▁105	-13.6172
▁Gol	-13.6175
▁Blake	-13.6175
▁Sid	-13.6178
illus	-13.6179
▁Rhodes	-13.6185
AW	-13.6185
rưởng	-13.6187
orldchanging	-13.6188
0-50	-13.6188
▁Sear	-13.6189
ếc	-13.6194
channelrhodopsin	-13.6194
thích	-13.6194
▁Tul	-13.6195
▁Karti	-13.6203
embran	-13.6204
▁beat	-13.6207
awat	-13.6208
ough	-13.6209
OPA	-13.621
▁Petri	-13.6211
▁Mode	-13.6218
▁Ferre	-13.6219
▁vâ	-13.6219
thông	-13.622
iness	-13.622
▁Abb	-13.6221
augh	-13.6222
▁Swe	-13.6224
▁héc	-13.6225
▁Rahm	-13.6226
▁Girl	-13.6227
▁Ayl	-13.6227
▁Maurit	-13.6229
▁Aber	-13.6229
▁2.7	-13.623
Bạn	-13.6232
▁sâm	-13.6232
▁Jak	-13.6233
dẫn	-13.6235
sche	-13.6236
▁Haz	-13.6237
▁Jehan	-13.6239
▁Ob	-13.624
▁Lip	-13.6243
▁Germa	-13.6247
▁Pack	-13.6249
▁Canale	-13.6251
▁Yuc	-13.6252
phát	-13.626
▁Stac	-13.6261
▁Merri	-13.6267
▁Voi	-13.6267
sao	-13.6268
inson	-13.6273
▁Pan	-13.6278
▁Lé	-13.6278
▁Halle	-13.628
EF	-13.6283
gọn	-13.6294
▁liề	-13.6297
▁Ab	-13.6298
erver	-13.6299
zbek	-13.6301
oxide	-13.6302
▁Camer	-13.6306
▁Carme	-13.6312
amela	-13.6315
▁Mun	-13.6319
opia	-13.6323
▁Nap	-13.6327
ters	-13.6331
▁Serbi	-13.6342
22	-13.6342
MM	-13.6343
▁cuồn	-13.6343
▁Agu	-13.6344
▁nin	-13.6346
wif	-13.6347
triệu	-13.6353
▁Sit	-13.6354
aled	-13.6356
Napol	-13.6364
▁Leib	-13.6364
lah	-13.6366
HC	-13.6366
▁byte	-13.6377
▁Benn	-13.6378
eli	-13.6381
▁Woods	-13.6384
▁Oba	-13.6387
▁RT	-13.6394
rina	-13.6398
▁CB	-13.6403
▁Ji	-13.6404
▁Jonh	-13.6406
bian	-13.6409
owle	-13.6409
▁xước	-13.6413
▁Belle	-13.6414
▁Treat	-13.6424
RC	-13.6425
ofi	-13.6425
▁Cis	-13.6427
uez	-13.6431
▁Eps	-13.6438
▁IT	-13.644
▁1,0	-13.6442
hane	-13.6442
▁Mello	-13.6444
acebook	-13.6445
▁Global	-13.6447
▁Atti	-13.6448
▁Keyn	-13.6449
▁Grave	-13.6451
live	-13.6452
toàn	-13.6453
ther	-13.6457
▁Mega	-13.6459
eaver	-13.6471
▁Tứ	-13.6473
▁Samb	-13.6475
nia	-13.6478
▁Seng	-13.6486
▁156	-13.6492
▁Alam	-13.6493
amas	-13.6498
▁Shand	-13.6504
▁Vide	-13.6513
▁NY	-13.6516
▁Mile	-13.6517
▁Alle	-13.6519
0.6	-13.6528
thường	-13.6533
voir	-13.6533
sử	-13.6535
▁Reme	-13.6536
utu	-13.6537
▁Mys	-13.6539
trung	-13.6544
uce	-13.655
ourne	-13.6553
▁Booth	-13.6554
▁Gam	-13.6556
▁rip	-13.6559
ulk	-13.6559
▁dum	-13.6572
▁lì	-13.6576
mạng	-13.6585
esta	-13.6587
uts	-13.6593
▁nhiê	-13.6597
bble	-13.6598
Mỹ	-13.6599
▁McCu	-13.6606
ada	-13.6606
▁Twi	-13.6607
rump	-13.6614
▁trộ	-13.6617
▁data	-13.6618
lla	-13.6618
hip	-13.6619
▁đễn	-13.6632
aka	-13.6633
uz	-13.6636
▁Pet	-13.6641
▁tắ	-13.6643
bot	-13.6646
▁Seni	-13.6647
rger	-13.6651
▁Sán	-13.6656
cut	-13.6656
▁Googler	-13.6661
oma	-13.6676
ology	-13.6678
ees	-13.6678
▁Mó	-13.6681
đặc	-13.6684
▁Kelle	-13.6692
▁ID	-13.6694
▁Assa	-13.6696
dies	-13.6697
▁Phô	-13.6698
ines	-13.67
▁Flo	-13.6712
eros	-13.6717
▁PA	-13.6718
hov	-13.672
cas	-13.672
dân	-13.6722
đại	-13.6728
ult	-13.673
▁PCC	-13.6731
nhau	-13.6737
38	-13.6745
nhiên	-13.6753
▁mông	-13.6754
▁Frid	-13.6769
ates	-13.6772
▁103	-13.6774
▁boo	-13.6775
vaz	-13.6775
▁Giacome	-13.6776
▁Kell	-13.6777
▁Tần	-13.6781
▁Jorge	-13.6784
▁Monte	-13.6784
▁Joy	-13.6786
aire	-13.6786
back	-13.6787
▁khẳ	-13.6791
▁plas	-13.6795
Buil	-13.6798
▁Koh	-13.6803
▁Kas	-13.6804
irut	-13.6807
uate	-13.6809
▁read	-13.6809
▁Nation	-13.681
irke	-13.6819
.7	-13.6822
tune	-13.6824
▁DE	-13.6826
▁Hạn	-13.6827
▁Quác	-13.6833
ess	-13.6842
▁Shad	-13.6846
▁Sr	-13.6847
▁Cac	-13.6852
▁en	-13.6855
bay	-13.6855
use	-13.6857
▁Ad	-13.6864
▁Spie	-13.6865
▁đụn	-13.6865
▁cắ	-13.6868
▁Sharo	-13.6869
ern	-13.6871
mania	-13.6881
rani	-13.6886
phia	-13.6903
NC	-13.6904
▁Bù	-13.6906
▁Rubi	-13.6918
ofl	-13.6933
▁Thuậ	-13.6937
cav	-13.6941
hwaite	-13.6941
▁Marv	-13.6942
▁Rain	-13.6948
trình	-13.6949
▁spec	-13.6957
onim	-13.6959
mbard	-13.6959
▁yard	-13.6961
del	-13.6961
amal	-13.6963
MPA	-13.6964
tông	-13.6977
nger	-13.6977
▁Pad	-13.699
rill	-13.6996
▁Ngọ	-13.6997
▁mửa	-13.7001
huẩn	-13.7009
▁Ami	-13.7011
itte	-13.7012
aba	-13.7014
bun	-13.7015
apal	-13.7016
erly	-13.7021
▁Tz	-13.7023
▁Berk	-13.7024
lang	-13.7034
▁Wing	-13.7044
log	-13.7046
▁TM	-13.705
99	-13.705
▁Acti	-13.7057
â	-13.7059
▁pi	-13.7061
▁Jans	-13.7062
tế	-13.7073
▁Bert	-13.7079
▁Dung	-13.708
▁Shap	-13.7098
nơ	-13.7101
▁09	-13.7108
▁Ferr	-13.7113
▁die	-13.7121
▁Slo	-13.7127
ula	-13.7134
▁Sacr	-13.7136
ilda	-13.7142
ầng	-13.7146
824	-13.7149
avat	-13.7154
▁Carta	-13.7155
ràng	-13.7155
▁Pla	-13.7156
▁Hut	-13.7167
▁trớn	-13.7175
▁Iwa	-13.7176
kara	-13.7179
nion	-13.7184
▁is	-13.7194
▁Dami	-13.7195
ardo	-13.7196
ain	-13.7205
▁xạc	-13.721
mat	-13.7211
▁1.1	-13.7211
▁Bri	-13.7214
▁Gero	-13.7216
▁ná	-13.7219
▁Clare	-13.7227
▁Kie	-13.7227
anti	-13.723
▁Hab	-13.7233
llo	-13.724
ệu	-13.7255
anna	-13.7256
table	-13.7258
lad	-13.727
nơi	-13.727
oro	-13.7272
oè	-13.7272
ami	-13.7273
▁Nadi	-13.7279
▁Aw	-13.7285
▁phen	-13.7289
▁Col	-13.7289
▁Bio	-13.7292
▁chớ	-13.7294
tính	-13.7313
▁Herz	-13.7324
▁we	-13.7326
▁Mann	-13.7331
▁tuyể	-13.7334
ond	-13.7342
outer	-13.7351
▁Cos	-13.7354
itis	-13.7368
▁Mead	-13.7369
▁Sen	-13.7381
▁Sy	-13.7382
end	-13.7384
▁PET	-13.7391
▁Baz	-13.7404
▁Roll	-13.7412
ova	-13.7413
▁MA	-13.7415
▁Eb	-13.7418
phê	-13.742
▁Sư	-13.7422
▁đậ	-13.7422
Iva	-13.7423
ldes	-13.7427
▁Maed	-13.7433
▁Ske	-13.7443
CH	-13.7445
oke	-13.7447
▁1,1	-13.7448
▁MI	-13.7451
evar	-13.7453
▁Aid	-13.7456
▁Kick	-13.7456
▁Mìn	-13.7458
▁Tầ	-13.7472
kim	-13.7472
lai	-13.7474
uru	-13.7476
tìm	-13.7477
tay	-13.7481
auf	-13.7483
itz	-13.7489
oca	-13.7495
ugge	-13.7501
▁thé	-13.751
mức	-13.7515
▁Khẩ	-13.7515
ustin	-13.7521
ounde	-13.7526
wo	-13.7529
mới	-13.7531
iall	-13.7532
Đó	-13.7539
▁Ral	-13.7546
▁Mus	-13.7564
bộ	-13.7567
oe	-13.7575
62	-13.7587
▁Prag	-13.7593
▁Vân	-13.7598
hỏ	-13.76
▁Oma	-13.76
Không	-13.7606
yad	-13.7611
ida	-13.7616
rio	-13.762
zie	-13.7625
ses	-13.7627
parna	-13.7631
▁vớt	-13.7637
other	-13.7648
▁Arg	-13.7654
Israel	-13.7658
▁Edu	-13.7659
paca	-13.7678
▁Mit	-13.7681
vấn	-13.7681
tain	-13.7691
iology	-13.7694
▁Tomb	-13.7697
hấm	-13.7697
ocrate	-13.7699
▁ngắ	-13.77
lif	-13.77
bệnh	-13.7713
ks	-13.7714
dro	-13.7716
ane	-13.7717
itra	-13.7717
sprin	-13.7718
uông	-13.7728
▁Pale	-13.773
▁Ede	-13.7744
DG	-13.7746
▁Start	-13.7748
▁Magi	-13.7754
lợi	-13.7759
urk	-13.7769
▁IC	-13.778
oyce	-13.7784
roe	-13.7787
▁Down	-13.7788
ides	-13.7792
▁Chate	-13.7793
hè	-13.7797
quá	-13.7797
urf	-13.7801
▁viol	-13.7802
stati	-13.7817
tes	-13.7818
pace	-13.7832
undi	-13.7833
gar	-13.7835
rr	-13.7848
▁Met	-13.7851
▁Lesl	-13.7855
▁cặ	-13.7859
mọ	-13.7878
edi	-13.7887
sto	-13.789
▁Arno	-13.7899
2008	-13.79
▁loan	-13.7909
ilon	-13.7915
▁Eige	-13.792
▁Khố	-13.7924
▁Mis	-13.7924
▁Joll	-13.7928
pson	-13.7937
▁Lead	-13.7943
há	-13.7957
hũ	-13.7958
▁nã	-13.7963
▁5.	-13.7974
▁Stock	-13.7976
▁TW	-13.7977
huy	-13.7978
rect	-13.7982
▁Carlo	-13.7986
▁ke	-13.7986
eter	-13.8003
▁Kohl	-13.8003
▁phẩ	-13.8005
▁Nye	-13.8007
vic	-13.8012
nky	-13.8012
▁Taka	-13.8013
tema	-13.8023
▁Shr	-13.8024
▁Shu	-13.8033
▁Dah	-13.8033
▁lữ	-13.8043
ethyl	-13.8045
sor	-13.8053
hèo	-13.8053
▁Hero	-13.8055
andon	-13.8057
▁Truy	-13.8058
35	-13.8058
Arthu	-13.806
zi	-13.806
hoẻ	-13.8063
indl	-13.8064
▁Bess	-13.8066
Sáu	-13.8075
RD	-13.8084
PJ	-13.8095
Andrea	-13.8095
nik	-13.8097
reme	-13.8099
ocola	-13.8101
▁sắn	-13.8104
Tech	-13.8113
PC	-13.8117
oang	-13.8119
▁Steine	-13.8119
▁Ball	-13.8119
▁hê	-13.8122
head	-13.8125
▁550	-13.8127
wi	-13.8127
side	-13.8128
▁Mì	-13.8128
▁Mart	-13.8133
▁Rô	-13.8133
▁Thả	-13.8145
DT	-13.8147
▁Dụ	-13.8147
Bird	-13.8148
▁Arr	-13.8154
▁Bod	-13.8155
Colomb	-13.8159
▁Hand	-13.8161
LM	-13.8167
▁Tana	-13.8171
opren	-13.8177
nghiệp	-13.8178
▁Hale	-13.8178
ượ	-13.8186
IP	-13.8187
▁gal	-13.8189
▁Kings	-13.8191
wart	-13.8192
VC	-13.8205
ove	-13.8209
rusha	-13.8214
▁Dav	-13.8218
3,7	-13.8223
nes	-13.8227
▁Sharm	-13.8242
rban	-13.8245
izz	-13.8246
đường	-13.8246
oft	-13.8246
unni	-13.8249
.4	-13.8252
21	-13.8267
ku	-13.8281
▁Hur	-13.829
▁Ic	-13.8291
▁ngẩ	-13.8291
▁Lãn	-13.8293
▁Anton	-13.8295
▁ngọ	-13.8298
▁Sat	-13.8301
rell	-13.8306
kết	-13.8311
SE	-13.8315
caus	-13.8315
illett	-13.8325
FO	-13.8331
▁Vá	-13.8334
độ	-13.8337
CN	-13.8354
▁Ahh	-13.8356
▁vầ	-13.8356
ferr	-13.8359
ids	-13.836
▁230	-13.8362
▁Madd	-13.8365
sur	-13.8376
▁Barne	-13.8387
▁Ern	-13.8396
▁Kno	-13.8399
ival	-13.8403
iano	-13.8404
▁ngán	-13.8407
▁CN	-13.8413
ella	-13.8414
ozi	-13.8416
▁Pisa	-13.8417
▁iO	-13.8417
▁Edit	-13.8418
▁1.	-13.8426
bio	-13.8427
KO	-13.8427
umar	-13.8431
▁Blak	-13.8434
▁Feder	-13.8435
thar	-13.8445
▁Reg	-13.8452
▁gừng	-13.8456
▁Russ	-13.8463
▁189	-13.8467
ombo	-13.8475
du	-13.8478
asteur	-13.8479
arta	-13.8482
▁260	-13.8483
hớp	-13.8483
rove	-13.8486
lie	-13.8494
gles	-13.85
Rev	-13.8503
▁McDo	-13.8503
▁Tate	-13.8508
sopre	-13.8513
▁Hind	-13.8519
▁Tổn	-13.8521
ude	-13.8523
▁Eddi	-13.8523
tophan	-13.8523
▁nhọ	-13.8525
▁3500	-13.8527
acki	-13.8532
▁Nỗ	-13.8545
etwork	-13.855
▁Mandel	-13.8552
▁Sơ	-13.8554
ncer	-13.8556
▁Shephe	-13.8561
dt	-13.8561
▁wiki	-13.8561
▁sữ	-13.8562
▁Chla	-13.8564
▁Clint	-13.8565
liss	-13.8566
▁McFadd	-13.8566
ASDF	-13.8566
alencia	-13.8566
aswam	-13.8566
▁Alessandr	-13.8566
▁Arduino	-13.8566
▁Bamiyan	-13.8566
▁Caledonia	-13.8566
▁Citizen	-13.8566
▁Dhabi	-13.8566
▁Flintstone	-13.8566
▁Gerhard	-13.8566
▁Hitchcock	-13.8566
▁Humphrey	-13.8566
▁Krypton	-13.8566
▁Kwabena	-13.8566
▁Metropoli	-13.8566
▁Pleist	-13.8566
▁Providenc	-13.8566
▁Siyathemba	-13.8566
▁Skinner	-13.8566
▁carbohydrat	-13.8566
▁cricket	-13.8566
▁formaldehyde	-13.8566
▁sulfate	-13.8566
▁trumpet	-13.8566
enschatz	-13.8566
▁Medicine	-13.8566
▁PDF	-13.8566
▁Pablo	-13.8566
▁Pringle	-13.8566
▁Stratford	-13.8566
▁Auschwitz	-13.8566
▁Botox	-13.8566
▁Pentium	-13.8566
▁Resource	-13.8566
▁Schwarz	-13.8566
▁Tuscany	-13.8566
▁ounce	-13.8566
▁Adolf	-13.8566
▁1-2-3	-13.8566
▁Fransisco	-13.8566
▁Hancock	-13.8566
▁Mairead	-13.8566
▁Africa	-13.8566
▁Northwest	-13.8566
▁Shankar	-13.8566
▁Braille	-13.8566
▁Narcis	-13.8566
▁WOW	-13.8566
▁Frost	-13.8566
▁Lithuan	-13.8566
▁IDEO	-13.8566
▁Humbo	-13.8566
▁Pedro	-13.8566
▁Turkmen	-13.8566
exicograph	-13.8566
▁Jetman	-13.8566
▁Islam	-13.8566
▁wug	-13.8566
▁scrot	-13.8566
▁Spider	-13.8566
ewild	-13.8566
ollywo	-13.8566
▁Forrest	-13.8567
▁GCSE	-13.8567
▁Schrod	-13.8567
▁starsha	-13.8567
▁Easy	-13.8567
Houdin	-13.8567
▁Promet	-13.8567
▁break	-13.8567
▁TEDtalk	-13.8567
▁Heffer	-13.8567
▁CyAr	-13.8567
▁Bihar	-13.8567
▁Verna	-13.8567
▁Tuft	-13.8567
▁Gibra	-13.8567
▁sapien	-13.8567
▁Stux	-13.8567
▁Emory	-13.8567
▁Jee	-13.8567
▁Oxf	-13.8567
▁Barcia	-13.8567
▁Chaplin	-13.8567
▁Production	-13.8567
▁Dream	-13.8567
▁Kab	-13.8567
▁Telecom	-13.8567
▁Ballbot	-13.8568
▁Baobab	-13.8568
▁TEDYou	-13.8568
▁Nature	-13.8568
▁Pythago	-13.8568
▁Oak	-13.8568
▁7.6	-13.8568
▁alpha	-13.8568
▁Hercul	-13.8568
▁Sadow	-13.8569
▁10-15	-13.8569
▁Ngụ	-13.8569
thiết	-13.8569
ups	-13.8569
▁Shake	-13.8569
▁Giudi	-13.8569
▁snack	-13.8569
▁Ritz	-13.8569
▁thuât	-13.8569
▁Kitty	-13.857
▁Waal	-13.857
warf	-13.857
▁2.4	-13.857
▁Hexan	-13.857
▁Rider	-13.857
ermont	-13.857
▁xentim	-13.857
zzar	-13.8571
brid	-13.8571
▁Chaos	-13.8571
▁FI	-13.8572
▁Entrop	-13.8572
▁1812	-13.8572
▁Fark	-13.8572
▁Ludwi	-13.8572
▁Knop	-13.8572
XD	-13.8572
▁Rudy	-13.8573
▁Ishi	-13.8573
▁Liver	-13.8573
▁Rustic	-13.8573
▁Pete	-13.8573
▁Kras	-13.8574
▁Court	-13.8574
▁Hux	-13.8574
▁Chihu	-13.8575
▁Shuk	-13.8576
▁Boyle	-13.8576
▁Pavlov	-13.8576
▁Nair	-13.8577
▁Bluegrass	-13.8578
eace	-13.8578
▁Schwa	-13.8578
▁Elah	-13.8579
▁Ghos	-13.858
▁Hilton	-13.858
▁Swaz	-13.858
▁Brett	-13.858
▁Money	-13.858
▁TCN	-13.8581
▁fusi	-13.8582
▁Network	-13.8583
▁Athen	-13.8583
▁Issa	-13.8585
▁Hunts	-13.8585
▁sonicat	-13.8585
▁Haha	-13.8586
▁End	-13.8587
▁Borde	-13.8587
uska	-13.8588
▁Bros	-13.8588
lier	-13.8589
▁Nathali	-13.859
▁Sabia	-13.859
▁Schaef	-13.8591
▁Berr	-13.8592
▁Michoacan	-13.8592
▁Padd	-13.8592
▁multi	-13.8593
▁Rosa	-13.8593
▁NGH	-13.8595
▁Mies	-13.8595
▁Jain	-13.8598
▁Jaipu	-13.8599
▁Daw	-13.8599
▁Acheul	-13.86
▁Malone	-13.86
▁Amen	-13.8601
▁Heer	-13.8602
83	-13.8603
▁Niger	-13.8603
▁Anant	-13.8604
hites	-13.8604
▁99.999	-13.8605
▁Shige	-13.8607
▁ghềnh	-13.8608
▁Economic	-13.8609
hili	-13.861
ator	-13.861
WF	-13.8612
vali	-13.8612
▁135	-13.8613
wartz	-13.8613
▁Dass	-13.8614
▁Appalachian	-13.8614
▁996	-13.8617
▁Charle	-13.8617
ghiệm	-13.8617
ars	-13.8621
▁nanomet	-13.8623
yaw	-13.8623
bane	-13.8623
▁Grim	-13.8624
▁nacho	-13.8624
▁Holly	-13.8624
ital	-13.8626
▁Mono	-13.8628
▁Okoll	-13.8628
▁Pearl	-13.8631
alal	-13.8633
▁117	-13.8633
ltra	-13.8634
▁yế	-13.8634
▁shot	-13.8634
▁Reinh	-13.8634
▁Side	-13.8635
chứng	-13.8637
▁methan	-13.8638
▁Yam	-13.8642
ites	-13.8644
▁Angr	-13.8644
▁Mess	-13.8645
oc	-13.8651
▁Slav	-13.8652
▁Ferra	-13.8652
▁Maker	-13.8655
ezza	-13.8656
▁Agra	-13.8656
▁Force	-13.8657
▁Slu	-13.8658
opath	-13.866
▁rupee	-13.866
700	-13.8661
ets	-13.8661
▁Exc	-13.8661
▁Sheep	-13.8662
▁Cas	-13.8665
sterda	-13.8667
La	-13.8668
▁VI	-13.8669
▁Neuron	-13.8671
▁Beer	-13.8674
▁Goro	-13.8674
▁Greenp	-13.8676
▁hipp	-13.8678
ewer	-13.8681
▁Diffe	-13.8682
anic	-13.8683
llum	-13.8683
▁bạt	-13.8688
▁Lil	-13.869
▁Tia	-13.869
EB	-13.8694
▁Blog	-13.8694
▁Sharp	-13.8695
mát	-13.8703
▁Yến	-13.8704
▁Skol	-13.8705
▁Sieg	-13.8706
hol	-13.8707
elit	-13.8709
abo	-13.8709
▁104	-13.871
▁Adin	-13.8711
▁den	-13.8712
PLA	-13.8713
▁Harbi	-13.8713
▁Miche	-13.8714
tiếp	-13.8715
▁Lyn	-13.8717
▁0.3	-13.872
▁glu	-13.8726
Rex	-13.8726
IDA	-13.8726
▁bẽ	-13.8727
▁Lemm	-13.873
gel	-13.8732
▁Lenno	-13.8733
▁Marle	-13.8735
▁Tab	-13.8737
▁Egg	-13.8738
▁Jeh	-13.8743
gọi	-13.8747
▁Rét	-13.8748
ort	-13.8749
trọng	-13.8752
▁Hobb	-13.8757
ebr	-13.8757
▁Annan	-13.8762
▁Hutchi	-13.877
▁Lyd	-13.877
exe	-13.8771
ahua	-13.8772
▁đẵ	-13.8772
▁Advi	-13.8773
▁Nep	-13.8776
▁Túi	-13.8782
▁6,5	-13.8785
Dodi	-13.8786
▁Smol	-13.8787
oẹ	-13.8788
▁àoo	-13.8789
▁Weh	-13.879
▁Boo	-13.8791
▁Solei	-13.8792
eren	-13.8797
▁casset	-13.8797
▁Bront	-13.8803
IC	-13.8807
mage	-13.8807
adda	-13.881
lvani	-13.881
▁Corp	-13.881
▁Jam	-13.8812
▁Pari	-13.8813
▁Bề	-13.882
▁Thum	-13.8821
72	-13.8822
▁Fiore	-13.8823
▁Dion	-13.8824
less	-13.8828
▁Reggi	-13.8828
▁Krug	-13.883
▁Mise	-13.8833
▁Cr	-13.8833
97	-13.8834
inker	-13.8834
laugh	-13.8837
▁Theme	-13.8839
▁Gee	-13.884
▁four	-13.8848
▁es	-13.8848
▁581	-13.8849
▁Dị	-13.8849
▁Bute	-13.8851
▁Phel	-13.887
▁Bela	-13.8881
▁Chop	-13.8881
atchi	-13.8882
▁Arcad	-13.8883
▁Ada	-13.8888
-12	-13.8894
▁para	-13.8897
ashimi	-13.8899
▁Jou	-13.8899
▁Hawke	-13.8903
▁Enter	-13.8904
▁Bave	-13.8909
Mari	-13.8909
▁Tomas	-13.8911
▁Kil	-13.8913
8,7	-13.8913
▁Musa	-13.8915
▁Bom	-13.8919
ladi	-13.8922
▁Ll	-13.8926
▁Superma	-13.8929
▁Ale	-13.8932
ndura	-13.8935
ord	-13.8935
strep	-13.8937
▁tuyêt	-13.8937
Li	-13.894
▁Heal	-13.8942
▁Mund	-13.8944
hrive	-13.8946
▁Ign	-13.8949
53	-13.8949
▁rờ	-13.8953
▁xịn	-13.8956
beca	-13.8958
logger	-13.8962
eyla	-13.8965
▁Rees	-13.8968
dùng	-13.8972
02	-13.8975
thức	-13.8975
▁SH	-13.8976
▁Judi	-13.8977
▁Kib	-13.898
thu	-13.898
▁Sharma	-13.898
Toole	-13.8986
▁WM	-13.899
▁Ghe	-13.8992
yder	-13.8994
▁Gala	-13.8994
▁mile	-13.9001
▁Colomb	-13.9002
▁Schell	-13.9002
wish	-13.9016
stine	-13.9021
▁Cre	-13.9028
▁Kip	-13.9029
stro	-13.9032
▁Tố	-13.9039
▁Fit	-13.9048
lim	-13.9049
▁Mash	-13.9052
▁phospha	-13.906
▁lán	-13.9063
▁Fly	-13.9065
strict	-13.9067
háp	-13.9074
rek	-13.9074
▁cậ	-13.9074
▁Sig	-13.908
gado	-13.9083
elve	-13.9088
▁cuố	-13.9088
▁mẫ	-13.909
ix	-13.9091
▁sủ	-13.9096
▁Geo	-13.9109
▁Swan	-13.9109
▁titan	-13.9109
▁165	-13.9113
▁Kent	-13.9114
Blooming	-13.9123
anders	-13.9124
ffic	-13.9131
▁ed	-13.9133
-8	-13.9133
ốp	-13.9133
methyl	-13.9138
vind	-13.9139
ress	-13.9144
▁thưở	-13.9145
hụp	-13.9151
▁Charm	-13.9154
hổ	-13.9154
liệu	-13.9158
▁xố	-13.9158
-5	-13.9159
twe	-13.9161
etro	-13.9162
▁Alas	-13.9163
▁Penta	-13.9165
▁Otta	-13.9167
hua	-13.9176
▁Bac	-13.9176
híp	-13.9178
ilson	-13.9179
tuyệt	-13.9179
opi	-13.918
▁Duma	-13.918
▁Twin	-13.918
▁Carr	-13.9181
elin	-13.9183
▁Huy	-13.9184
▁Bậ	-13.9185
▁Oct	-13.9186
▁Michaela	-13.9193
nna	-13.9194
dor	-13.9199
▁Baba	-13.9206
▁gòn	-13.9207
▁07	-13.9208
▁Mine	-13.9222
▁Ké	-13.9223
agh	-13.9224
erz	-13.9225
icks	-13.9229
▁Hydr	-13.923
▁Muni	-13.9236
▁sỏ	-13.9242
▁Suss	-13.9247
entl	-13.9248
uss	-13.9248
▁muỗ	-13.9251
dson	-13.9252
▁was	-13.9253
▁met	-13.9267
▁Turn	-13.927
▁Franc	-13.9271
tti	-13.9271
▁Lự	-13.928
lf	-13.9282
chết	-13.9291
▁Rosi	-13.9294
tarter	-13.9301
▁cạc	-13.9306
tác	-13.932
nked	-13.9349
thử	-13.9353
▁Terra	-13.9353
andina	-13.936
▁Nak	-13.936
tress	-13.9363
▁Space	-13.9363
thần	-13.9373
▁Marin	-13.938
uan	-13.9381
▁loạ	-13.9385
arrow	-13.9388
▁Miss	-13.9393
▁Lott	-13.9394
lượng	-13.9395
▁Spa	-13.94
ECT	-13.9402
▁Brah	-13.9407
▁burn	-13.9409
▁kang	-13.941
759	-13.9411
▁Nà	-13.9425
▁Võ	-13.9434
ittle	-13.944
▁Eno	-13.9454
Elys	-13.946
olia	-13.9471
▁nứ	-13.9475
lưới	-13.9482
giá	-13.9485
▁Hit	-13.9485
hari	-13.9485
▁Bibl	-13.9489
apt	-13.9504
ife	-13.951
▁Om	-13.951
▁Đo	-13.9514
ient	-13.9515
alwar	-13.9516
▁Wha	-13.9527
esty	-13.9528
▁Rep	-13.9532
ally	-13.9542
nữa	-13.9548
nan	-13.9551
▁Fres	-13.9555
oz	-13.9555
▁Bran	-13.9558
opin	-13.9566
▁173	-13.9569
▁bứ	-13.9571
ep	-13.958
agadd	-13.9585
▁Sp	-13.9588
▁Naga	-13.9591
giải	-13.9591
▁Macke	-13.9593
sphe	-13.9596
olta	-13.9606
llie	-13.9613
▁beta	-13.9614
po	-13.9614
itos	-13.9615
▁AA	-13.9616
▁Ngo	-13.962
▁Matter	-13.9625
▁Dal	-13.9627
laza	-13.963
etti	-13.963
▁864	-13.9633
▁From	-13.9637
▁Loui	-13.9641
ambi	-13.9644
▁Henri	-13.9653
▁Mata	-13.9654
ocen	-13.9658
Tây	-13.9675
▁chướ	-13.9676
ace	-13.9679
sse	-13.9683
giây	-13.9685
arbor	-13.9688
lithi	-13.9688
epper	-13.9688
▁lườ	-13.9696
▁Fil	-13.9699
▁3.2	-13.9711
hố	-13.9721
enes	-13.9724
▁Metric	-13.9727
▁JP	-13.9733
hạc	-13.9735
ctic	-13.9735
enspa	-13.9738
▁Vig	-13.9738
yện	-13.9742
zan	-13.9743
66	-13.9748
FC	-13.9753
▁Spect	-13.9756
egel	-13.9758
uid	-13.9759
dmund	-13.9762
▁----	-13.9768
ET	-13.9768
clav	-13.977
ví	-13.9773
▁Burge	-13.9773
enge	-13.9774
íp	-13.9779
▁Andrea	-13.9794
▁Tà	-13.9797
Ch	-13.9799
▁Archiv	-13.9803
▁Malin	-13.9812
gle	-13.9814
▁Benne	-13.9815
tyl	-13.982
,10	-13.9821
▁Bat	-13.9825
▁162	-13.9826
dine	-13.9826
genes	-13.9834
appa	-13.9837
▁Kenn	-13.9839
sd	-13.984
▁Kaland	-13.9846
hách	-13.9848
woa	-13.9848
▁Ang	-13.9851
▁440	-13.9854
▁Rang	-13.9877
▁Nab	-13.9878
ball	-13.9884
giáo	-13.9885
▁Nickl	-13.9897
▁Tap	-13.9899
tel	-13.9904
▁Passa	-13.9905
▁Tele	-13.991
▁cass	-13.9912
race	-13.9915
vang	-13.9927
York	-13.993
lý	-13.9933
bô	-13.9933
▁Cab	-13.9934
urger	-13.9937
zoi	-13.9938
▁Pors	-13.9939
▁Mid	-13.9942
truyền	-13.9946
▁Tib	-13.9951
▁Kw	-13.9954
ior	-13.9956
hia	-13.9956
niz	-13.9965
hực	-13.9966
rut	-13.9971
ando	-13.9974
anto	-13.9974
ake	-13.9976
5000	-13.9978
▁Bud	-13.998
▁Route	-13.9981
cao	-13.9982
-3	-13.9985
omer	-13.9986
▁4.	-13.999
▁Chino	-13.9993
▁Wino	-13.9999
▁hông	-14.0004
mel	-14.0008
▁Gul	-14.0015
▁WI	-14.0019
▁AID	-14.0025
▁Ava	-14.003
euros	-14.003
▁Gev	-14.0031
67	-14.0037
▁Mae	-14.0038
var	-14.004
ois	-14.0041
my	-14.0042
hao	-14.0044
bà	-14.0056
each	-14.0066
▁who	-14.0068
▁Yea	-14.0073
lph	-14.0088
▁Mura	-14.0089
▁Schum	-14.0091
ac	-14.0096
ious	-14.0103
▁Bla	-14.0105
▁ní	-14.0111
usi	-14.0112
06	-14.0113
▁Mam	-14.0127
▁Runn	-14.0129
mỗi	-14.0133
tranh	-14.0149
show	-14.0154
▁Voda	-14.0158
Be	-14.0162
esoth	-14.0167
lực	-14.0168
rex	-14.017
cầu	-14.0176
RO	-14.0176
▁zip	-14.0178
sie	-14.0181
oãn	-14.0183
▁Too	-14.0185
rotein	-14.0193
▁Esta	-14.0193
▁nướ	-14.0196
▁Str	-14.0203
▁khoắn	-14.0203
alf	-14.0204
phụ	-14.0212
▁Kite	-14.0215
nut	-14.0216
cu	-14.022
glia	-14.0228
cố	-14.0232
▁Hughe	-14.0233
qui	-14.0235
▁Calv	-14.0251
▁McC	-14.0251
▁PG	-14.0253
ID	-14.0253
tiên	-14.0263
▁Viv	-14.0268
▁Hei	-14.027
ncel	-14.0291
▁174	-14.0298
ito	-14.0302
ngược	-14.0304
eleg	-14.0315
mất	-14.0317
pi	-14.0318
mega	-14.0325
sáng	-14.0326
▁2,4	-14.0332
enne	-14.0347
▁Colo	-14.0353
▁Nia	-14.0354
rugge	-14.0364
oku	-14.0371
whe	-14.0386
tình	-14.0389
77	-14.0398
EP	-14.0401
▁Nige	-14.0404
PI	-14.0421
ono	-14.0421
life	-14.0423
▁1,2,3	-14.0424
▁Dir	-14.0425
ste	-14.0431
phân	-14.0433
nold	-14.0433
hò	-14.0447
▁Lea	-14.045
▁Lắ	-14.0459
LS	-14.0463
tko	-14.0463
▁Sey	-14.0471
▁ào	-14.0474
yết	-14.0477
tum	-14.0479
▁Lam	-14.0491
kle	-14.0496
▁Tama	-14.0497
ahir	-14.0502
▁ín	-14.0505
76	-14.0513
▁Sto	-14.0514
▁hiệ	-14.0514
▁Tol	-14.0524
oup	-14.0526
▁Ana	-14.0529
▁Amo	-14.0537
đúng	-14.0551
eez	-14.0555
▁fo	-14.0556
khoa	-14.0556
▁Wolfe	-14.0558
▁With	-14.0559
▁4,	-14.0562
điện	-14.0563
▁Bald	-14.0571
bình	-14.0573
▁Sak	-14.0584
▁Bia	-14.0589
▁chường	-14.0589
trẻ	-14.0593
mê	-14.0601
eloit	-14.0602
fra	-14.0605
Hã	-14.0609
▁Sum	-14.0621
ush	-14.0623
▁vạ	-14.0626
▁Silv	-14.0632
▁Mauri	-14.0633
loại	-14.0635
▁Lion	-14.0642
oli	-14.0643
▁Haa	-14.0656
▁145	-14.0658
biến	-14.0658
gồi	-14.0659
▁Lomb	-14.0666
▁rú	-14.0675
ations	-14.0675
otor	-14.0683
ik	-14.0684
▁re	-14.0689
▁Shi	-14.0692
Tạ	-14.0694
▁Kur	-14.0699
iller	-14.0708
hầu	-14.0711
▁Bạc	-14.0717
AR	-14.0723
erland	-14.0729
▁Jorgen	-14.0737
Iran	-14.0739
▁per	-14.0742
▁Andra	-14.0749
▁Nhó	-14.0753
▁Hum	-14.076
ourt	-14.0761
rava	-14.077
cỡ	-14.0775
▁pao	-14.0778
done	-14.0781
ork	-14.0782
▁nhữn	-14.0786
▁Conne	-14.0787
phage	-14.0795
aas	-14.0803
kee	-14.0804
athan	-14.0815
▁Boh	-14.0818
anza	-14.0822
▁Sebasti	-14.0824
▁Phar	-14.0828
▁Magn	-14.0833
▁tè	-14.084
▁Tươ	-14.0841
▁oan	-14.0843
ef	-14.0847
▁Sag	-14.0847
▁Mori	-14.0848
ween	-14.0859
▁tĩ	-14.0859
illing	-14.0861
▁Stor	-14.0865
▁Nad	-14.0876
▁Pot	-14.0881
▁all	-14.0883
rì	-14.0887
▁Indian	-14.0893
angelo	-14.0898
lly	-14.0899
nghĩa	-14.0901
non	-14.0905
▁Rom	-14.0907
▁Nhiệ	-14.0913
Canada	-14.0914
mix	-14.0915
dish	-14.0919
▁Jes	-14.0921
dou	-14.0924
▁Warin	-14.0934
đều	-14.0935
▁ghì	-14.0937
ald	-14.0941
iúp	-14.0943
▁LE	-14.0946
hine	-14.0955
▁cở	-14.0962
lites	-14.0968
▁Fair	-14.0969
kèm	-14.0975
remi	-14.0977
▁đản	-14.0981
▁Mack	-14.0986
haz	-14.099
▁ze	-14.0994
▁Ngu	-14.0996
yss	-14.1004
▁Arb	-14.1016
uar	-14.1028
cro	-14.1028
mann	-14.1039
hun	-14.1054
▁Tunis	-14.106
▁o	-14.1066
▁1.9	-14.1069
▁Coh	-14.1084
▁Ashe	-14.1095
▁Asa	-14.1099
▁Scan	-14.1103
▁-1	-14.1104
▁Whi	-14.111
PS	-14.1112
620	-14.1116
▁Vod	-14.1123
▁Hayd	-14.1126
▁Shai	-14.1127
nghiệm	-14.1131
oler	-14.1138
▁Lặn	-14.1139
▁Walla	-14.1152
ré	-14.1155
czy	-14.1161
nison	-14.1164
▁Gara	-14.1169
hero	-14.117
cacbon	-14.1172
▁Bry	-14.1172
▁Limo	-14.1183
far	-14.1184
inso	-14.1185
▁Gián	-14.1186
main	-14.1188
els	-14.1191
Get	-14.1193
ộn	-14.1193
▁Chil	-14.1194
2007	-14.12
▁Plu	-14.1206
ubar	-14.1212
kow	-14.1213
▁miê	-14.1229
lul	-14.1233
mir	-14.1242
nghệ	-14.1249
▁Fall	-14.1252
▁SAN	-14.1254
ngay	-14.1258
serot	-14.1265
▁Spe	-14.1265
nard	-14.1269
▁Pap	-14.1273
onne	-14.1276
▁Soph	-14.1281
mud	-14.1281
ssig	-14.1287
entin	-14.1289
2006	-14.1291
Pix	-14.1292
ấ	-14.1292
ett	-14.1297
vị	-14.1304
▁Seat	-14.1305
agua	-14.1307
udd	-14.1308
điểm	-14.1309
eek	-14.1318
oáng	-14.132
▁Famil	-14.132
titan	-14.1324
tâm	-14.1336
▁hormon	-14.134
▁đì	-14.134
▁Klin	-14.1341
Paris	-14.1342
iser	-14.1351
obs	-14.1354
▁gộ	-14.1356
▁tron	-14.1361
▁Rut	-14.1362
▁ren	-14.1362
che	-14.1366
quả	-14.1369
78	-14.1384
▁Nhậ	-14.1384
2012	-14.1385
urani	-14.1388
hoàn	-14.139
đáng	-14.1393
▁Cad	-14.1397
▁1,50	-14.1399
mous	-14.14
▁Berl	-14.1402
uret	-14.1404
City	-14.1417
nzia	-14.1418
▁Hod	-14.1422
nzo	-14.1424
Jordan	-14.1426
MRI	-14.1432
Rock	-14.1441
▁Blogg	-14.1445
900	-14.1451
2013	-14.1454
copy	-14.1455
lần	-14.1456
▁Sus	-14.1478
▁Plai	-14.1479
▁Hea	-14.1481
India	-14.1483
▁Southam	-14.1485
bíp	-14.15
áz	-14.15
Wire	-14.1503
ben	-14.1513
▁Qui	-14.1519
▁đoá	-14.1521
▁Toni	-14.1521
,6	-14.1526
cứu	-14.1527
awi	-14.1528
▁2,	-14.1528
Walk	-14.1535
▁14000	-14.1538
▁ED	-14.1558
▁Già	-14.156
▁TEDxT	-14.1567
▁Vani	-14.1571
rian	-14.1572
▁hooc	-14.1574
▁Poo	-14.1584
▁Sack	-14.1585
▁Hog	-14.1587
atar	-14.1589
itor	-14.1592
▁thỉn	-14.1593
trans	-14.1594
▁Phy	-14.1596
shi	-14.1597
46	-14.1597
55	-14.16
hemo	-14.1623
sét	-14.1625
▁129	-14.1628
kra	-14.1629
▁Mille	-14.1632
hảy	-14.1638
▁Thạc	-14.1648
ocal	-14.1651
▁Mahl	-14.1653
atra	-14.1662
lấy	-14.1666
▁Valenti	-14.1667
▁Ea	-14.1669
uton	-14.1669
umbl	-14.1675
▁lỏ	-14.1678
▁Barn	-14.168
NT	-14.1685
rsk	-14.1687
3000	-14.169
ím	-14.1693
yan	-14.1696
bisa	-14.1705
titl	-14.1705
vak	-14.1712
care	-14.1715
▁Asha	-14.1721
ode	-14.1725
tle	-14.173
▁lấ	-14.173
▁Scient	-14.1732
SP	-14.1739
▁đườ	-14.1739
▁Vac	-14.174
▁nhụ	-14.1741
▁Thác	-14.1746
asub	-14.1749
oran	-14.1759
▁Sherm	-14.176
▁tiê	-14.1761
byte	-14.1762
ướ	-14.1764
▁Samar	-14.1765
gato	-14.1766
ogo	-14.1766
chester	-14.1766
lack	-14.1771
▁thổn	-14.1771
ernet	-14.1774
▁Barc	-14.1776
▁think	-14.1782
▁Michell	-14.1786
▁Speed	-14.1788
gue	-14.1789
▁Det	-14.1789
ỉn	-14.179
minh	-14.1798
lays	-14.1798
ulos	-14.1801
▁Arav	-14.1802
▁1,8	-14.1805
amil	-14.1808
Sina	-14.181
DAR	-14.181
erfa	-14.1813
▁mar	-14.1816
▁Khuyế	-14.1821
vu	-14.1832
lhou	-14.1833
▁Div	-14.1833
▁111	-14.1835
▁Nie	-14.1836
▁04	-14.1839
▁Cars	-14.1839
rash	-14.184
▁Dum	-14.1841
crat	-14.1842
harata	-14.1853
▁Hawa	-14.1854
▁Hodg	-14.1855
found	-14.1855
▁Tibet	-14.1857
▁Vé	-14.1857
▁rư	-14.1858
hekel	-14.186
▁vể	-14.1862
▁2300	-14.1865
hẳn	-14.1871
oẻ	-14.1873
▁Key	-14.1873
▁Dell	-14.1874
▁Sevi	-14.1874
ani	-14.1877
cketma	-14.1877
▁Soko	-14.1877
▁lữa	-14.1882
▁Barna	-14.1884
witter	-14.1885
shak	-14.1888
▁Anima	-14.1892
▁fear	-14.1892
▁Micro	-14.1893
▁Friend	-14.1893
▁Indus	-14.1895
Rast	-14.1897
▁polyme	-14.1898
▁Say	-14.1898
▁Olymp	-14.1898
▁neutr	-14.1899
▁Amb	-14.1899
▁Wald	-14.1899
▁Mount	-14.19
▁Alaveteli	-14.19
▁Eccles	-14.19
abushka	-14.19
pocalyp	-14.19
▁Constitución	-14.19
▁Curiosit	-14.19
▁Garniez	-14.19
▁Gonzale	-14.19
▁HTML	-14.19
▁Hebron	-14.19
▁Heuser	-14.19
▁Hobsbaw	-14.19
▁Inception	-14.19
▁Ixraen	-14.19
▁KHÔ	-14.19
▁Laetitia	-14.19
▁Libeskind	-14.19
▁Matreyek	-14.19
▁Mehico	-14.19
▁Montessori	-14.19
▁Moussaou	-14.19
▁Oppenheim	-14.19
▁Scarlet	-14.19
▁Shuffle	-14.19
▁Tupperware	-14.19
▁Tyrannosaur	-14.19
▁Vietnam	-14.19
▁Woznia	-14.19
▁Berkenstock	-14.19
▁Letters	-14.19
▁Magazine	-14.19
▁Nerve	-14.19
▁Sadik	-14.19
▁Vitruvian	-14.19
▁Wernick	-14.19
▁gradien	-14.19
▁Madonna	-14.19
▁Micronesia	-14.19
▁Tirana	-14.19
▁Boswana	-14.19
▁Kadinsky	-14.19
▁Terkel	-14.19
▁Volk	-14.19
▁buffet	-14.19
Edmonto	-14.19
▁10,20,30	-14.19
▁Astaire	-14.19
▁BRIC	-14.19
▁Baumgar	-14.19
▁Declan	-14.19
▁Gooseberry	-14.19
daipur	-14.19
▁Botero	-14.19
▁Phillipines	-14.19
▁Washinton	-14.19
Channel	-14.19
Housman	-14.19
▁Field	-14.19
▁Fischer	-14.19
▁Schacht	-14.19
▁26.2	-14.19
▁Amunds	-14.19
▁Nirenber	-14.19
▁Planet	-14.19
Concord	-14.19
scape	-14.19
▁Clause	-14.19
▁Gibbon	-14.19
▁Jayant	-14.19
▁Tinkering	-14.19
▁accordion	-14.19
▁benzen	-14.19
▁argh	-14.19
▁Hick	-14.19
appiness	-14.19
okite	-14.19
▁Butler	-14.19
▁Chamber	-14.19
▁Shinola	-14.19
▁TEDxHouston	-14.19
▁Peterborough	-14.19
america	-14.19
▁MSN	-14.19
▁Dayton	-14.19
▁ETH	-14.19
▁Ezra	-14.19
▁Technolog	-14.19
▁Heath	-14.19
▁Pursat	-14.19
Bake	-14.19
▁Ashburn	-14.19
▁Gucci	-14.19
▁Savannah	-14.19
▁Dawes	-14.1901
▁Fuku	-14.1901
▁Cardin	-14.1901
child	-14.1901
▁Concert	-14.1901
▁Parsi	-14.1901
▁Coleman	-14.1901
cycli	-14.1901
itamin	-14.1901
▁Popula	-14.1901
▁Dimit	-14.1901
▁Robotics	-14.1901
▁Marble	-14.1901
▁glyc	-14.1901
▁Steel	-14.1901
▁Alhur	-14.1901
twoma	-14.1901
▁Bowden	-14.1902
▁Dunham	-14.1902
▁ALS	-14.1902
▁Afra	-14.1902
▁Kirsten	-14.1902
▁Fight	-14.1902
▁NDD	-14.1902
▁Raq	-14.1902
▁Hawai	-14.1902
▁Logan	-14.1902
▁double	-14.1902
▁Maison	-14.1902
ictionar	-14.1903
▁Otto	-14.1903
▁Kunst	-14.1903
▁Mariner	-14.1903
▁elip	-14.1904
ikwa	-14.1904
▁Engl	-14.1904
▁Kumb	-14.1904
▁peso	-14.1904
▁3-5	-14.1904
▁Place	-14.1905
▁1955	-14.1905
▁Metro	-14.1905
▁Eben	-14.1905
▁Seko	-14.1906
▁Getty	-14.1906
llody	-14.1907
▁Mitch	-14.1907
▁GHz	-14.1907
rigade	-14.1908
▁Baker	-14.1908
▁Gafi	-14.1908
Harmon	-14.1909
▁Rainbow	-14.1909
▁Admira	-14.191
▁Heide	-14.191
▁Dench	-14.191
▁Barrow	-14.1911
▁Lynch	-14.1911
Abid	-14.1912
▁Ginger	-14.1912
▁Aman	-14.1912
▁Downs	-14.1913
▁NPR	-14.1913
▁Give	-14.1913
▁Piarc	-14.1913
▁Smoot	-14.1913
▁RoboC	-14.1914
▁Spring	-14.1914
▁Live	-14.1914
▁chuôt	-14.1914
▁Buff	-14.1914
gras	-14.1914
▁SEAL	-14.1915
▁Kafka	-14.1915
obacter	-14.1915
▁Mute	-14.1915
quare	-14.1916
▁XY	-14.1916
▁Prada	-14.1917
▁forma	-14.1918
▁Round	-14.1918
▁Ike	-14.1918
olita	-14.1919
Xon	-14.1919
▁Ear	-14.1919
▁Charit	-14.1921
▁Four	-14.1922
quist	-14.1922
▁Autom	-14.1923
lobal	-14.1923
▁Gate	-14.1923
▁Inver	-14.1925
▁Seb	-14.1925
andro	-14.1925
scott	-14.1927
▁Bambi	-14.1928
▁McEw	-14.1928
▁Brod	-14.193
▁Curz	-14.193
▁Lizzi	-14.193
▁TEDX	-14.1931
▁RF	-14.1933
ergo	-14.1933
Centr	-14.1933
▁Blend	-14.1933
▁Bridge	-14.1934
ebo	-14.1935
send	-14.1935
boro	-14.1935
▁Mind	-14.1937
▁Yes	-14.1937
▁Dud	-14.1937
▁Gart	-14.1938
▁Eis	-14.1939
xel	-14.1939
▁Kraus	-14.194
▁Tradi	-14.1942
uhahaha	-14.1943
▁Arts	-14.1944
▁Mulla	-14.1944
▁Smit	-14.1945
▁Sokolo	-14.1945
Drive	-14.1945
ashin	-14.1945
odia	-14.1945
▁13.7	-14.1946
▁Moto	-14.1947
ograph	-14.195
insul	-14.195
enda	-14.1951
▁Fellows	-14.1951
ena	-14.1952
shhh	-14.1953
▁Mmm	-14.1953
▁Puli	-14.1954
Astor	-14.1954
▁Bharat	-14.1955
▁Aden	-14.1957
▁Trib	-14.1957
▁Sister	-14.1959
shaw	-14.1959
▁Sass	-14.1959
▁Troll	-14.196
▁Ara	-14.196
tics	-14.1961
▁Amst	-14.1962
efens	-14.1962
▁Britta	-14.1963
▁Tivi	-14.1963
ichte	-14.1963
▁Chin	-14.1964
rika	-14.1965
ario	-14.1965
▁Bres	-14.1965
yrann	-14.1966
▁limb	-14.1967
itsy	-14.1967
gara	-14.197
don	-14.197
▁Nit	-14.197
ậc	-14.1971
cif	-14.1973
▁Schwartzber	-14.1974
▁Croa	-14.1974
abi	-14.1974
▁Jura	-14.1976
▁TEDxB	-14.1976
▁Othe	-14.1979
Aquil	-14.198
Carl	-14.1982
74	-14.1983
▁2.9	-14.1984
▁milli	-14.1984
▁Meso	-14.1985
tir	-14.199
▁RoMe	-14.1991
GB	-14.1991
▁ngườ	-14.1991
▁Ladak	-14.1992
▁talk	-14.1996
Clau	-14.1997
▁Equa	-14.1998
nter	-14.1998
▁Kuh	-14.1999
Share	-14.2003
▁ISS	-14.2004
▁Audu	-14.2005
▁axon	-14.2006
▁Krishnan	-14.2007
▁xôn	-14.2007
▁Legen	-14.2008
▁Moss	-14.2011
thiol	-14.2011
yrex	-14.2011
▁Yor	-14.2011
evelop	-14.2011
▁Speedo	-14.2013
▁Monk	-14.2014
▁Navi	-14.2017
▁Der	-14.2018
ngar	-14.2018
pil	-14.2019
▁Wikileak	-14.202
▁Chan	-14.2021
▁Hid	-14.2022
▁Portal	-14.2022
kel	-14.2023
▁Work	-14.2024
▁rapper	-14.2026
▁Rat	-14.2028
▁Boing	-14.2029
nnie	-14.2031
▁Audi	-14.2031
▁Reve	-14.2034
can	-14.2034
▁Asia	-14.2036
soft	-14.2036
▁khă	-14.2037
▁Tre	-14.2037
thuật	-14.2038
▁DV	-14.2042
1.5	-14.2046
▁Dev	-14.2051
cock	-14.2052
amine	-14.2053
đan	-14.2055
▁Lest	-14.2059
▁6,8	-14.2061
uka	-14.2063
4.8	-14.2064
▁SBI	-14.2069
đời	-14.2071
▁LI	-14.2071
acs	-14.2071
zhen	-14.2073
▁Hook	-14.2077
cl	-14.2077
▁Crock	-14.2079
▁amar	-14.208
Engels	-14.2082
▁Tamm	-14.2083
Sak	-14.2084
onic	-14.2085
▁neon	-14.2086
wesi	-14.2087
▁69	-14.2089
▁acet	-14.2093
urie	-14.2093
elde	-14.2094
▁KI	-14.2094
▁Bấ	-14.2097
gov	-14.2097
ST	-14.2097
▁Lep	-14.2097
ldt	-14.2101
▁112	-14.2105
▁Rus	-14.2106
rli	-14.2111
▁Pean	-14.2113
▁Beard	-14.2114
▁shop	-14.2115
650	-14.2116
zett	-14.2116
Baptist	-14.2118
mite	-14.2122
eras	-14.2123
▁inter	-14.2123
▁Amis	-14.2127
▁Alti	-14.2128
▁Nic	-14.2128
rens	-14.2132
▁Serg	-14.2134
haram	-14.2141
▁Buch	-14.2142
▁Sopho	-14.2142
▁Sạch	-14.2145
▁MAN	-14.2149
▁TEDxD	-14.215
▁ắc	-14.2152
chrom	-14.216
iram	-14.2162
▁Skyl	-14.2162
▁PTT	-14.2163
bout	-14.2164
▁Shaf	-14.2166
▁Honor	-14.2168
▁Bhar	-14.2169
▁CS	-14.2183
▁Medica	-14.2186
▁Mond	-14.2186
▁Dw	-14.2186
mines	-14.2186
▁Xê	-14.2196
▁heads	-14.2199
vere	-14.2201
ietz	-14.2202
aiku	-14.2202
▁quằn	-14.2207
▁Lek	-14.2209
▁Foot	-14.2211
vita	-14.2211
▁Cove	-14.2214
ankof	-14.2219
▁Eni	-14.2222
▁Holme	-14.2225
▁app	-14.2226
lone	-14.2226
▁Downto	-14.2226
algo	-14.2227
▁Quest	-14.2228
huột	-14.223
▁balo	-14.223
▁Kang	-14.2233
eider	-14.2241
aisal	-14.2242
ermin	-14.2243
▁Wilk	-14.2244
trí	-14.2246
▁Cant	-14.2255
ering	-14.2257
▁stick	-14.2263
nhỏ	-14.2264
▁Emer	-14.2265
▁Koy	-14.2266
andwich	-14.2269
MAO	-14.227
enb	-14.2278
nistan	-14.2279
▁Wester	-14.2285
▁milim	-14.229
rush	-14.2293
▁Roo	-14.2298
▁giêng	-14.2299
▁Sali	-14.23
orni	-14.2304
▁Typ	-14.2309
taple	-14.231
▁Cari	-14.2319
founder	-14.2319
owie	-14.2319
▁ĐI	-14.2319
▁Laenn	-14.2322
▁thừ	-14.2322
▁Maka	-14.2325
▁mass	-14.2327
hứ	-14.233
yahu	-14.233
▁Bioph	-14.2333
Mo	-14.2337
▁Ik	-14.234
▁Ord	-14.2351
lide	-14.2352
triển	-14.2353
llam	-14.236
anthrop	-14.2362
,700	-14.2366
▁Andr	-14.2369
oren	-14.2373
▁dầ	-14.2373
▁Hiểm	-14.2374
▁Sherr	-14.2375
▁rốn	-14.2377
▁Core	-14.2385
▁Yorke	-14.2386
metri	-14.239
cộng	-14.2394
▁Elk	-14.2395
▁tran	-14.2403
reau	-14.2409
▁Modi	-14.241
ibb	-14.2411
.3	-14.2412
▁Linds	-14.2415
hoe	-14.2419
▁Toa	-14.2423
▁rỗ	-14.2426
itch	-14.2428
anz	-14.2429
▁Shel	-14.2431
Box	-14.2436
Sight	-14.244
▁Hanni	-14.2443
▁nuố	-14.2444
▁ứ	-14.2452
-15	-14.2454
▁SL	-14.2461
▁Larg	-14.2463
uyn	-14.2463
▁Ragh	-14.2464
gon	-14.2464
▁enz	-14.2465
eigh	-14.247
▁trứ	-14.2473
hakti	-14.2473
▁Rando	-14.2477
rena	-14.2481
▁Cướ	-14.2487
▁Nhâ	-14.2495
eatle	-14.2496
▁Pres	-14.2497
23	-14.2498
▁yê	-14.2502
▁Menin	-14.2502
dle	-14.251
▁Bird	-14.251
rise	-14.2514
▁Đầ	-14.2515
▁3,7	-14.2515
▁RA	-14.2515
▁Keny	-14.2519
omon	-14.252
▁chẵn	-14.2522
▁nịt	-14.2523
oughs	-14.2523
▁Burr	-14.2527
▁Madh	-14.2527
uca	-14.2533
▁Tik	-14.2553
▁Morin	-14.2555
▁Wit	-14.2555
teo	-14.2556
Family	-14.2558
nhạc	-14.2559
book	-14.256
pine	-14.2566
mini	-14.2567
beat	-14.2567
▁Shy	-14.2568
roxi	-14.257
stori	-14.2572
tter	-14.2578
biệt	-14.2579
góc	-14.2583
ealth	-14.2584
erec	-14.2584
dela	-14.2587
quyết	-14.2588
▁Freed	-14.2597
▁le	-14.2602
▁RO	-14.2605
▁Polo	-14.2609
dia	-14.2611
đưa	-14.2611
Tri	-14.2611
ank	-14.2616
▁Lei	-14.2617
▁Carn	-14.2619
bức	-14.2623
kal	-14.2623
Soon	-14.2625
▁Cava	-14.2625
▁Kasu	-14.2626
▁Fallo	-14.2627
hoặc	-14.2639
Vậ	-14.264
▁toi	-14.2642
ds	-14.2645
rook	-14.2646
xã	-14.2647
sian	-14.2648
scot	-14.2653
iv	-14.2655
quin	-14.2658
▁Kosh	-14.2662
ilia	-14.2662
▁Poli	-14.2677
▁Ches	-14.2683
▁Micha	-14.2684
yatt	-14.2689
▁Dre	-14.2695
ime	-14.2698
eters	-14.2699
▁Mili	-14.27
gai	-14.2701
▁les	-14.2703
▁Sona	-14.2707
nny	-14.2709
pez	-14.2717
▁Flore	-14.2724
tta	-14.2728
▁80-	-14.2732
eve	-14.2736
▁Dơi	-14.2754
onen	-14.2757
▁Sham	-14.2757
▁Sog	-14.2759
▁des	-14.2759
▁Kín	-14.2764
▁chạ	-14.2767
▁đụ	-14.2771
▁nuô	-14.2772
khắc	-14.2775
▁Christoph	-14.2779
uckerbe	-14.278
oso	-14.2781
Me	-14.2787
alla	-14.28
onie	-14.2801
▁thẩ	-14.2801
▁pan	-14.2808
▁Pix	-14.2813
hhhh	-14.2826
aler	-14.2834
▁bươ	-14.2839
▁Raf	-14.2843
▁Gos	-14.2844
▁Kac	-14.2856
▁Fro	-14.2858
▁Mand	-14.286
▁Gadd	-14.2861
ucks	-14.2862
RT	-14.2864
Vì	-14.2866
ope	-14.2874
▁Sil	-14.2877
▁Loy	-14.2878
,48	-14.2891
ative	-14.2896
enya	-14.2896
ANC	-14.2899
kine	-14.29
shburn	-14.29
▁Sequ	-14.2904
▁Besse	-14.2919
rade	-14.2922
diễn	-14.2927
▁Pel	-14.2929
igai	-14.2931
▁Smil	-14.2935
▁Budw	-14.2935
zuk	-14.2936
rg	-14.2939
hoại	-14.2939
nét	-14.294
ruct	-14.2941
ease	-14.2945
Cô	-14.2946
▁Amr	-14.2946
edy	-14.2948
▁Holla	-14.2959
dell	-14.2959
▁Kem	-14.2963
ody	-14.2967
▁Carre	-14.2969
rete	-14.2969
PER	-14.2971
▁CR	-14.2978
IS	-14.2995
▁rec	-14.3001
▁carb	-14.3001
azari	-14.3004
▁Shim	-14.3009
▁Guer	-14.301
▁Fol	-14.301
any	-14.3021
your	-14.3025
...	-14.3032
▁2,6	-14.3038
ngoại	-14.3046
▁inv	-14.3059
▁Dầ	-14.3059
giả	-14.306
▁Kere	-14.3063
danh	-14.3063
từng	-14.3068
hiểm	-14.3072
icken	-14.3077
four	-14.308
▁Gla	-14.3082
akash	-14.3087
ardi	-14.31
mmer	-14.3103
hese	-14.3107
▁Witte	-14.3111
ppers	-14.3118
tháng	-14.3124
▁Sho	-14.3125
Do	-14.3125
dolph	-14.3133
mark	-14.3147
nside	-14.3149
▁Cata	-14.3152
▁Bụ	-14.3154
▁Pers	-14.3156
▁Test	-14.316
sper	-14.3164
tene	-14.3168
▁TEDxP	-14.3169
nghe	-14.317
▁Cow	-14.3174
tkin	-14.3175
▁Wilde	-14.3183
andra	-14.3183
▁Tran	-14.3193
dai	-14.3194
▁quadr	-14.3196
dev	-14.32
▁Burg	-14.3203
▁Electron	-14.3204
▁Lộ	-14.3205
đồ	-14.3205
▁Nok	-14.3208
rnia	-14.3226
.2	-14.3232
eon	-14.3234
▁Oliv	-14.3238
▁132	-14.324
dương	-14.3245
etw	-14.3247
illie	-14.3248
▁Mec	-14.3261
icodi	-14.3262
▁Bah	-14.3267
vời	-14.3282
ked	-14.3285
agos	-14.3288
aign	-14.3289
▁Đư	-14.329
mund	-14.3291
bé	-14.3305
▁Emilia	-14.3311
▁Liza	-14.3311
olo	-14.3319
▁8.5	-14.3324
hoả	-14.3331
▁Lut	-14.3339
▁cla	-14.3341
flying	-14.3342
▁Brigh	-14.3345
chế	-14.3347
Hae	-14.3348
ucci	-14.3352
alin	-14.3355
▁Rott	-14.3361
bên	-14.3361
▁Soli	-14.3362
▁key	-14.3364
hâu	-14.3369
worth	-14.3371
▁Male	-14.3393
zoo	-14.3393
▁Harar	-14.3394
▁Fant	-14.34
▁un	-14.3406
lke	-14.3408
abha	-14.3412
dưới	-14.3428
▁Rai	-14.3428
▁Acho	-14.3429
▁Gris	-14.343
TAR	-14.3432
ampa	-14.3438
rend	-14.3446
phá	-14.3449
▁hế	-14.345
trea	-14.3451
arko	-14.3452
▁Tho	-14.3453
▁aw	-14.3455
ienne	-14.3459
▁Shia	-14.3465
▁Nik	-14.3472
▁Ado	-14.3473
▁Box	-14.3487
IV	-14.3495
▁Move	-14.3499
▁nhữ	-14.35
nsulin	-14.3501
-7	-14.3505
eyer	-14.3506
▁Vick	-14.351
khoả	-14.3512
nghiên	-14.3517
oạc	-14.3521
nne	-14.3521
ky	-14.3523
Con	-14.3528
uve	-14.3543
hem	-14.3555
▁Copa	-14.3556
cấp	-14.3558
▁Cart	-14.3566
▁Kra	-14.3572
Có	-14.3574
▁136	-14.3578
▁Patti	-14.3583
▁Aka	-14.3587
▁Ima	-14.3588
Th	-14.3591
▁HD	-14.3608
▁Pets	-14.361
▁Meda	-14.3611
oon	-14.362
anan	-14.3621
▁et	-14.3622
rone	-14.3624
▁Dig	-14.3625
2,3,4	-14.3628
rget	-14.3634
racy	-14.3635
olon	-14.3638
kê	-14.3646
restero	-14.3647
lúc	-14.3648
▁McGre	-14.366
▁Wee	-14.366
gắng	-14.3662
erra	-14.3664
▁Acc	-14.3668
▁Arri	-14.3668
▁01	-14.3669
▁Yos	-14.3678
chất	-14.3682
▁Cer	-14.3694
▁Stri	-14.3695
itlin	-14.3698
▁Brei	-14.3699
▁poli	-14.3699
▁Fede	-14.3718
▁graf	-14.3728
inch	-14.3737
▁Carli	-14.3739
arus	-14.374
kav	-14.3751
Sph	-14.3751
.8	-14.3758
▁Prot	-14.3767
odd	-14.3767
▁Bast	-14.3775
lex	-14.3776
▁be	-14.3781
tre	-14.3786
▁quẹ	-14.3795
876	-14.3804
▁Sura	-14.3804
▁Muk	-14.3808
▁Ve	-14.3809
ira	-14.3813
▁Med	-14.3814
▁Ete	-14.3818
mai	-14.3822
▁Calm	-14.3827
ETS	-14.3832
▁Kard	-14.3833
▁Leni	-14.3837
hant	-14.3838
wich	-14.384
▁Digi	-14.3846
rừng	-14.385
▁Tw	-14.385
▁XM	-14.3852
trị	-14.3857
▁Milo	-14.3867
ou	-14.3873
▁Chau	-14.3888
Bedi	-14.3891
Tr	-14.3891
▁Stra	-14.3903
utain	-14.3908
rat	-14.3911
▁Hugh	-14.3912
▁Lot	-14.3912
▁Kub	-14.3914
phòng	-14.3916
▁205	-14.3917
▁Thà	-14.3922
▁vấ	-14.3923
▁Kala	-14.3926
▁Curi	-14.393
▁Seve	-14.3938
fre	-14.3942
▁chấu	-14.3944
▁8.2	-14.3948
▁pati	-14.3954
arco	-14.3956
spera	-14.3968
RAS	-14.3971
▁Kurt	-14.3985
hé	-14.3985
saw	-14.3987
▁Od	-14.3991
▁giấ	-14.3992
Họ	-14.3995
▁prom	-14.3996
giúp	-14.3997
▁hoạc	-14.4
lene	-14.4004
999	-14.4008
hthalate	-14.401
gẫm	-14.401
hãi	-14.4012
▁hoc	-14.4034
iga	-14.404
nstein	-14.4041
uare	-14.4046
▁Nhi	-14.4048
▁Xen	-14.4052
▁Hippo	-14.4058
▁Stat	-14.4059
oud	-14.406
chỉnh	-14.4066
▁Abac	-14.4066
▁3,4	-14.4069
▁Anta	-14.4074
▁MB	-14.4079
▁Nichols	-14.408
anford	-14.4082
ickle	-14.4088
ls	-14.4091
eave	-14.4094
tops	-14.4099
eyes	-14.4101
▁Haro	-14.4107
ota	-14.411
orill	-14.4119
phương	-14.412
▁0.4	-14.4123
tari	-14.4126
▁Lat	-14.4128
▁tanag	-14.4129
sch	-14.4141
▁Moran	-14.4143
gây	-14.4147
▁Pea	-14.4147
hạn	-14.4158
▁Sash	-14.4166
skin	-14.4166
eye	-14.4169
▁183	-14.4173
FAR	-14.4176
▁Kanda	-14.4178
uper	-14.4182
▁Ville	-14.4187
▁Nav	-14.4187
▁Chì	-14.419
cot	-14.4193
▁Not	-14.4205
▁Cle	-14.4211
▁thá	-14.4215
eala	-14.422
sland	-14.4222
▁Obl	-14.4224
▁TEDxPe	-14.4228
▁Bolin	-14.4231
istra	-14.4236
affi	-14.424
sevi	-14.4241
rmal	-14.4244
,25	-14.4248
▁Inc	-14.4266
Conner	-14.4278
▁Sả	-14.4281
oid	-14.4285
itali	-14.429
86	-14.4296
ifi	-14.4299
▁Bọ	-14.4302
ute	-14.4306
later	-14.4307
mash	-14.4313
hurch	-14.4315
▁Fat	-14.4331
lman	-14.4334
▁Lucia	-14.4336
răng	-14.4338
▁fra	-14.4346
CT	-14.4351
nife	-14.4358
ophon	-14.4366
▁Pie	-14.4367
Moral	-14.4369
CK	-14.4375
▁Sel	-14.4381
tech	-14.4382
▁Lưỡ	-14.4387
▁Rei	-14.4389
awa	-14.439
tiến	-14.4392
▁Horn	-14.4399
Nh	-14.4403
▁Gui	-14.4407
giác	-14.4408
▁Laut	-14.441
bal	-14.4414
▁Hung	-14.4416
▁vun	-14.4417
▁3.1	-14.442
▁Rec	-14.4425
1000	-14.4438
▁mố	-14.4442
▁Hara	-14.4442
oyle	-14.4444
▁AN	-14.4446
▁Mom	-14.4449
▁Nort	-14.4454
tư	-14.4471
Ferran	-14.4478
Pe	-14.4488
heikh	-14.4489
chưa	-14.4491
atha	-14.4493
▁Cob	-14.4508
▁Ast	-14.451
ater	-14.4511
ummi	-14.4523
erg	-14.4526
41	-14.4526
liên	-14.4535
mm	-14.4538
▁loá	-14.4541
xuất	-14.4545
▁thiế	-14.455
obal	-14.4552
▁Pu	-14.4553
▁Wak	-14.4557
đừng	-14.4558
ique	-14.456
hocke	-14.4565
▁Choi	-14.457
orm	-14.4571
elen	-14.458
▁Vent	-14.4581
▁2.6	-14.4585
ylan	-14.4591
▁nghiêp	-14.4599
rganiz	-14.4604
▁Fel	-14.4605
tượng	-14.4606
roton	-14.4621
▁rada	-14.4622
fl	-14.4626
▁đôn	-14.4631
arl	-14.4633
▁Bor	-14.4639
▁Kill	-14.4646
raw	-14.465
lton	-14.4651
▁Kris	-14.4653
▁nhiề	-14.4654
tai	-14.4656
Pro	-14.4657
eas	-14.4663
pes	-14.4666
▁Berkl	-14.4667
ụn	-14.4671
1,000	-14.4672
▁Ass	-14.4681
▁Tín	-14.4686
kiểm	-14.469
▁comp	-14.4691
phu	-14.4694
▁Chav	-14.47
▁kung	-14.4702
▁Ox	-14.4704
▁fun	-14.4705
ON	-14.4705
▁dộ	-14.4715
sing	-14.4723
▁Rố	-14.4723
▁BI	-14.4724
EC	-14.4727
đẹp	-14.4729
tto	-14.473
▁pal	-14.4732
fo	-14.4734
lời	-14.4744
fit	-14.4758
Ta	-14.4758
▁Gal	-14.4759
▁Ronn	-14.4765
elling	-14.4766
ears	-14.4767
robot	-14.4767
sava	-14.4767
trái	-14.4769
wed	-14.4769
gina	-14.4773
▁Il	-14.4784
khá	-14.4789
ui	-14.4795
▁mâ	-14.4803
▁IR	-14.4809
▁1,7	-14.4813
nto	-14.4815
OE	-14.4815
▁Kor	-14.4818
Jacob	-14.4822
▁Villa	-14.4825
▁184	-14.4828
▁Scha	-14.4831
▁Lav	-14.485
tiếng	-14.4853
ẽo	-14.4855
▁Quad	-14.4856
▁Ek	-14.4869
▁Đà	-14.4869
ssa	-14.4879
▁ừ	-14.488
▁Capt	-14.4881
▁Nú	-14.4886
ờn	-14.4893
82	-14.4896
▁Bit	-14.4896
đất	-14.4924
nest	-14.4929
imba	-14.4929
aku	-14.493
thuốc	-14.4935
phản	-14.4937
▁plu	-14.4947
Thậ	-14.4951
iya	-14.4953
roy	-14.4957
▁Sander	-14.4957
▁Et	-14.4966
▁Egla	-14.4968
rườ	-14.4968
aven	-14.4973
dự	-14.4979
ddle	-14.4985
▁com	-14.4987
▁del	-14.4992
▁RP	-14.5004
ngea	-14.5004
▁Aud	-14.5005
ube	-14.5011
vil	-14.5013
▁Tur	-14.5013
cific	-14.5017
8000	-14.5031
▁Xo	-14.5033
▁Cư	-14.5034
▁Rene	-14.5058
dal	-14.5062
eral	-14.5066
yar	-14.5076
▁Giacom	-14.5093
pa	-14.5096
▁dọ	-14.5099
▁epi	-14.5105
see	-14.511
bảo	-14.5113
hòn	-14.5118
▁Kall	-14.5119
▁up	-14.5124
▁Bau	-14.5127
rum	-14.513
▁Iss	-14.5138
dee	-14.5138
vena	-14.5139
▁Herc	-14.5146
assel	-14.5149
▁Pre	-14.515
ions	-14.5154
▁styr	-14.5166
IA	-14.5171
▁Pani	-14.5175
uw	-14.5177
aine	-14.5184
▁Hel	-14.5193
▁Til	-14.5204
▁Ten	-14.5209
John	-14.5216
tyle	-14.5216
noff	-14.5221
eena	-14.5227
misin	-14.5233
utz	-14.5235
elman	-14.5242
tiền	-14.5242
▁Won	-14.5247
giữa	-14.5253
hoàng	-14.5253
▁Gur	-14.5277
sting	-14.5277
▁Bushm	-14.528
sex	-14.5287
fing	-14.5288
ucker	-14.5293
ashi	-14.5301
lebr	-14.5303
sling	-14.5308
▁thun	-14.5323
▁Corn	-14.5325
▁Herm	-14.533
izzo	-14.5338
bour	-14.5342
▁Calva	-14.5347
iệng	-14.5348
ual	-14.5356
atur	-14.5357
▁Lye	-14.5359
ruy	-14.536
hại	-14.5371
onzo	-14.5374
Car	-14.5381
▁châ	-14.5397
▁Rams	-14.5402
▁quặn	-14.5407
pho	-14.541
▁321	-14.5413
bb	-14.5414
▁Cons	-14.5421
osp	-14.5428
0-60	-14.5437
▁Pach	-14.5444
MT	-14.5446
Dunn	-14.5461
▁Ail	-14.5467
Arche	-14.5468
ddam	-14.5473
atas	-14.5476
fan	-14.5476
khả	-14.5486
▁5,	-14.5488
▁Margo	-14.5494
kyo	-14.5494
icky	-14.5494
dù	-14.5496
alsa	-14.5497
▁Bull	-14.5499
riti	-14.5504
▁Maf	-14.5505
▁Youngm	-14.5507
▁ac	-14.5511
rad	-14.5511
thers	-14.552
ramen	-14.5527
TH	-14.5532
▁Jimi	-14.5534
▁Dill	-14.5537
wor	-14.5537
ynthe	-14.5538
rak	-14.554
ision	-14.5551
phenol	-14.5551
▁103,0	-14.5551
▁Shar	-14.5552
ques	-14.5555
irma	-14.5581
TEC	-14.5587
▁Phe	-14.559
Kin	-14.5594
unders	-14.5595
▁158	-14.5596
tif	-14.5608
▁zo	-14.5611
▁Vers	-14.5612
▁lớ	-14.5617
Anh	-14.5618
rường	-14.5625
gebo	-14.5627
Ho	-14.5648
nê	-14.5651
uri	-14.5651
▁gor	-14.5656
weise	-14.5661
nata	-14.5672
ming	-14.5676
▁gua	-14.5678
▁Parr	-14.5679
nalis	-14.5682
▁Meh	-14.5685
▁Jov	-14.5686
moth	-14.5686
đơn	-14.5688
▁GP	-14.5691
não	-14.5696
eader	-14.5701
zk	-14.5704
▁Nat	-14.5705
rien	-14.5706
bài	-14.5706
erts	-14.5709
thuế	-14.571
Iraq	-14.571
nka	-14.5725
▁Yen	-14.5732
chiến	-14.5733
Mĩ	-14.5735
Thiên	-14.5735
tập	-14.5739
ribe	-14.5739
mpton	-14.5743
itt	-14.5754
erlin	-14.576
reddi	-14.576
▁Institut	-14.5761
▁nitro	-14.5785
điên	-14.5795
▁sà	-14.5796
olina	-14.5802
sitor	-14.5809
ẳ	-14.581
amire	-14.5811
eus	-14.5813
phạt	-14.5814
kế	-14.5822
iese	-14.583
▁Sem	-14.5833
▁trồ	-14.5835
orphin	-14.5842
▁bẩ	-14.5846
▁Deam	-14.5846
ux	-14.5846
▁chư	-14.5849
xả	-14.5857
yer	-14.586
sản	-14.5865
▁Cell	-14.5867
endu	-14.5878
đặt	-14.5879
▁Kurd	-14.5885
▁232	-14.5893
rive	-14.5895
▁Hadi	-14.5897
150	-14.5899
▁mít	-14.5904
▁cún	-14.5909
▁Pern	-14.5911
▁Stro	-14.5911
RP	-14.5912
rine	-14.5915
hon	-14.5925
Khi	-14.5933
rgus	-14.5946
vẫ	-14.5961
đứng	-14.5975
Brak	-14.5983
▁Gro	-14.5986
0.5	-14.5994
▁Ing	-14.5998
hacker	-14.6015
050	-14.6018
▁RE	-14.6023
akka	-14.6029
▁380	-14.6039
vian	-14.6051
▁Hug	-14.6059
ece	-14.6061
▁Bed	-14.6065
▁Wild	-14.607
yêu	-14.607
Các	-14.6074
▁Stef	-14.6074
▁Regi	-14.6075
xám	-14.6084
▁Guin	-14.6089
▁GC	-14.6089
raf	-14.6091
cy	-14.6092
▁Tas	-14.6095
uster	-14.6098
▁Đơ	-14.6104
▁Baro	-14.6117
ndis	-14.6121
Times	-14.6122
cle	-14.6122
▁Lian	-14.613
esse	-14.6131
ravit	-14.6136
▁Gl	-14.6143
▁mõ	-14.6146
aya	-14.6147
▁ME	-14.6164
ndon	-14.6172
II	-14.6175
ellu	-14.6175
▁Bree	-14.6176
31	-14.6185
IT	-14.6195
TN	-14.6221
idya	-14.6222
nand	-14.6226
▁5500	-14.6228
quy	-14.6229
▁phầ	-14.6231
fat	-14.6245
▁Serb	-14.6251
▁Bala	-14.6262
ambo	-14.6265
▁Nir	-14.6266
ip	-14.6268
Đâ	-14.6271
sách	-14.6278
alo	-14.6279
trix	-14.6283
▁Sti	-14.6284
▁Adri	-14.6285
ván	-14.6286
kistan	-14.6286
▁đẫ	-14.6288
ction	-14.6288
phon	-14.6289
Keys	-14.6299
Jones	-14.6307
vie	-14.6309
ocken	-14.6309
▁Made	-14.6314
▁Just	-14.6318
▁Ari	-14.6318
▁Ruth	-14.6318
rượt	-14.6325
Nế	-14.6331
plane	-14.6332
Well	-14.6334
,19	-14.6335
ings	-14.6338
Ville	-14.6338
▁370	-14.6342
▁Gru	-14.6342
▁Mei	-14.6346
▁Barric	-14.6349
Khan	-14.6351
amps	-14.6351
arap	-14.6353
Tư	-14.6353
▁Eg	-14.6361
sound	-14.6362
anne	-14.6373
III	-14.6377
trả	-14.6379
▁life	-14.6383
Dick	-14.6385
▁lă	-14.6386
Charm	-14.6389
▁Krem	-14.6393
Morin	-14.6395
phẩm	-14.6395
zanne	-14.6395
game	-14.6398
WE	-14.6406
Land	-14.6413
House	-14.6415
4-5	-14.6415
Master	-14.6415
Amsterdam	-14.6416
EPF	-14.6417
▁thượ	-14.6417
Lind	-14.6419
TI	-14.6423
Pilot	-14.6425
Prize	-14.6425
▁Naz	-14.643
Foot	-14.643
▁toé	-14.6432
Quest	-14.6432
Stri	-14.6434
Angel	-14.6435
01	-14.6435
Pack	-14.6441
2014	-14.6443
▁Quen	-14.6443
▁Canal	-14.6445
pháp	-14.6447
Kerry	-14.6447
Girl	-14.6448
osada	-14.6448
ders	-14.645
Atti	-14.645
1978	-14.6451
Corp	-14.6451
▁peni	-14.6451
Dust	-14.6453
Queen	-14.6453
Khali	-14.6455
▁Transi	-14.6456
walk	-14.6457
thân	-14.6459
alact	-14.6461
You	-14.6462
Atlant	-14.6463
▁vect	-14.6469
Carme	-14.6474
Luc	-14.6476
Love	-14.6483
Gen	-14.6488
zu	-14.6497
Now	-14.6505
cuối	-14.6511
top	-14.6512
380	-14.6517
polymer	-14.6525
kon	-14.653
▁hash	-14.6535
▁Dã	-14.6548
▁Copp	-14.6556
pid	-14.6559
enic	-14.6564
lé	-14.6574
▁nghĩnh	-14.6575
obson	-14.6579
Ann	-14.6581
▁fi	-14.6581
cá	-14.6585
alum	-14.6588
▁Dora	-14.6592
radle	-14.6598
wn	-14.6599
▁40000	-14.6603
▁Idea	-14.6605
▁Alexa	-14.6611
▁Berns	-14.6613
elov	-14.6618
nữ	-14.6623
thú	-14.6623
▁AAA	-14.6627
Yo	-14.6627
chơi	-14.6628
GP	-14.6628
▁Lerne	-14.6649
▁Inge	-14.6656
hal	-14.666
▁Sad	-14.6669
▁TEDxMid	-14.6672
oxi	-14.6678
▁70000	-14.668
▁Gust	-14.668
▁Diff	-14.6681
▁Tille	-14.6683
xí	-14.6691
▁MIN	-14.6693
▁320	-14.6696
occu	-14.6701
esters	-14.6709
TER	-14.6709
ngoài	-14.6711
Midwest	-14.6712
▁Abe	-14.6713
▁bằn	-14.6714
đê	-14.6716
ainab	-14.6717
▁Kir	-14.6718
tos	-14.6722
gs	-14.6722
50000	-14.6724
▁850	-14.6724
sso	-14.6726
▁rượ	-14.6726
olida	-14.673
▁Adv	-14.6735
itle	-14.6738
erick	-14.6741
▁Veron	-14.6741
ewis	-14.6742
▁AP	-14.6746
▁280	-14.6754
Meng	-14.6763
FB	-14.6764
lomo	-14.6764
▁Lew	-14.6766
▁60000	-14.6767
▁Hue	-14.6773
icon	-14.6774
arney	-14.6774
igma	-14.6775
▁Stru	-14.6775
biển	-14.6778
gaa	-14.6778
dhek	-14.6779
SEA	-14.678
eland	-14.6791
▁he	-14.6791
▁Appalachia	-14.6792
▁Wel	-14.6792
▁Johan	-14.6794
▁Waldo	-14.6796
west	-14.6796
▁Tea	-14.6801
▁Electr	-14.6805
lio	-14.6807
ader	-14.6807
arke	-14.6808
▁Denisova	-14.6815
lulo	-14.6821
stas	-14.6832
ttf	-14.6833
Tric	-14.6842
▁Dob	-14.6843
wani	-14.6845
▁Bip	-14.6848
sco	-14.6848
▁Boot	-14.6849
▁Somal	-14.685
▁Ow	-14.6852
▁3.0	-14.6854
epo	-14.6854
uis	-14.6856
▁Sahar	-14.686
▁Hazl	-14.686
▁speci	-14.6861
▁Petr	-14.6861
▁CA	-14.6862
▁Tale	-14.6864
▁Dogg	-14.6865
▁Yoc	-14.6868
▁207	-14.687
zzz	-14.687
Sal	-14.6871
▁1.0	-14.6874
▁plexi	-14.6879
▁Abra	-14.6879
LIS	-14.688
olymer	-14.6883
▁Kafk	-14.689
sell	-14.689
ntana	-14.689
erab	-14.689
▁proge	-14.6893
plashy	-14.6896
ilver	-14.6897
▁Quixot	-14.6897
▁Afgh	-14.6897
iyah	-14.6897
khause	-14.6898
rchitectur	-14.6898
track	-14.6898
▁Yugoslav	-14.6898
drenalin	-14.6898
dhis	-14.6899
myloid	-14.6899
▁2,70	-14.6899
Thousand	-14.6899
▁sandw	-14.69
nvestigati	-14.69
▁PAWA	-14.69
▁techno	-14.69
sachusetts	-14.69
▁Kyrgyz	-14.69
▁Raffael	-14.69
Tbilisi	-14.69
atchidananda	-14.69
rhodopsin	-14.69
▁123456	-14.69
▁1982-83	-14.69
▁74.125.226.212	-14.69
▁Apatzi	-14.69
▁Avalokit	-14.69
▁Awesome	-14.69
▁Brancusi	-14.69
▁DaVinc	-14.69
▁Environment	-14.69
▁Fahrenheit	-14.69
▁Feministing	-14.69
▁Fortingall	-14.69
▁Geogre	-14.69
▁Hendrix	-14.69
▁Hewlett	-14.69
▁Hotchkiss	-14.69
▁Humanity	-14.69
▁Hymalaya	-14.69
▁Iliad	-14.69
▁Kashmir	-14.69
▁Macedonia	-14.69
▁Mahishasur	-14.69
▁Oyesola	-14.69
▁Patagonia	-14.69
▁Piazzolla	-14.69
▁Piccard	-14.69
▁Pinnacle	-14.69
▁Polynesia	-14.69
▁Quebec	-14.69
▁Rachmanino	-14.69
▁Rousseff	-14.69
▁Scholars	-14.69
▁Taberna	-14.69
▁aegypti	-14.69
▁ghostbuster	-14.69
▁glucôzơ	-14.69
▁yaodong	-14.69
ooooooo	-14.69
▁Abbott	-14.69
▁Chemistry	-14.69
▁Seventh	-14.69
▁Althusser	-14.69
▁Avidian	-14.69
▁Gulfstream	-14.69
▁Medved	-14.69
▁Raphael	-14.69
▁Yukon	-14.69
▁lucifer	-14.69
iggledy	-14.69
▁BeatJazz	-14.69
▁Cincin	-14.69
▁Olmste	-14.69
▁VocaliD	-14.69
▁probiotic	-14.69
▁Colescott	-14.69
▁Madureir	-14.69
▁freeflying	-14.69
▁synap	-14.69
▁Merced	-14.69
▁1-800-	-14.69
▁Csikszent	-14.69
▁Felix	-14.69
▁Sequoia	-14.69
▁gauge	-14.69
depend	-14.69
▁Hutchinson	-14.69
▁Sparta	-14.69
▁Constantin	-14.69
▁Herculano	-14.69
Shimura	-14.69
▁Festival	-14.69
▁Horizon	-14.69
▁Idiot	-14.69
▁Radiohead	-14.69
▁Warsaw	-14.69
▁white	-14.69
▁McGuire	-14.69
▁geophon	-14.69
▁77,8	-14.69
▁Ebina	-14.69
▁puchu	-14.69
▁ballad	-14.69
▁Méliè	-14.69
▁Aeron	-14.69
hydrat	-14.69
▁Snow	-14.69
▁Alessi	-14.69
▁Beckett	-14.69
▁Potts	-14.69
▁Tsuki	-14.69
▁0,6	-14.69
ulldoze	-14.69
▁Bernadin	-14.69
▁Edgert	-14.69
orrupt	-14.69
▁Shahara	-14.69
▁Friendster	-14.69
▁Yerke	-14.69
▁Ramayan	-14.69
▁Volkswagen	-14.69
▁Elworth	-14.69
▁heart	-14.69
▁Omenet	-14.69
▁Apex	-14.69
▁Purana	-14.69
▁Wikipe	-14.69
▁Indone	-14.69
▁Proct	-14.69
▁Woohoo	-14.69
▁artist	-14.69
▁sulfuric	-14.69
▁Swift	-14.69
▁Méli	-14.69
orldwide	-14.69
▁Delight	-14.69
▁Disabilit	-14.69
▁Sanofi	-14.69
▁pants	-14.69
▁Revolution	-14.6901
▁Josef	-14.6901
▁Gbla	-14.6901
▁Faust	-14.6901
▁appro	-14.6901
▁Aucklan	-14.6901
▁Know	-14.6901
alafel	-14.6901
▁SAGE	-14.6901
▁Sparrow	-14.6901
Dopa	-14.6901
▁4.0	-14.6901
▁Paint	-14.6901
▁Sisyphic	-14.6901
▁Jeopady	-14.6901
▁Shanti	-14.6901
▁Architectur	-14.6901
▁Broca	-14.6901
▁Ribad	-14.6901
▁Starsha	-14.6901
▁Mathew	-14.6901
▁SSRI	-14.6901
▁Asimo	-14.6901
▁Schott	-14.6901
enstock	-14.6902
▁Appro	-14.6902
▁Singing	-14.6902
▁empower	-14.6902
▁FISA	-14.6902
▁Goose	-14.6902
OLO	-14.6902
▁Flame	-14.6902
▁Calder	-14.6902
▁Lichten	-14.6902
▁Pillo	-14.6902
▁Kidman	-14.6902
▁Spok	-14.6902
▁Edge	-14.6902
audo	-14.6902
▁Extrem	-14.6902
▁Earl	-14.6902
▁Amedabad	-14.6902
▁Nescaf	-14.6903
▁paris	-14.6903
▁Sicil	-14.6903
▁Cacbon	-14.6903
▁13.5	-14.6903
negal	-14.6903
▁Hampton	-14.6903
▁Course	-14.6903
▁JET	-14.6904
▁ARV	-14.6904
▁Pesh	-14.6904
alaz	-14.6904
▁zero	-14.6904
▁Solar	-14.6904
▁silde	-14.6905
▁Madur	-14.6905
▁1833	-14.6905
▁Encou	-14.6905
▁Symbi	-14.6906
ulian	-14.6906
▁Quiz	-14.6906
ahab	-14.6906
▁Dietz	-14.6906
▁Cafe	-14.6906
▁graphit	-14.6906
▁Devil	-14.6906
▁2,700	-14.6906
▁Espe	-14.6906
▁Cyber	-14.6906
▁Hyatt	-14.6906
▁FAA	-14.6907
▁build	-14.6907
▁10.3	-14.6907
▁Demos	-14.6907
▁Aldri	-14.6907
▁Barber	-14.6908
▁boomer	-14.6908
▁Néu	-14.6908
▁Bryan	-14.6908
▁Coop	-14.6908
▁granit	-14.6908
▁Gobi	-14.6908
▁Rabbi	-14.6909
▁burgle	-14.6909
▁Comed	-14.6909
▁Baghead	-14.6909
▁Again	-14.6909
aww	-14.6909
▁Industr	-14.691
ừmmm	-14.691
▁Jullia	-14.691
▁ACL	-14.691
▁Morgen	-14.6911
▁Suns	-14.6911
▁Friends	-14.6911
▁fears	-14.6911
▁Break	-14.6912
consin	-14.6912
▁Challenge	-14.6912
nas	-14.6913
0,2	-14.6913
▁Ecoli	-14.6913
Dawson	-14.6913
▁Nickel	-14.6913
Vâng	-14.6913
▁Ful	-14.6913
▁Ince	-14.6913
oneyball	-14.6914
▁Straus	-14.6914
▁.......	-14.6914
▁TEDxK	-14.6914
▁Baku	-14.6914
▁Macro	-14.6915
▁Somer	-14.6915
▁555	-14.6915
▁Cross	-14.6915
▁Jahan	-14.6916
éc	-14.6916
▁Threat	-14.6916
GEN	-14.6917
kiểu	-14.6917
kapi	-14.6917
dorp	-14.6919
▁Googlette	-14.6919
batti	-14.692
▁symb	-14.692
Survey	-14.6921
▁Current	-14.6921
▁parab	-14.6922
▁Pitt	-14.6922
▁Jewis	-14.6922
▁Logar	-14.6923
▁Taz	-14.6923
▁design	-14.6923
▁Myth	-14.6923
▁IIM	-14.6923
▁suw	-14.6924
▁Dead	-14.6924
KE	-14.6924
Ketter	-14.6925
▁Whisk	-14.6925
vention	-14.6925
▁Jero	-14.6925
▁Alon	-14.6925
▁Coder	-14.6925
erox	-14.6925
▁Herald	-14.6926
enbo	-14.6926
0,1	-14.6927
music	-14.6927
▁moneyball	-14.6927
▁Bourne	-14.6927
▁Smoke	-14.6928
NI	-14.6928
mbie	-14.6929
▁Leica	-14.6929
▁zzzz	-14.693
▁Gustav	-14.693
lexiglas	-14.693
eir	-14.693
▁Faree	-14.6931
edes	-14.6932
▁VTA	-14.6934
▁Tinker	-14.6934
▁XVI	-14.6934
atsum	-14.6934
▁Holland	-14.6935
▁Drop	-14.6935
▁Deve	-14.6936
▁Beatbox	-14.6936
▁430	-14.6936
▁neonic	-14.6936
ILL	-14.6937
▁STE	-14.6937
waz	-14.6937
biotic	-14.6938
▁dolla	-14.6938
▁Emine	-14.6939
ssou	-14.6939
▁Coles	-14.6939
▁awe	-14.6939
▁480	-14.694
▁128	-14.6941
embl	-14.6941
▁Richar	-14.6941
▁2.	-14.6942
▁clor	-14.6942
tree	-14.6943
▁Levitt	-14.6945
▁Doggy	-14.6945
gang	-14.6945
idom	-14.6946
iyama	-14.6947
educ	-14.695
▁Oooo	-14.695
estero	-14.6951
▁Shiite	-14.6951
sopr	-14.6951
banes	-14.6952
▁Tippet	-14.6954
▁Flag	-14.6954
▁Indi	-14.6956
ronic	-14.6957
▁Schau	-14.6958
▁Beyon	-14.6958
▁Bors	-14.6959
eligi	-14.6959
▁Blade	-14.6961
Poet	-14.6963
▁xắ	-14.6965
▁Leic	-14.6965
HI	-14.6965
▁Shino	-14.6966
JA	-14.6969
▁Jone	-14.6971
▁Gard	-14.6971
▁Tibetan	-14.6971
▁Asto	-14.6972
▁Keyston	-14.6973
cious	-14.6973
▁Matthews	-14.6974
▁Ausch	-14.6974
▁Lumi	-14.6974
▁Domini	-14.6976
ssic	-14.6978
urch	-14.6978
▁These	-14.6978
▁Katr	-14.6979
▁2200	-14.6979
arine	-14.6981
mus	-14.6981
▁Cass	-14.6982
▁Dominic	-14.6982
Iw	-14.6983
▁Story	-14.6984
▁Enz	-14.6985
▁bắ	-14.6985
▁Abram	-14.6985
▁BLA	-14.6986
▁Didi	-14.6987
moke	-14.6989
▁Pul	-14.6989
cycle	-14.6989
▁Falu	-14.699
▁Kuhn	-14.6991
lter	-14.6993
wire	-14.6995
Chester	-14.6996
artz	-14.6996
▁Ref	-14.6997
washi	-14.6997
Reill	-14.6997
ried	-14.6997
▁Xquang	-14.6998
ich	-14.6998
▁Barney	-14.6999
adhya	-14.7
macul	-14.7
ection	-14.7
▁Hodge	-14.7001
frie	-14.7002
tts	-14.7004
▁Tenzin	-14.7004
▁Film	-14.7006
▁Fleis	-14.7006
▁325	-14.7007
▁Ace	-14.7008
Toshi	-14.701
▁Block	-14.7011
▁Bots	-14.7011
▁Metal	-14.7011
izen	-14.7012
chip	-14.7013
▁Luth	-14.7014
▁Rash	-14.7015
▁Rapa	-14.7015
something	-14.7015
▁Dios	-14.7016
▁Nay	-14.7018
himi	-14.702
ext	-14.7021
▁1.98	-14.7022
pedi	-14.7026
gọt	-14.7026
apen	-14.7027
▁Rigo	-14.7028
▁Ness	-14.703
▁Ep	-14.703
Jay	-14.7031
-193	-14.7032
▁Dome	-14.7032
PR	-14.7033
Quarter	-14.7034
imid	-14.7036
▁221	-14.7037
▁Belg	-14.7038
▁Pere	-14.7038
ammad	-14.704
▁PB	-14.704
mazon	-14.7041
▁Christo	-14.7042
▁Hersh	-14.7045
▁Expla	-14.7045
▁Scotts	-14.7049
▁Wars	-14.7054
▁880	-14.7056
agma	-14.7059
▁Basic	-14.7061
▁some	-14.7061
▁Patk	-14.7063
▁Frac	-14.7066
band	-14.7067
▁Etti	-14.7067
▁SQ	-14.7068
iblio	-14.7069
▁el	-14.707
▁Rab	-14.7072
helma	-14.7073
adem	-14.7073
nef	-14.7075
▁power	-14.7075
▁Espi	-14.7076
FF	-14.7078
▁Trip	-14.708
vệ	-14.708
riq	-14.7083
▁Sale	-14.7085
leigh	-14.7085
▁halo	-14.7086
▁Hil	-14.7089
▁Appre	-14.7091
▁open	-14.7092
mạnh	-14.7092
▁Sindh	-14.7093
▁Orch	-14.7094
▁3,2	-14.7097
▁Books	-14.7098
khám	-14.7099
▁Animali	-14.71
▁1.45	-14.71
eble	-14.7101
heimer	-14.7101
▁WISE	-14.7103
MAX	-14.7108
▁Nord	-14.7109
▁Kahn	-14.711
▁Bạ	-14.711
pian	-14.7119
▁Vision	-14.712
kerman	-14.7124
▁14.7	-14.7126
▁Depo	-14.713
ambridge	-14.713
▁Kamp	-14.7131
lme	-14.7131
dget	-14.7135
▁Gert	-14.7137
▁Manni	-14.7137
adian	-14.7137
▁DA	-14.7137
▁butle	-14.714
▁Auto	-14.7142
▁Orio	-14.7142
Activ	-14.7143
rize	-14.7144
▁Valentine	-14.7145
arawa	-14.7149
Awl	-14.715
▁Banks	-14.7151
arte	-14.7151
err	-14.7154
estra	-14.7155
▁Roa	-14.7158
yn	-14.7164
▁Tour	-14.7171
▁Schoo	-14.7173
▁Mirr	-14.7177
▁Lỗ	-14.7179
▁know	-14.718
▁Montagu	-14.7185
kowi	-14.7187
mes	-14.7188
itzh	-14.719
▁Wooo	-14.7192
buster	-14.7196
leish	-14.7198
xở	-14.7199
ussan	-14.7199
▁corre	-14.7203
kes	-14.7203
▁Rust	-14.7203
ynami	-14.7204
ondo	-14.7204
▁Maden	-14.7206
aylo	-14.7206
,15	-14.7207
▁torti	-14.7209
▁Arca	-14.7212
▁Flan	-14.7214
▁Federi	-14.7216
▁600-	-14.7216
▁Cambrig	-14.7219
▁Yard	-14.7221
▁Rest	-14.7222
fy	-14.7223
lley	-14.7228
▁Communi	-14.723
INI	-14.7243
▁Philipp	-14.7247
▁Gret	-14.7247
agora	-14.7249
▁Noor	-14.7249
otak	-14.7251
oop	-14.7252
▁Fores	-14.7253
▁aaa	-14.7254
enta	-14.7258
▁120.000	-14.7261
▁Miya	-14.7264
▁calor	-14.7265
itter	-14.7265
▁DN	-14.7273
▁Helm	-14.7274
iam	-14.7274
ggy	-14.7274
bos	-14.7275
▁Celt	-14.7275
ocket	-14.7279
nomic	-14.7279
▁Yế	-14.7281
GO	-14.7289
oilo	-14.7297
harm	-14.7297
07	-14.7297
▁Bride	-14.7298
▁Colle	-14.7299
▁Alc	-14.7299
ovac	-14.7301
▁7,	-14.7301
▁Queen	-14.7302
▁tíc	-14.7303
▁Levit	-14.7309
▁Taxi	-14.731
khó	-14.7312
▁trươ	-14.7319
▁Corri	-14.7325
EL	-14.7328
▁mùn	-14.7333
huố	-14.7333
▁Spot	-14.7335
▁15-	-14.7335
▁Speci	-14.7336
▁Gans	-14.7345
ulle	-14.735
▁Kidro	-14.7354
fis	-14.7356
▁GRA	-14.736
▁Glob	-14.7361
oohoo	-14.7363
,80	-14.7363
▁Corv	-14.7364
tev	-14.7364
▁Ooo	-14.7365
▁Bog	-14.7366
CI	-14.7369
iana	-14.737
▁Cate	-14.7372
vet	-14.7374
▁Prosper	-14.7377
▁Fest	-14.7379
▁kur	-14.7382
akou	-14.7384
▁Demo	-14.7384
ull	-14.7387
ummer	-14.7396
rrent	-14.7396
▁Hem	-14.7398
nge	-14.7404
▁Afri	-14.7405
▁Spri	-14.7409
▁Malde	-14.741
alhou	-14.7413
Co	-14.7417
▁TEDxBo	-14.7417
▁dõ	-14.7423
ade	-14.7425
chủ	-14.7426
▁Teno	-14.7431
riba	-14.7433
▁Aww	-14.7436
▁Stev	-14.7444
▁Com	-14.7447
▁III	-14.7447
mburger	-14.7448
-50	-14.7449
▁38,	-14.7451
▁giò	-14.7453
▁Loll	-14.7456
loài	-14.7457
hana	-14.7461
▁Dán	-14.7465
lys	-14.748
ểm	-14.7484
ngôn	-14.7487
isen	-14.7488
agne	-14.7493
flor	-14.7495
▁Yi	-14.7495
nyl	-14.7498
alker	-14.7499
▁dada	-14.75
▁Other	-14.7502
▁Syn	-14.7502
hr	-14.7503
▁2.05	-14.7504
hab	-14.7505
▁Galv	-14.7511
▁Ski	-14.7511
lâu	-14.7514
nối	-14.7514
tche	-14.7517
▁Gom	-14.7525
▁orang	-14.7546
alan	-14.7546
▁Vie	-14.7548
▁WE	-14.7548
▁12-1	-14.755
▁Ache	-14.7552
nors	-14.7553
▁Shee	-14.756
Ra	-14.756
▁Ach	-14.7566
▁perox	-14.7566
9,9	-14.7567
▁Mein	-14.757
▁Hank	-14.7573
ulla	-14.7576
▁nguow	-14.7578
▁6,4	-14.7579
udi	-14.7584
ngels	-14.7585
ei	-14.7587
erunner	-14.7587
▁Hrus	-14.7587
urste	-14.7589
▁ủn	-14.759
▁edit	-14.759
toria	-14.7597
▁mod	-14.7599
anbel	-14.7604
▁Tez	-14.7604
nguyên	-14.7614
▁MoM	-14.7619
61	-14.762
sức	-14.7628
vo	-14.7629
▁Sed	-14.7629
▁Rug	-14.7632
▁Glo	-14.7641
luôn	-14.7642
▁Hop	-14.7645
fire	-14.7647
▁Kurdi	-14.7649
diks	-14.765
dyar	-14.7657
▁Tốn	-14.7659
insto	-14.7659
Tipp	-14.766
▁Baptist	-14.7663
acat	-14.7664
▁Nass	-14.7665
▁Bomb	-14.7666
▁come	-14.7668
▁Mahara	-14.767
▁Angles	-14.7675
gler	-14.7676
ilen	-14.7685
kum	-14.7686
▁glia	-14.769
ady	-14.7695
▁spa	-14.7696
tfield	-14.7696
▁Sac	-14.7701
▁Garc	-14.7702
▁8,	-14.7712
▁Guid	-14.7713
▁Shil	-14.7716
▁Schwe	-14.772
utter	-14.7723
▁Soc	-14.7724
Gri	-14.7734
ries	-14.774
▁Explo	-14.7741
▁Hack	-14.7742
amia	-14.7744
▁Fan	-14.7744
aldin	-14.7749
speak	-14.7751
▁Cen	-14.7751
addin	-14.7756
▁Blo	-14.7757
▁trố	-14.776
-80	-14.7764
▁Land	-14.7776
dựng	-14.7785
aci	-14.7787
▁24-	-14.7787
lling	-14.7789
tate	-14.7789
air	-14.779
▁Instr	-14.779
tiêu	-14.7794
▁Bez	-14.7805
▁Mạn	-14.7807
▁HM	-14.7808
chí	-14.7811
▁Chee	-14.7814
▁Starr	-14.7821
▁cell	-14.7828
ocke	-14.783
▁Herr	-14.7833
aille	-14.784
utan	-14.7841
▁cõ	-14.7844
▁Ghan	-14.785
▁Limburg	-14.7851
trol	-14.7865
arks	-14.7872
lett	-14.7878
▁Masse	-14.7885
kyd	-14.7886
▁sky	-14.7888
raig	-14.7894
▁Senge	-14.7903
▁Mie	-14.7903
orda	-14.7905
▁Veld	-14.7906
Sens	-14.7907
atric	-14.7908
bali	-14.791
nhập	-14.7916
▁Pare	-14.7918
ille	-14.7929
arle	-14.793
TED	-14.7937
▁Fram	-14.7938
Ship	-14.7941
gắm	-14.7946
ortal	-14.7955
MI	-14.7957
ason	-14.797
nbiot	-14.7972
▁SV	-14.7973
▁Bland	-14.7975
ouble	-14.7975
▁nhặn	-14.7978
▁Wind	-14.799
▁Schm	-14.799
xanh	-14.7991
▁Bis	-14.7994
▁trans	-14.8003
CE	-14.8003
▁Tah	-14.8006
▁Thoại	-14.8012
yll	-14.802
▁McG	-14.8026
▁Sva	-14.803
▁Bl	-14.8036
mber	-14.8037
ishn	-14.8039
▁12.5	-14.8041
▁Econom	-14.8054
etan	-14.8065
▁Albe	-14.8067
lass	-14.8071
chỗ	-14.8071
tame	-14.8073
▁Comput	-14.8075
pkins	-14.8076
▁Prit	-14.8076
pal	-14.8081
uzz	-14.8092
▁Sis	-14.8094
▁Conno	-14.8094
▁Eye	-14.8095
▁Mendel	-14.8098
▁GM	-14.8101
▁Wann	-14.8102
hóng	-14.8106
aust	-14.8108
▁vàn	-14.8116
niệm	-14.8116
ugas	-14.8121
▁Neu	-14.8122
chống	-14.8123
things	-14.8124
▁Lụ	-14.8125
▁KH	-14.813
▁Hass	-14.8138
scher	-14.8139
aldi	-14.814
▁Ak	-14.814
arbon	-14.8142
tsma	-14.8145
oocm	-14.8149
gami	-14.8152
▁Đổ	-14.8153
File	-14.8157
andor	-14.8159
nness	-14.8169
▁Roh	-14.8178
▁Institu	-14.8181
▁Dori	-14.8183
olosse	-14.8187
erde	-14.8188
▁Lech	-14.8188
▁PJ	-14.8189
▁hiễu	-14.819
quyền	-14.8198
▁Nas	-14.8204
234	-14.8205
▁PL	-14.8208
khí	-14.8216
▁sex	-14.8222
lập	-14.8223
đấy	-14.8238
ctoria	-14.8239
▁Rog	-14.8245
cid	-14.8255
tài	-14.8256
rov	-14.8261
kus	-14.8267
izon	-14.827
▁Kee	-14.8275
rúc	-14.8275
▁quart	-14.8277
▁oz	-14.828
▁Riv	-14.8292
▁track	-14.8292
nsen	-14.8294
SI	-14.8303
hans	-14.8303
▁Gorta	-14.8307
▁lị	-14.8314
▁24.	-14.8316
ierra	-14.8318
feed	-14.8319
rò	-14.8323
▁Hydra	-14.8326
▁Joes	-14.834
zzol	-14.8346
▁tiệ	-14.8346
▁Kun	-14.8349
wei	-14.835
▁bái	-14.835
pirit	-14.8351
afal	-14.8353
▁12,5	-14.8355
▁Pud	-14.8361
gari	-14.8362
Aid	-14.8362
lende	-14.8368
▁Baf	-14.8369
lapto	-14.8371
80.000	-14.8383
▁Duy	-14.8385
rtz	-14.8395
eney	-14.841
▁đù	-14.8432
▁paste	-14.8433
lay	-14.8442
ny	-14.8444
bỏ	-14.8444
lap	-14.8449
▁Tier	-14.8449
ynsk	-14.8451
▁Jeev	-14.8463
hildhood	-14.8473
▁Masa	-14.848
LB	-14.8484
iva	-14.8485
▁Yama	-14.8494
▁Shen	-14.8498
▁Bơ	-14.8499
▁Knu	-14.8506
NE	-14.8507
kina	-14.8518
arz	-14.8521
▁Ind	-14.8529
morph	-14.8533
aks	-14.8533
96	-14.8535
kiến	-14.8537
▁quyề	-14.8539
chức	-14.8541
atti	-14.8546
AND	-14.855
chiế	-14.8553
quốc	-14.8554
aha	-14.8556
▁Mone	-14.8559
▁bale	-14.8559
04	-14.8562
▁Sap	-14.8565
▁Fee	-14.8571
56	-14.8573
▁Musta	-14.8575
orner	-14.8582
hope	-14.8585
▁Ryu	-14.8593
odh	-14.8598
Ride	-14.8603
▁Alv	-14.8607
clus	-14.8611
Tro	-14.862
▁Xan	-14.8621
▁Shang	-14.8626
come	-14.8639
9.5	-14.8641
say	-14.8641
oux	-14.8644
cDonald	-14.8646
▁SG	-14.8659
▁Pam	-14.8662
▁Goe	-14.8663
rie	-14.8663
▁nhầ	-14.8668
▁Woff	-14.8679
▁Khe	-14.8682
▁Niu	-14.8697
ddis	-14.8699
văn	-14.87
▁cã	-14.8711
chọn	-14.8713
▁Kwa	-14.8715
▁3,6	-14.872
▁Trini	-14.8721
osa	-14.8724
tional	-14.8747
tine	-14.875
▁Orw	-14.8751
yanu	-14.8759
▁pali	-14.8761
dni	-14.8771
▁9.5	-14.8776
ramer	-14.8795
giản	-14.8797
▁androsteno	-14.8801
medabad	-14.8804
ric	-14.881
▁Lenn	-14.8811
▁Lockh	-14.8812
ket	-14.8817
hampion	-14.882
▁TEDxC	-14.8821
▁Lali	-14.8824
▁Rambl	-14.8825
▁gắ	-14.8828
mặc	-14.8829
tên	-14.8831
cott	-14.8834
cứ	-14.8844
.1	-14.885
ombe	-14.8861
0000	-14.8868
▁Hub	-14.8871
▁Domi	-14.8884
▁đượ	-14.8884
alee	-14.8896
▁Ama	-14.89
▁Nu	-14.8921
ican	-14.8921
▁Conra	-14.894
hã	-14.8945
eder	-14.895
atu	-14.8951
▁Sek	-14.8958
pati	-14.8967
ầ	-14.8975
dụ	-14.8975
▁Maha	-14.8977
▁Lowe	-14.8985
iero	-14.899
cio	-14.899
căng	-14.8995
phố	-14.8997
▁khẳn	-14.8999
opon	-14.9004
afia	-14.9004
etri	-14.9013
xing	-14.9014
acy	-14.9025
styren	-14.9035
▁Comm	-14.9044
yte	-14.9045
anks	-14.9047
▁Sla	-14.9055
▁Kru	-14.9059
asia	-14.9061
▁wil	-14.9062
4,16	-14.9065
tole	-14.9066
union	-14.9072
osling	-14.9081
4.000	-14.9084
▁Ins	-14.9087
▁But	-14.9095
dak	-14.91
elf	-14.91
▁tể	-14.9106
▁Jao	-14.9114
orit	-14.9115
enheim	-14.9116
risto	-14.9118
unity	-14.9121
▁3.	-14.913
sitan	-14.9138
anger	-14.914
tăng	-14.9146
▁Scr	-14.915
cKin	-14.9151
range	-14.9156
oni	-14.9161
▁191	-14.9167
pri	-14.9179
LP	-14.9182
▁siê	-14.9195
▁Cai	-14.9198
astie	-14.9198
eud	-14.9227
mod	-14.9236
alen	-14.9242
rairie	-14.9248
aat	-14.9261
Cru	-14.928
equi	-14.9284
▁Vắc	-14.9285
▁AL	-14.9292
kể	-14.9303
nhiễm	-14.9306
Bri	-14.932
amago	-14.9321
iet	-14.9323
▁Carry	-14.9324
2,2	-14.9325
icha	-14.9331
CHO	-14.9336
▁Part	-14.9338
apoli	-14.9344
▁Cra	-14.9349
ast	-14.9353
rừ	-14.9353
rover	-14.9364
arss	-14.9375
ils	-14.9385
▁Bai	-14.9388
soát	-14.9391
RED	-14.9395
▁Pett	-14.9398
▁Tota	-14.9405
▁200-	-14.9407
ipi	-14.9408
đâu	-14.9409
▁MCA	-14.9411
▁Maur	-14.9412
you	-14.942
led	-14.9427
elop	-14.9428
glu	-14.9431
tting	-14.9433
ammon	-14.9433
hell	-14.9439
▁Ide	-14.9439
▁Marqu	-14.9441
ibe	-14.9454
cles	-14.9466
xuống	-14.9468
▁quăn	-14.947
bea	-14.9474
rê	-14.9485
gười	-14.9487
esa	-14.9488
aron	-14.9491
▁khè	-14.9505
▁Sunda	-14.9507
Xi	-14.9514
▁đặ	-14.9517
▁Apar	-14.9519
entine	-14.9528
▁Chớ	-14.953
ICA	-14.9536
alani	-14.9537
dit	-14.9539
▁Rocki	-14.9554
dar	-14.9555
ippoc	-14.9567
onven	-14.9574
đen	-14.958
ogart	-14.9584
▁Sung	-14.9595
▁Ego	-14.9597
agna	-14.9603
▁Buchwa	-14.9606
alif	-14.9609
uso	-14.961
ema	-14.9616
▁ambi	-14.9616
Leader	-14.9619
uo	-14.9621
▁sea	-14.9631
ffe	-14.9631
▁Mote	-14.9639
ous	-14.9647
▁Lue	-14.9648
erner	-14.9652
▁Gat	-14.9655
▁Silve	-14.966
icket	-14.9667
▁TR	-14.9671
sar	-14.9696
▁Chem	-14.9698
quen	-14.9702
rter	-14.9708
wai	-14.9715
akar	-14.972
đánh	-14.972
thị	-14.9721
▁Bunn	-14.9722
AB	-14.9734
▁Sá	-14.9739
elmon	-14.974
▁Giz	-14.9744
dala	-14.9746
hoát	-14.975
▁Manc	-14.9756
phong	-14.9761
xco	-14.9766
ib	-14.9768
trang	-14.9771
gsta	-14.9783
▁kilog	-14.9786
rhiz	-14.9789
atri	-14.9804
onel	-14.9805
DW	-14.9811
artner	-14.9812
arov	-14.9821
owl	-14.9824
▁Ade	-14.9831
ugu	-14.9831
▁7.9	-14.9834
▁Rowe	-14.985
loo	-14.9851
uros	-14.9852
hoă	-14.9853
▁vư	-14.9856
illings	-14.9857
Who	-14.9864
ffer	-14.9866
gawa	-14.987
ouve	-14.9876
▁TI	-14.9876
HA	-14.9882
bào	-14.9885
▁Ani	-14.9887
rsing	-14.9888
urga	-14.9889
avan	-14.9911
thuyết	-14.9914
khoá	-14.9919
▁Rede	-14.9922
BS	-14.9922
▁rá	-14.9923
▁nể	-14.9925
suy	-14.9927
rode	-14.9932
nell	-14.9948
tee	-14.9952
kỳ	-14.9958
▁Bing	-14.9959
▁1,75	-14.9962
▁Airl	-14.9963
▁Plat	-14.9968
khu	-14.997
nửa	-14.9981
▁Cay	-14.9986
▁sod	-14.9987
sàng	-14.9992
dari	-14.9998
ún	-15.0008
alds	-15.0014
quanh	-15.0014
pr	-15.0014
aton	-15.0016
xơl	-15.0026
hạ	-15.0029
▁Emme	-15.0029
▁Suri	-15.0033
▁că	-15.0041
ptic	-15.0044
▁Ranu	-15.0052
Chỉ	-15.0054
▁Wen	-15.0056
▁wir	-15.0074
▁Eug	-15.0076
dis	-15.0076
lom	-15.0081
▁fr	-15.0093
aker	-15.0098
chút	-15.01
NAS	-15.0106
▁but	-15.011
▁Schad	-15.0127
đạo	-15.013
wis	-15.0139
iss	-15.0147
▁Jum	-15.0148
creen	-15.0149
tàu	-15.0153
lí	-15.0153
hang	-15.0158
von	-15.0168
asel	-15.017
aprico	-15.0173
▁TEDxTe	-15.0179
▁Ramo	-15.0181
dic	-15.0182
ntoni	-15.0183
▁Schu	-15.0183
egen	-15.0183
Pin	-15.019
pines	-15.0196
osov	-15.02
ebra	-15.0218
▁Shan	-15.022
-60	-15.0236
7.8	-15.0239
ashe	-15.0244
▁Fue	-15.0259
tt	-15.0263
enber	-15.0263
vô	-15.0263
thy	-15.0272
eth	-15.0274
allo	-15.0279
ichi	-15.0296
PN	-15.0304
ize	-15.0313
pressa	-15.0321
lfe	-15.0333
nhanh	-15.0346
bạo	-15.0348
lắm	-15.0361
▁Mok	-15.0363
▁Wat	-15.0365
phép	-15.0373
count	-15.0373
uddi	-15.0382
▁hó	-15.0385
app	-15.04
zs	-15.0401
udor	-15.0407
nhóm	-15.0408
ires	-15.0408
180	-15.041
▁Iri	-15.0417
▁Tut	-15.0419
▁Blan	-15.042
atte	-15.0427
dịch	-15.0427
gón	-15.044
vai	-15.0447
enni	-15.0472
ener	-15.0474
ilee	-15.0486
uộn	-15.049
▁Sli	-15.0502
▁Mal	-15.0502
0,7	-15.0504
sberg	-15.0506
oby	-15.0532
▁lĩ	-15.0539
▁Mea	-15.0541
▁Past	-15.0551
ướn	-15.0552
enet	-15.0553
lum	-15.0556
Berr	-15.0557
efly	-15.0559
▁Đò	-15.0561
hìm	-15.0563
ogad	-15.0573
▁ele	-15.0575
▁Colt	-15.0585
▁TEDxV	-15.0585
tử	-15.0586
▁Schr	-15.0586
rang	-15.0586
dot	-15.0605
ista	-15.0618
zz	-15.0624
andr	-15.0628
-4	-15.063
▁AAAA	-15.0633
corti	-15.0667
itche	-15.0672
▁Cann	-15.0684
gặp	-15.0687
▁Eba	-15.069
Được	-15.0693
▁Din	-15.0693
anes	-15.0694
lanc	-15.0698
hạt	-15.0699
nguồn	-15.0701
atou	-15.0703
omba	-15.0724
erie	-15.0724
shal	-15.0725
Thế	-15.0733
rzego	-15.0734
màu	-15.0741
plat	-15.0741
ewa	-15.0744
auri	-15.0751
aimoni	-15.0755
thêm	-15.0768
▁Viol	-15.0773
▁Moni	-15.0781
ant	-15.0783
ôz	-15.0784
Tuy	-15.0787
▁Dil	-15.0813
▁Tippe	-15.0825
ndor	-15.0835
oay	-15.084
▁muố	-15.0853
inse	-15.0854
▁hec	-15.086
hác	-15.087
bec	-15.0873
hó	-15.0874
Nam	-15.0884
quo	-15.0888
▁80,	-15.0893
▁Wins	-15.09
▁Exp	-15.0903
▁wad	-15.0904
iske	-15.0906
thalate	-15.0909
▁ARPA	-15.0922
▁Sato	-15.0933
▁Sib	-15.0934
▁xư	-15.0937
xen	-15.0937
▁Hah	-15.0939
bomb	-15.0941
▁Pall	-15.0949
▁Spel	-15.0957
St	-15.096
Pinn	-15.0972
Balla	-15.0974
dus	-15.0984
lace	-15.0987
▁1,25	-15.0991
xác	-15.1008
▁9.	-15.1012
los	-15.1026
Qua	-15.1034
dạng	-15.104
hart	-15.1043
▁Fay	-15.1051
▁Alvi	-15.1051
ừu	-15.1057
▁Let	-15.106
tis	-15.1067
▁Holm	-15.1068
▁Bam	-15.1074
iế	-15.1082
▁Mr	-15.1091
ulin	-15.1091
quay	-15.1104
uệ	-15.1112
vọng	-15.1128
bl	-15.1144
mơ	-15.1153
crate	-15.1167
ble	-15.1175
▁hỏ	-15.1175
▁ri	-15.1183
▁photos	-15.119
etric	-15.1191
udio	-15.1197
zl	-15.1201
▁Flu	-15.1214
tone	-15.1216
▁Step	-15.1225
iten	-15.1229
,7	-15.1231
opa	-15.1247
EA	-15.125
AX	-15.1255
Roberts	-15.1265
toma	-15.1276
▁aa	-15.1277
arge	-15.1278
▁4,9	-15.128
uer	-15.128
ned	-15.129
arts	-15.1291
ruel	-15.1297
rain	-15.1304
▁Greenw	-15.1305
▁Ex	-15.1308
unner	-15.1313
lei	-15.1315
,18	-15.1316
mple	-15.1321
▁Kristi	-15.1325
ype	-15.1326
owlin	-15.133
billi	-15.133
ied	-15.1334
randi	-15.1337
▁lác	-15.1347
ember	-15.135
ME	-15.135
isle	-15.1354
Bắc	-15.1362
vùng	-15.1364
▁Hob	-15.1367
rộm	-15.1371
▁Algo	-15.1375
emia	-15.1376
linh	-15.1381
rợ	-15.1385
rest	-15.1404
▁Dicks	-15.1409
ởn	-15.1409
▁gẫ	-15.1419
▁Elli	-15.1424
nches	-15.1425
nnell	-15.1429
▁bướ	-15.1456
▁Goll	-15.1458
kipedia	-15.1461
vực	-15.1467
▁med	-15.1468
olin	-15.1473
nzi	-15.1488
thương	-15.1491
đóng	-15.1494
cảnh	-15.1519
ig	-15.152
emark	-15.1523
syl	-15.1536
hạm	-15.1539
affo	-15.1543
▁Hest	-15.155
▁Goa	-15.1558
▁Giam	-15.1559
nar	-15.1569
Gil	-15.1582
trò	-15.1584
đỏ	-15.1601
handra	-15.1609
oble	-15.1614
▁kin	-15.1629
aim	-15.1633
llik	-15.1642
ibo	-15.1642
▁Waterm	-15.1651
▁Dono	-15.1665
▁lạp	-15.1665
giỏi	-15.1683
ugw	-15.1688
▁stone	-15.1693
fen	-15.1696
ulph	-15.1698
▁Wan	-15.1712
argi	-15.1717
▁Revi	-15.1721
unka	-15.1722
hắt	-15.1727
pple	-15.1727
veni	-15.1739
▁Pee	-15.1746
iped	-15.1751
Mobil	-15.1767
càng	-15.1774
Từ	-15.1776
idi	-15.1782
▁ró	-15.1782
▁Jar	-15.1784
rene	-15.1797
▁trũ	-15.1798
azil	-15.1799
▁Khuy	-15.1808
VA	-15.1818
đàn	-15.182
▁Geni	-15.182
ashen	-15.1835
Cả	-15.1841
ames	-15.1846
đá	-15.1868
alms	-15.1874
khoản	-15.1877
giông	-15.1878
pas	-15.1886
etrics	-15.1897
▁Phill	-15.19
tete	-15.1904
▁quẫn	-15.1905
rop	-15.1918
▁Rin	-15.1953
ioc	-15.196
bố	-15.1961
▁got	-15.1963
etty	-15.1964
▁0.9	-15.197
▁Meth	-15.1971
doc	-15.1972
ngal	-15.1976
ssi	-15.1977
ntrea	-15.1982
fiz	-15.1982
phía	-15.1984
tsb	-15.1989
vĩ	-15.1993
chấm	-15.1993
phim	-15.1994
▁Webs	-15.1995
rdo	-15.1998
lẽ	-15.2001
▁Hors	-15.2006
ckenber	-15.2025
ozen	-15.2036
ken	-15.2038
cực	-15.2042
Kh	-15.2044
▁Teen	-15.2044
▁Delf	-15.2045
▁Mov	-15.2048
latt	-15.2059
rizz	-15.2064
assis	-15.2069
stian	-15.2072
sĩ	-15.2077
sma	-15.2077
vera	-15.2078
shan	-15.2079
▁chỏ	-15.2105
▁Jet	-15.2109
nè	-15.211
▁3-	-15.2112
▁Og	-15.2127
9.7	-15.2128
đoạn	-15.2132
sơ	-15.214
▁khoong	-15.2142
sulin	-15.2147
das	-15.217
oạ	-15.217
lumin	-15.2175
arsh	-15.2177
abb	-15.2184
biên	-15.2189
----	-15.2191
▁boog	-15.2191
bbe	-15.2196
sher	-15.2202
eft	-15.2203
ophoni	-15.2204
▁182	-15.2221
▁xoan	-15.2222
ghế	-15.2223
▁Abi	-15.2225
gã	-15.2226
ếng	-15.2227
Tron	-15.2242
ptop	-15.2243
▁6.	-15.226
▁hú	-15.228
▁Đê	-15.2282
▁Wilb	-15.2286
mming	-15.2293
tah	-15.2295
▁Reu	-15.2296
▁Niki	-15.2303
TR	-15.2307
andal	-15.2309
▁Link	-15.231
bson	-15.2313
vụ	-15.2314
mẹ	-15.2317
Cho	-15.232
▁lạn	-15.2321
hậu	-15.2331
▁Mỉ	-15.2338
bie	-15.234
eger	-15.2343
eb	-15.2347
▁Int	-15.2352
Gi	-15.2354
duy	-15.2361
▁Fore	-15.2363
imer	-15.2369
▁oát	-15.237
ebre	-15.237
▁Jok	-15.2376
▁Sein	-15.2381
▁Roch	-15.2404
toco	-15.2405
STA	-15.241
▁Kami	-15.2411
dland	-15.2414
gra	-15.242
ios	-15.2421
ditor	-15.2422
delai	-15.2431
lovi	-15.2432
báo	-15.2432
ranto	-15.2438
phen	-15.2448
▁lợ	-15.2455
▁Nar	-15.2459
,17	-15.2466
ape	-15.2468
Quốc	-15.248
▁catal	-15.2486
dow	-15.2499
unge	-15.2501
▁pheno	-15.2507
tục	-15.2508
hồ	-15.2535
▁Vò	-15.2547
aris	-15.2561
▁nư	-15.2565
coli	-15.2571
Damn	-15.2571
▁Liq	-15.258
▁1,9	-15.2591
▁Jul	-15.2607
tho	-15.263
lặng	-15.2632
▁Lul	-15.2632
▁tuyệ	-15.2649
iba	-15.2651
peri	-15.2651
▁Tou	-15.2652
vòng	-15.2658
ori	-15.266
▁Coleri	-15.2683
then	-15.2685
sát	-15.2685
moon	-15.2694
DR	-15.2697
rn	-15.2702
▁153	-15.2703
hole	-15.2707
luận	-15.2724
▁Nướ	-15.2733
▁Cop	-15.2739
doni	-15.2748
nte	-15.2751
abble	-15.2754
▁mor	-15.2757
vega	-15.2774
▁Att	-15.2785
▁Hobs	-15.2787
rea	-15.2806
▁Dod	-15.2808
ting	-15.2809
uze	-15.2811
▁Giã	-15.2814
nhắc	-15.2832
▁Heli	-15.2833
Jo	-15.284
▁Jacqu	-15.2842
▁Hock	-15.2842
zil	-15.2848
▁miện	-15.2853
caba	-15.2859
asy	-15.286
aff	-15.2865
gử	-15.2878
eston	-15.288
capri	-15.2881
prin	-15.2883
caro	-15.2905
loon	-15.2905
iche	-15.2909
▁Cat	-15.291
▁Blain	-15.2914
nhớ	-15.2932
web	-15.2936
anop	-15.2941
stair	-15.2946
uxơ	-15.2949
oàng	-15.2951
cli	-15.2971
▁Pay	-15.2976
▁Age	-15.298
xu	-15.2988
ecto	-15.2999
chet	-15.3001
ersh	-15.301
SCI	-15.3017
▁Trọn	-15.3023
lein	-15.3029
hor	-15.3046
hev	-15.3051
05	-15.3058
isse	-15.3081
▁đí	-15.3089
rif	-15.309
▁xă	-15.3095
riệu	-15.3097
cây	-15.3099
chú	-15.3099
ms	-15.3101
▁Maud	-15.311
▁chún	-15.3111
mở	-15.3113
▁carbo	-15.3117
issa	-15.312
dorf	-15.3126
anca	-15.3127
-30	-15.3131
hah	-15.3132
▁â	-15.3133
asili	-15.3134
▁Bad	-15.3148
cred	-15.3164
▁EO	-15.3167
▁vase	-15.3169
rous	-15.3171
▁androsten	-15.3174
▁Nya	-15.3182
Đức	-15.319
▁nghiệ	-15.3196
880	-15.3213
▁Austr	-15.3235
dữ	-15.3239
▁rệ	-15.3256
▁Feu	-15.3261
▁Mut	-15.3262
ub	-15.3262
ambur	-15.328
▁Bow	-15.3283
SX	-15.3316
Pháp	-15.3324
▁Ps	-15.3334
▁Carri	-15.3347
giảm	-15.3357
rito	-15.3357
tomo	-15.3359
hàn	-15.3361
nhựa	-15.3363
Penn	-15.3368
▁Tudo	-15.3369
▁Easter	-15.337
phí	-15.338
▁Neuro	-15.3388
đe	-15.3409
rinh	-15.3417
bra	-15.342
spiri	-15.3423
▁dề	-15.3439
▁Butt	-15.3449
▁Pass	-15.345
cket	-15.345
ramm	-15.3463
Người	-15.3466
250	-15.3478
kiếm	-15.3489
▁Malt	-15.349
▁han	-15.3498
4,5	-15.3501
▁vươ	-15.351
▁Tiê	-15.3513
thầy	-15.3519
olum	-15.3522
tosh	-15.3525
ras	-15.354
olbe	-15.3543
▁trâ	-15.355
teri	-15.3566
▁organi	-15.3568
Gra	-15.3569
ski	-15.3575
▁181	-15.3581
tổ	-15.3585
dài	-15.359
chân	-15.3613
▁Cala	-15.3618
dsor	-15.3624
grit	-15.3629
▁2,40	-15.363
rip	-15.3632
nam	-15.3638
tích	-15.364
alka	-15.364
trăm	-15.365
like	-15.365
uda	-15.3652
▁Nề	-15.3658
▁Stei	-15.3667
thư	-15.3669
vậ	-15.3675
▁Tus	-15.3684
ngữ	-15.3695
lb	-15.3699
hữ	-15.37
ifie	-15.3701
kha	-15.3708
sof	-15.3743
▁Arn	-15.3744
AMP	-15.3751
uố	-15.3756
▁Hiế	-15.377
rõ	-15.3771
anny	-15.3784
iko	-15.3796
▁tồ	-15.3797
zy	-15.3799
thôi	-15.3807
olla	-15.3817
▁myc	-15.3826
avel	-15.3834
▁Yar	-15.3835
▁Ty	-15.3838
▁Jua	-15.3843
▁Dio	-15.387
▁Tombs	-15.3873
mấy	-15.3884
▁Berne	-15.3894
ela	-15.3908
rne	-15.3916
eer	-15.3923
▁Coro	-15.3936
▁Steinbe	-15.3938
đình	-15.3951
▁Phillipp	-15.3959
AJ	-15.3969
▁99.	-15.3977
▁gigab	-15.398
đầy	-15.3989
đố	-15.4002
bước	-15.4011
spin	-15.4022
chán	-15.4029
▁Vaccin	-15.403
aca	-15.4031
Bat	-15.4032
▁gó	-15.4037
time	-15.4039
▁Iq	-15.4051
giao	-15.406
rden	-15.4062
▁din	-15.4066
▁Hos	-15.4067
▁Ey	-15.4073
stor	-15.4074
▁Thô	-15.4075
San	-15.4076
ecl	-15.4082
thanh	-15.4093
▁Terr	-15.4093
đôi	-15.4101
▁Ngừ	-15.4103
▁Pann	-15.4119
CS	-15.4121
dục	-15.4129
▁loga	-15.4141
ppet	-15.4167
uart	-15.4169
tral	-15.4177
▁Persi	-15.4183
agas	-15.4185
▁Hoan	-15.4186
▁Roberts	-15.4193
bạch	-15.4213
hause	-15.4214
Ply	-15.4217
okont	-15.4219
rí	-15.4221
abs	-15.423
▁Arte	-15.423
nald	-15.4238
thuộc	-15.424
pack	-15.4241
riêng	-15.4241
asca	-15.4246
ntal	-15.4248
236	-15.4251
axi	-15.4261
▁Ore	-15.4262
amme	-15.4263
iqui	-15.4263
▁Char	-15.4264
▁Lư	-15.4264
▁Rotte	-15.4287
▁Grande	-15.429
▁ré	-15.4299
Kenya	-15.4307
London	-15.4316
sko	-15.4325
toán	-15.4331
▁điể	-15.4331
bụng	-15.4336
tiêm	-15.4344
▁McN	-15.4345
▁diệ	-15.4346
▁Mende	-15.4346
SIC	-15.4357
▁Sm	-15.4367
▁Koo	-15.4367
ankar	-15.4372
▁thoán	-15.4388
kis	-15.439
▁Spac	-15.4393
8,9	-15.4407
▁Mull	-15.4408
imble	-15.441
cept	-15.441
▁Kail	-15.4413
▁Ort	-15.4414
Baptis	-15.4419
▁Arc	-15.4424
Paul	-15.4425
zeera	-15.4431
▁178	-15.4434
▁phosph	-15.4441
192	-15.4443
trời	-15.4449
0-30	-15.4458
trai	-15.4467
▁LO	-15.4474
▁Cand	-15.448
▁Palt	-15.4481
dễ	-15.4487
omor	-15.4488
▁Rah	-15.4493
uste	-15.4502
▁RC	-15.451
diện	-15.4514
▁Lướ	-15.4534
▁chiề	-15.4534
▁MS	-15.4541
lya	-15.4549
spla	-15.455
AS	-15.4555
đủ	-15.4559
Giả	-15.4563
aaa	-15.4567
trải	-15.4574
lướt	-15.4582
giơ	-15.4583
▁Compu	-15.4586
hm	-15.4592
trưa	-15.4592
avor	-15.4602
rộng	-15.462
4-6	-15.4644
▁Hawk	-15.4657
bla	-15.4659
trance	-15.466
▁Coba	-15.466
▁ge	-15.4665
ohan	-15.4673
▁bee	-15.4691
▁neur	-15.4696
52	-15.4701
phục	-15.4702
hul	-15.4713
etter	-15.4723
AF	-15.4724
ucat	-15.4742
▁ôx	-15.4742
slin	-15.4748
▁Giỏ	-15.4757
▁Chắn	-15.4759
vũ	-15.4761
ngh	-15.4767
itic	-15.4777
▁chồ	-15.4779
hita	-15.4784
▁chuyể	-15.4787
vani	-15.4797
ydn	-15.4799
bridge	-15.4802
▁9,	-15.4805
đà	-15.4806
đoán	-15.4808
sợ	-15.4813
EE	-15.4817
Pakistan	-15.483
oth	-15.4832
lite	-15.4834
▁Levi	-15.4835
Stat	-15.4837
lòng	-15.4838
iev	-15.4851
stock	-15.4867
ambar	-15.4879
Call	-15.4889
mou	-15.4891
▁doa	-15.4901
▁Ngàn	-15.4906
ega	-15.4907
▁Kr	-15.4924
plas	-15.4925
▁Orf	-15.4928
▁Brathw	-15.4936
tiểu	-15.4939
ement	-15.4951
plast	-15.4956
73	-15.4963
▁vít	-15.4964
▁210	-15.4967
phal	-15.4975
rrrrrr	-15.4986
azar	-15.4986
▁45-	-15.4994
▁Lier	-15.4994
iao	-15.4997
Joe	-15.5005
▁trạc	-15.5008
Thổ	-15.502
▁brrrr	-15.5021
CC	-15.5022
antu	-15.5022
llen	-15.503
hattan	-15.5033
ents	-15.5034
oshi	-15.5039
Capri	-15.5041
vins	-15.5042
Ôi	-15.5047
rụ	-15.506
ymou	-15.5067
▁Pog	-15.5082
sare	-15.5084
▁Kro	-15.5087
▁tă	-15.5106
▁Copy	-15.5113
▁ngỗn	-15.5113
▁Leg	-15.5127
rge	-15.5129
iPhone	-15.5129
Tốt	-15.513
▁ăng	-15.513
▁thẹ	-15.5132
ional	-15.5139
zig	-15.514
hris	-15.5151
▁Ente	-15.5155
▁Angle	-15.5157
rpris	-15.5158
▁Gile	-15.5159
1,2	-15.5159
rel	-15.5161
oper	-15.5162
ense	-15.5165
▁Chấ	-15.5171
essa	-15.5174
rck	-15.5188
usela	-15.5199
udbur	-15.5216
shing	-15.5219
ass	-15.5221
sâu	-15.5221
Điề	-15.5221
ịn	-15.5223
▁Trứ	-15.5225
▁Lồ	-15.5232
maid	-15.5255
▁Vib	-15.5259
▁ink	-15.5262
hahaha	-15.529
bello	-15.5292
▁gu	-15.53
▁Cama	-15.53
PH	-15.5301
chương	-15.5306
▁Reb	-15.5308
▁Gel	-15.5309
infor	-15.532
Ma	-15.5324
Sahara	-15.5325
kì	-15.5336
▁Fus	-15.5339
▁Cout	-15.5355
luật	-15.5368
ananda	-15.5368
Ag	-15.5371
hel	-15.5373
▁Spr	-15.5382
bera	-15.5384
▁30-4	-15.5392
owen	-15.5398
thúc	-15.54
rbin	-15.5404
▁nu	-15.5406
oots	-15.542
Frank	-15.5437
xăng	-15.5455
▁Doub	-15.5459
▁Tră	-15.547
hẫ	-15.5483
alat	-15.5487
xeti	-15.5488
▁Fut	-15.5496
.9	-15.5502
nya	-15.5502
▁Gorge	-15.5506
tồn	-15.5506
Acto	-15.551
ewar	-15.5511
hydro	-15.5512
▁asp	-15.5517
Tom	-15.5524
ige	-15.5533
nde	-15.554
eman	-15.5541
▁Mol	-15.5543
bri	-15.555
▁Fior	-15.556
▁rằn	-15.5565
Oh	-15.557
▁97-	-15.5571
▁Nex	-15.5581
GS	-15.5582
▁Aga	-15.5594
▁Dec	-15.5614
▁Pic	-15.5617
ced	-15.5624
Microsoft	-15.5628
giữ	-15.5634
▁Brai	-15.5636
onnie	-15.5638
lịch	-15.564
rish	-15.566
▁ao	-15.5664
▁Rav	-15.5667
Hối	-15.5669
▁cour	-15.5683
not	-15.5686
efe	-15.5695
Bay	-15.5696
▁gâ	-15.5712
▁dậ	-15.5715
rz	-15.5716
▁nố	-15.5717
▁Tedx	-15.5717
CHA	-15.5718
nano	-15.5725
tuyết	-15.5725
arg	-15.5728
▁Prospe	-15.5729
▁neu	-15.573
icel	-15.5736
Bush	-15.5738
▁Belo	-15.5749
torio	-15.5752
Coli	-15.5752
ics	-15.5753
▁bă	-15.5757
▁Targ	-15.5758
▁Chemi	-15.5765
bad	-15.5765
gờ	-15.5767
trụ	-15.5773
aroun	-15.5778
Palestine	-15.5781
450	-15.5785
echle	-15.5788
ning	-15.5796
▁Hutch	-15.5802
aps	-15.5809
Bob	-15.5824
▁Hau	-15.5828
▁magi	-15.5829
Free	-15.5831
địa	-15.5836
obis	-15.5838
anko	-15.5838
▁Caro	-15.5839
0,8	-15.5847
ndle	-15.5849
yank	-15.5853
King	-15.5856
ustaf	-15.5858
▁Fab	-15.586
gái	-15.5868
▁Fra	-15.5877
DE	-15.5881
ambu	-15.5883
▁nă	-15.5884
ugo	-15.5884
▁.............	-15.5891
▁mứ	-15.5897
Van	-15.5899
xyl	-15.5902
4,80	-15.5903
▁Shak	-15.5905
outi	-15.5906
ree	-15.5911
uds	-15.5915
peake	-15.5918
huyê	-15.5926
bass	-15.5928
chín	-15.5932
part	-15.594
Silicon	-15.5941
Disney	-15.5948
▁Gho	-15.5949
Robot	-15.5951
▁tang	-15.5959
olet	-15.5962
Giới	-15.5973
▁Stew	-15.5976
tạp	-15.5981
pound	-15.5983
orp	-15.599
nt	-15.5993
hristians	-15.5994
tions	-15.5997
sabi	-15.6
Xô	-15.6006
kull	-15.6008
cole	-15.601
▁Mech	-15.6014
olvi	-15.6014
▁Ci	-15.6016
thí	-15.602
ser	-15.602
arish	-15.6031
ocrat	-15.6034
erman	-15.6041
seum	-15.6041
▁ngoà	-15.6045
▁177	-15.6062
ific	-15.6063
Hungar	-15.608
pot	-15.6085
gành	-15.6088
▁Witt	-15.6089
▁Fos	-15.609
▁Chún	-15.6095
mục	-15.6099
mắt	-15.6099
▁5,1	-15.6102
▁Monta	-15.6105
▁55000	-15.6112
▁Alban	-15.6118
▁4,7	-15.612
▁Seu	-15.6121
sol	-15.6124
▁Cambri	-15.6126
lem	-15.6128
Louis	-15.6129
1998	-15.613
Time	-15.6136
For	-15.6142
phủ	-15.6142
▁Mona	-15.6143
irand	-15.6144
dạy	-15.6154
ommunit	-15.6159
▁Wri	-15.6165
phthalate	-15.6169
Ô	-15.617
nổi	-15.6183
aze	-15.6185
strate	-15.6191
350	-15.6192
Ray	-15.6194
haka	-15.6199
Sweeney	-15.6201
▁Aro	-15.6206
ohn	-15.621
Fog	-15.6222
căn	-15.6228
ribbe	-15.6229
Palextin	-15.6233
hoạ	-15.6236
pirin	-15.6238
lib	-15.6239
▁wh	-15.6241
▁Golda	-15.6244
oll	-15.6246
stick	-15.6247
eim	-15.6247
ovsk	-15.6248
olli	-15.6248
1992	-15.6252
▁Sier	-15.6253
Pal	-15.6257
lala	-15.6258
đạt	-15.6262
▁Run	-15.6264
khỏ	-15.6265
Shir	-15.6268
Caltech	-15.6273
Michel	-15.6273
khoẻ	-15.6274
mino	-15.6276
Wilson	-15.6282
▁Popp	-15.6284
Found	-15.6287
▁Tak	-15.6295
▁McMa	-15.6298
niel	-15.6303
East	-15.6303
▁Smo	-15.6304
enega	-15.6306
rrie	-15.6307
▁Bend	-15.631
Valle	-15.6315
▁Nile	-15.6316
azov	-15.6323
Re	-15.6324
Shack	-15.6329
Ke	-15.6333
▁Aut	-15.634
▁quyể	-15.6341
Cloud	-15.6342
zen	-15.6345
bloop	-15.6345
Eye	-15.6346
quad	-15.6348
Beth	-15.635
Kara	-15.6357
Air	-15.636
Isa	-15.6362
Market	-15.6368
1,3	-15.6369
Clark	-15.637
ldi	-15.6371
pon	-15.6372
Nixon	-15.6372
America	-15.6373
stic	-15.6373
ngồi	-15.6378
-6	-15.6381
Code	-15.6383
France	-15.6383
eah	-15.6384
Lib	-15.6384
Barry	-15.6385
ydro	-15.6387
▁Augu	-15.6388
Kahn	-15.6389
Fest	-15.6391
One	-15.6391
itti	-15.6392
Banks	-15.6393
Vision	-15.6394
chạy	-15.6395
Natural	-15.6396
TNC	-15.6396
WISE	-15.6396
▁Piz	-15.6397
itsk	-15.6399
Cash	-15.6401
Far	-15.6404
Fres	-15.6405
ROV	-15.6407
FE	-15.6408
themu	-15.6408
Pepper	-15.6409
Herman	-15.6409
▁trườn	-15.641
Wikileak	-15.6411
eati	-15.6412
Force	-15.6414
Portal	-15.6416
Sheep	-15.6417
▁Sund	-15.6417
Boing	-15.6419
Books	-15.6419
Maker	-15.642
Advi	-15.6422
Agra	-15.6424
Camp	-15.6431
3,2	-15.6431
Fly	-15.6432
megawatt	-15.6433
dge	-15.6434
XI	-15.6435
aragua	-15.6435
Two	-15.6436
Chen	-15.6436
NP	-15.6437
MAN	-15.6437
Net	-15.6437
▁Cres	-15.6438
▁Pos	-15.644
kwe	-15.6442
AV	-15.6442
Cow	-15.6443
FD	-15.6443
▁xuyê	-15.6444
NO	-15.6445
Volta	-15.6448
▁Animal	-15.645
▁plan	-15.6451
Bowe	-15.6451
Work	-15.6454
Maas	-15.6455
Assa	-15.6456
think	-15.6457
Band	-15.6459
Aria	-15.6466
OV	-15.6466
▁Tríc	-15.6467
▁Mot	-15.6468
750	-15.6469
cari	-15.647
velop	-15.6472
tiết	-15.6474
▁trìn	-15.6475
Avi	-15.6475
Weh	-15.648
kava	-15.6481
Rap	-15.6486
Lou	-15.6487
Fur	-15.6489
Sim	-15.6491
rfa	-15.6492
RAN	-15.6496
cell	-15.6497
alto	-15.6497
reate	-15.65
TQ	-15.6502
▁bal	-15.6502
▁Meat	-15.6512
esh	-15.6514
▁prote	-15.6514
know	-15.6519
Syri	-15.6521
Gram	-15.6524
ges	-15.6525
▁rupe	-15.6528
▁Tàn	-15.6528
▁Ove	-15.6529
paste	-15.6532
136	-15.6532
ulp	-15.6532
Eli	-15.6539
Hol	-15.6539
boom	-15.6541
▁Leno	-15.6543
▁Serv	-15.6544
▁đán	-15.6548
Bud	-15.6548
phút	-15.6553
▁By	-15.6555
Klin	-15.6557
rime	-15.6563
▁NF	-15.6563
▁3600	-15.6572
Niels	-15.658
mẫu	-15.6584
SL	-15.6584
atter	-15.6589
▁gr	-15.66
Bis	-15.6606
heads	-15.6606
-17	-15.6608
Link	-15.6609
omething	-15.661
▁Northe	-15.6615
▁rù	-15.6615
ngu	-15.6616
lka	-15.6616
Ph	-15.6617
DB	-15.6617
cuốn	-15.6617
hooc	-15.6629
hak	-15.6632
runner	-15.6635
banda	-15.6636
Tart	-15.6637
Guy	-15.6639
shel	-15.6643
Su	-15.6644
▁MacDon	-15.6645
arami	-15.6647
▁Ganes	-15.665
agar	-15.6653
prote	-15.6653
chung	-15.6653
▁Khoán	-15.6654
Tax	-15.6656
▁Tras	-15.6657
Meg	-15.6657
orne	-15.6663
FM	-15.6668
LE	-15.6669
▁176	-15.6671
▁megab	-15.6671
event	-15.6675
unnel	-15.6679
▁Hin	-15.6685
ashto	-15.6694
Se	-15.6696
▁Okol	-15.6696
ebook	-15.67
doanh	-15.67
Men	-15.671
▁Alg	-15.6713
lắc	-15.6713
▁Manu	-15.6716
▁Beat	-15.6719
▁Chuy	-15.672
ersma	-15.6721
▁8500	-15.6725
Yea	-15.6728
▁nấy	-15.6728
▁ahh	-15.6731
helia	-15.6733
▁250,00	-15.6738
Part	-15.6738
Bel	-15.6746
▁Sowe	-15.6747
▁960	-15.6752
igar	-15.6754
puls	-15.6755
ympic	-15.6757
hange	-15.6764
▁Pakista	-15.6765
▁Eur	-15.677
▁Londo	-15.677
▁Abs	-15.677
serve	-15.6772
▁7,0	-15.6774
ockhaus	-15.6776
▁Kon	-15.6778
▁Stars	-15.678
ubber	-15.6781
Er	-15.6784
lings	-15.6784
▁Owe	-15.6785
Nann	-15.6785
tula	-15.6792
▁Mắ	-15.6792
buổi	-15.6796
▁Rodri	-15.6801
▁Đán	-15.6803
ely	-15.6809
▁4200	-15.6811
stero	-15.6812
serv	-15.6812
▁Fal	-15.6813
▁dun	-15.6815
▁Moria	-15.6815
wir	-15.6818
▁electro	-15.6823
▁Valent	-15.6824
▁Must	-15.6826
krum	-15.6828
ened	-15.6829
Bendi	-15.683
empel	-15.683
ghe	-15.6831
▁179	-15.6831
akes	-15.6833
▁Microsof	-15.6833
lle	-15.6834
Enro	-15.6836
bacteri	-15.6837
▁Kamkwa	-15.6838
▁lĩn	-15.6838
orest	-15.6843
Scal	-15.6844
▁Pavlo	-15.6845
▁Snowde	-15.6846
ange	-15.6846
cel	-15.6847
ckaw	-15.6854
elon	-15.6854
WW	-15.6855
rrrr	-15.6857
-19	-15.6858
chắn	-15.6859
Fis	-15.6862
▁Rwand	-15.6862
Surve	-15.6863
grad	-15.6866
▁Tanzani	-15.6867
▁Smok	-15.6868
▁Curren	-15.687
elche	-15.6872
bàn	-15.6874
ussa	-15.6875
▁Gros	-15.6875
▁Coun	-15.6876
▁7.0	-15.6876
▁Challe	-15.6876
đọc	-15.6877
▁toile	-15.6877
▁Bionic	-15.6877
▁Ethiopi	-15.6878
Geo	-15.6878
▁7500	-15.6879
brigad	-15.6881
▁Tasman	-15.6882
▁Roslin	-15.6882
▁electr	-15.6883
ransistor	-15.6883
▁Khôn	-15.6883
zine	-15.6884
elescope	-15.6885
Wri	-15.6885
yre	-15.6887
▁hướn	-15.6887
oise	-15.6887
143	-15.6888
ucati	-15.6889
▁Kirst	-15.6892
llough	-15.6893
▁rea	-15.6893
▁Product	-15.6894
▁WikiLeak	-15.6894
5,7	-15.6894
allbot	-15.6895
▁Plexi	-15.6896
avannah	-15.6896
therin	-15.6896
evolution	-15.6897
▁Tennesse	-15.6897
▁Mexic	-15.6897
rishnan	-15.6897
ccordion	-15.6898
▁Volkswag	-15.6899
▁Californ	-15.6899
heromone	-15.6899
ackpo	-15.6899
▁Brazi	-15.6899
▁Massachus	-15.6899
▁10,20,	-15.6899
lifornia	-15.69
Secret	-15.69
▁Rrrr	-15.69
gokgokgok	-15.69
uhuhuhuhuhuh	-15.69
▁channelrhodo	-15.69
ậ	-15.69
eeeeee	-15.69
▁Mitchel	-15.69
▁Moussa	-15.69
▁Massachuset	-15.69
▁Afga	-15.69
gagagaga	-15.69
owden	-15.69
▁McGui	-15.69
lexic	-15.69
setts	-15.6901
▁stars	-15.6901
▁Stanfo	-15.6901
aaaaaaa	-15.6901
uuuu	-15.6901
hrodi	-15.6901
▁adre	-15.6902
dchanging	-15.6902
estival	-15.6902
▁Flint	-15.6902
Yug	-15.6902
alosa	-15.6903
ource	-15.6903
▁2,0	-15.6903
rkinson	-15.6903
anage	-15.6904
dadada	-15.6904
▁Manche	-15.6904
▁comple	-15.6904
biz	-15.6905
fri	-15.6905
ument	-15.6906
epres	-15.6906
▁Ip	-15.6906
erfor	-15.6906
hanistan	-15.6907
Cambrid	-15.6907
▁Russe	-15.6907
▁Guard	-15.6907
hemis	-15.6907
source	-15.6907
ventis	-15.6908
▁Missou	-15.6909
ibbon	-15.6909
▁Robotic	-15.691
gypt	-15.691
opyri	-15.691
▁ozon	-15.6912
▁Negro	-15.6913
eodor	-15.6914
▁Singapo	-15.6914
▁Spla	-15.6915
christ	-15.6915
▁Face	-15.6916
dopa	-15.6917
Mea	-15.6917
ntolog	-15.6918
scope	-15.6918
sevelt	-15.6919
ield	-15.692
suốt	-15.6921
GR	-15.6921
▁Fell	-15.6922
▁Egl	-15.6922
rkeley	-15.6924
egawa	-15.6924
▁Hú	-15.6924
lớp	-15.6926
▁IPC	-15.6926
▁hydr	-15.6926
hals	-15.6926
wri	-15.6927
uffin	-15.6927
▁đên	-15.6927
aaaaa	-15.6928
wers	-15.6928
▁MacG	-15.6929
▁whoo	-15.6929
ICE	-15.6929
OP	-15.6931
habha	-15.6932
▁Splas	-15.6932
▁Stir	-15.6933
eitz	-15.6933
▁Swaptre	-15.6935
▁Anto	-15.6935
dows	-15.6937
▁Techno	-15.6938
ordin	-15.6938
▁Eins	-15.6939
arq	-15.6939
▁Micros	-15.6941
▁Gâ	-15.6942
0,4	-15.6942
▁oxyto	-15.6945
▁Of	-15.6946
ocop	-15.6947
huộc	-15.6948
arble	-15.6949
▁Hes	-15.695
alonen	-15.6951
liams	-15.6951
▁higg	-15.6952
rizon	-15.6953
derli	-15.6953
ebrew	-15.6955
▁Washing	-15.6956
▁Equ	-15.6957
mpact	-15.6958
stream	-15.6958
seberry	-15.6959
▁entr	-15.696
BR	-15.6963
ruvi	-15.6964
shevi	-15.6964
aplin	-15.6967
eiss	-15.6968
astle	-15.697
Phone	-15.6973
azine	-15.6975
▁Fib	-15.6975
▁Firest	-15.6976
▁Hyde	-15.6976
▁Hư	-15.6979
xford	-15.6979
Gur	-15.698
▁Aqui	-15.6981
▁Prest	-15.6983
▁Califo	-15.6983
zala	-15.6983
▁stre	-15.6983
egro	-15.6984
▁lander	-15.6986
▁Swar	-15.6988
ssisi	-15.6989
▁Econo	-15.6992
▁Cros	-15.6995
asset	-15.6996
ubin	-15.6997
blas	-15.6998
▁Rode	-15.7001
▁phthal	-15.7002
IF	-15.7002
ckett	-15.7003
litz	-15.7004
hamed	-15.7005
velt	-15.7009
▁Avalo	-15.701
▁Sigg	-15.701
▁Ez	-15.7011
ropy	-15.7014
▁Cook	-15.7015
Lộ	-15.7017
▁Make	-15.7017
▁Muf	-15.7019
ezer	-15.702
irb	-15.7021
duw	-15.7022
▁Barbe	-15.7026
iiii	-15.7027
▁Polar	-15.7028
▁Parkin	-15.7028
▁Geos	-15.7029
rial	-15.7032
No	-15.7033
▁Tusca	-15.7033
▁Sween	-15.7034
uardi	-15.7034
564	-15.7037
▁muộ	-15.7038
rouch	-15.7038
tyre	-15.7039
ophil	-15.704
▁Goet	-15.7041
▁Inve	-15.7042
▁420	-15.7042
ensha	-15.7043
▁Kaz	-15.7044
Jung	-15.7044
lympic	-15.7045
ocort	-15.7046
▁84.	-15.705
grove	-15.7051
riel	-15.7051
avela	-15.7053
▁Indu	-15.7053
▁polyp	-15.7055
slav	-15.7055
eav	-15.7055
reye	-15.7056
eche	-15.7057
eather	-15.7058
▁0,	-15.7059
kiện	-15.706
ilip	-15.706
▁Paki	-15.7062
Imp	-15.7063
rstan	-15.7064
oxic	-15.7064
▁Schac	-15.7064
apien	-15.7066
▁Pak	-15.7068
▁Hoff	-15.707
Proc	-15.707
eee	-15.7075
papa	-15.7076
inbur	-15.7079
onza	-15.7079
caine	-15.708
icine	-15.7081
Cú	-15.7083
LL	-15.7083
rnet	-15.7086
bidi	-15.7087
▁Brock	-15.709
▁Rabi	-15.709
yếu	-15.7092
nati	-15.7096
▁Maste	-15.7096
gặt	-15.7097
Mande	-15.7097
▁Pachy	-15.7098
sung	-15.7098
sage	-15.71
▁Omen	-15.7101
opo	-15.7104
▁206	-15.7104
▁Admi	-15.7108
▁Yel	-15.7109
venin	-15.711
▁Osb	-15.7111
entro	-15.7114
▁Sud	-15.7116
Ad	-15.7116
yball	-15.7117
atso	-15.7118
▁Ethi	-15.7123
artini	-15.7125
▁fac	-15.7125
▁thíc	-15.7132
▁SE	-15.7135
thiên	-15.7136
kuya	-15.7137
gled	-15.7139
mman	-15.7139
▁inte	-15.714
enlulo	-15.7142
raq	-15.7142
hemic	-15.7144
iks	-15.7146
trúc	-15.7148
▁Washin	-15.7149
erzi	-15.7149
lova	-15.7151
▁tax	-15.7154
▁Niko	-15.7154
▁Aristo	-15.7155
ternet	-15.7158
riz	-15.716
acle	-15.7161
venti	-15.7162
pant	-15.7162
▁Sene	-15.7167
▁Vo	-15.717
shot	-15.7171
▁Isr	-15.7176
pana	-15.7176
Camer	-15.7178
azni	-15.7179
▁Airs	-15.7179
▁Buda	-15.7184
▁hotd	-15.7188
▁Giớ	-15.719
xôm	-15.7193
ews	-15.7194
artin	-15.7196
▁Haw	-15.7198
▁Boga	-15.7198
OC	-15.7199
stry	-15.7201
▁Telec	-15.7202
Pen	-15.7207
69	-15.7208
sissi	-15.7209
rker	-15.721
topo	-15.7214
▁Gali	-15.7214
sbur	-15.7219
auca	-15.7222
▁Led	-15.7222
stroc	-15.7223
lber	-15.7223
leep	-15.7229
▁Imag	-15.7231
bok	-15.7231
taur	-15.7232
▁Hex	-15.7233
ulie	-15.7234
▁57,	-15.7236
▁Rein	-15.7239
entina	-15.7241
fs	-15.7242
ennes	-15.7245
ants	-15.725
Batte	-15.7252
sych	-15.7254
▁KP	-15.7258
ryo	-15.726
atesh	-15.7264
souri	-15.7266
Byr	-15.7267
▁Cyb	-15.7268
▁Brea	-15.7269
To	-15.727
ycle	-15.727
Por	-15.7273
agat	-15.7275
▁Ona	-15.7278
edic	-15.7281
opea	-15.7283
chard	-15.7286
else	-15.7286
▁Swee	-15.7287
▁Mex	-15.7287
desk	-15.7289
▁Europ	-15.729
▁Parti	-15.7295
chigan	-15.7298
▁moto	-15.7299
▁Robe	-15.7303
▁Bằn	-15.7304
▁Kel	-15.7305
icil	-15.7306
▁218	-15.7307
cotti	-15.7311
▁XK	-15.7316
▁xuố	-15.7318
ends	-15.7318
vui	-15.732
exan	-15.732
ente	-15.7322
mbri	-15.7326
▁Ôn	-15.7326
umbu	-15.7332
anco	-15.7332
ption	-15.7332
thoại	-15.7335
▁Devi	-15.7335
▁nhàn	-15.7337
arsha	-15.7341
niya	-15.7346
ginal	-15.735
erber	-15.7351
▁......	-15.7353
Chat	-15.7355
Ker	-15.7359
▁Fur	-15.7359
▁France	-15.7359
orge	-15.7363
▁Kira	-15.7373
,40	-15.7374
▁Roose	-15.7374
inder	-15.7374
▁Mald	-15.7382
▁Bum	-15.7384
▁Valentin	-15.7386
Tiên	-15.739
▁ấ	-15.739
nosaur	-15.7393
fate	-15.7393
666	-15.7396
▁McDon	-15.7396
eapoli	-15.7403
evi	-15.7404
▁26,	-15.7405
▁pre	-15.7408
xDub	-15.7408
atz	-15.7412
▁ST	-15.7412
SH	-15.7416
▁Twee	-15.7419
▁Bun	-15.742
onna	-15.7426
foni	-15.7431
icia	-15.7432
cephalo	-15.7442
▁Vươn	-15.7446
Ath	-15.7449
acro	-15.745
toba	-15.7451
pee	-15.7459
▁DO	-15.7462
▁tì	-15.7471
▁Weg	-15.7476
rand	-15.7477
▁Syl	-15.7477
▁Hof	-15.7481
erberg	-15.7481
rank	-15.7482
mati	-15.7485
ordan	-15.7487
lane	-15.7487
awal	-15.7489
egade	-15.7491
hino	-15.7493
atya	-15.7494
▁10.	-15.75
ulga	-15.75
▁Kerr	-15.7501
gest	-15.7501
rdal	-15.7502
og	-15.7502
hahahaha	-15.7503
▁Ia	-15.7506
▁Onl	-15.7506
▁Extr	-15.7509
▁Fern	-15.7511
▁Enr	-15.7518
▁Nevi	-15.7524
▁6.0	-15.7526
egawatt	-15.7527
▁Sard	-15.7528
uire	-15.7529
▁ted	-15.7533
▁vọn	-15.7533
perp	-15.7538
stasi	-15.7545
oltz	-15.7545
hage	-15.7545
▁Cel	-15.755
rada	-15.7553
sư	-15.7556
wie	-15.756
lep	-15.756
▁123	-15.756
▁McM	-15.7564
poli	-15.7569
arbe	-15.757
▁GH	-15.7578
pers	-15.7581
rrows	-15.7581
pton	-15.7582
uni	-15.7583
GI	-15.7584
ekel	-15.7585
▁Coe	-15.7597
cela	-15.7598
▁Lada	-15.7598
osto	-15.7608
phô	-15.7613
▁sác	-15.7614
▁25-	-15.7615
▁sili	-15.7617
▁Đị	-15.7618
▁TT	-15.7619
chuyên	-15.7619
▁Meta	-15.762
usto	-15.7623
bloo	-15.7624
olution	-15.7626
▁Hour	-15.7627
▁Hacke	-15.763
▁under	-15.7631
tric	-15.7636
▁nồ	-15.7641
ngạc	-15.7646
tnik	-15.7652
zania	-15.7655
ento	-15.7657
▁lôn	-15.7658
fil	-15.7661
ịu	-15.7667
izber	-15.7668
▁Rò	-15.7672
cậu	-15.7673
bust	-15.7679
umph	-15.7681
amel	-15.7686
bas	-15.7697
▁dẹ	-15.7698
sit	-15.7702
956	-15.7704
Ata	-15.7705
▁Batte	-15.7711
hacke	-15.7712
▁nhứ	-15.7712
olland	-15.7714
nhiệm	-15.7719
urit	-15.772
retto	-15.7724
trợ	-15.7724
ampli	-15.7728
Leon	-15.773
CP	-15.7734
una	-15.774
once	-15.7756
▁pap	-15.776
rican	-15.7761
hẳ	-15.7763
▁Gus	-15.7764
▁Maas	-15.7765
▁Sola	-15.7766
ocker	-15.7766
osal	-15.7777
▁Olm	-15.778
▁TEDxA	-15.7781
lavi	-15.7782
▁DM	-15.7791
gener	-15.7791
997	-15.7799
amari	-15.7799
kene	-15.7802
▁Shun	-15.7807
▁Brow	-15.7808
984	-15.7808
ngton	-15.7809
dơ	-15.781
mối	-15.7813
▁syn	-15.7815
ott	-15.7815
iku	-15.7818
neer	-15.7819
FA	-15.7823
atza	-15.7825
rdu	-15.7832
bono	-15.784
bể	-15.784
perw	-15.7851
ppo	-15.7863
ob	-15.7867
▁Bhu	-15.7868
mburg	-15.7874
sver	-15.7877
wana	-15.7884
lak	-15.7891
isani	-15.7895
sắc	-15.7896
đô	-15.7897
%	-15.7898
Cent	-15.7899
LMA	-15.7902
ols	-15.7908
ahahaha	-15.7908
▁HR	-15.7911
thfi	-15.7918
▁Kaf	-15.7919
dman	-15.792
▁Bot	-15.7924
▁Volv	-15.7927
▁Aci	-15.794
▁Tok	-15.7946
eeve	-15.7953
▁lase	-15.7956
cort	-15.7962
tair	-15.7962
▁MO	-15.7983
▁sec	-15.8001
▁sym	-15.8001
▁spe	-15.8006
.............	-15.8007
alis	-15.8012
SRI	-15.8021
OX	-15.8021
cánh	-15.8025
▁Ate	-15.8027
shad	-15.803
170	-15.8033
tuần	-15.8036
ante	-15.8039
▁Sym	-15.8042
▁Journ	-15.8058
ioSh	-15.806
hứa	-15.8069
▁Stre	-15.8074
1.2	-15.8077
▁Vand	-15.8082
ppen	-15.8087
awk	-15.8091
lách	-15.8098
▁Campa	-15.811
▁Porta	-15.8114
rgar	-15.8118
xit	-15.8119
▁Gán	-15.8126
ffi	-15.8127
inberg	-15.813
1.9	-15.8132
under	-15.8138
deo	-15.8144
affe	-15.8146
nicu	-15.8152
▁Interne	-15.8153
anadi	-15.8161
▁Hor	-15.8163
▁Smi	-15.8163
▁Hul	-15.8176
▁Syri	-15.8178
arly	-15.8183
tail	-15.8185
mmy	-15.8203
▁Kop	-15.8203
rown	-15.8206
nis	-15.8208
▁Cort	-15.8218
vẻ	-15.8219
stral	-15.8221
Mars	-15.8222
7-	-15.8222
ares	-15.8232
atata	-15.8235
▁Pau	-15.8243
▁Aren	-15.8244
urs	-15.8251
icki	-15.8264
▁Peni	-15.8268
edd	-15.8284
tman	-15.8289
▁Kom	-15.8289
So	-15.829
▁Micr	-15.8298
shu	-15.8307
olye	-15.831
▁Crai	-15.8314
bber	-15.8321
▁desi	-15.8322
▁end	-15.8326
haus	-15.8326
▁Sava	-15.8328
nhu	-15.833
2.9	-15.8333
yama	-15.8343
▁Summ	-15.8353
[...]
