<unk>	0
<s>	0
</s>	0
▁	-2.73043
,	-3.13521
▁.	-3.30145
s	-3.32629
▁the	-3.41146
;	-3.72005
▁&	-3.74029
▁to	-3.94583
apos	-4.02099
▁a	-4.062
▁of	-4.08763
▁and	-4.15625
▁that	-4.3448
▁I	-4.37191
▁in	-4.50211
y	-4.56827
▁is	-4.66138
▁you	-4.68858
▁it	-4.70164
ing	-4.74477
ed	-4.75294
▁we	-4.82711
▁And	-5.03384
▁be	-5.1122
ly	-5.11898
this	-5.16938
quot	-5.24427
d	-5.26697
t	-5.27525
▁was	-5.37822
▁for	-5.44138
▁with	-5.49662
▁are	-5.52495
▁have	-5.53022
▁on	-5.594
▁can	-5.64132
▁--	-5.65455
▁So	-5.70676
▁?	-5.71167
▁what	-5.71226
-	-5.71365
▁about	-5.7789
re	-5.7924
▁The	-5.7945
▁not	-5.93277
▁do	-5.94503
▁all	-5.94586
n	-5.9502
▁at	-5.9568
▁my	-6.01471
▁an	-6.02516
▁like	-6.02813
▁people	-6.0369
▁one	-6.05771
▁there	-6.06842
▁It	-6.08069
▁from	-6.08209
▁so	-6.11527
▁but	-6.19293
▁as	-6.19438
cause	-6.20762
:	-6.21417
▁our	-6.22694
▁just	-6.2538
▁We	-6.2733
▁me	-6.29907
▁But	-6.29969
▁or	-6.3056
▁these	-6.31935
▁if	-6.32529
▁us	-6.33702
very	-6.34428
▁know	-6.34996
▁get	-6.35106
▁out	-6.3571
▁them	-6.39899
▁when	-6.40029
m	-6.40305
▁by	-6.40682
▁up	-6.41564
ve	-6.41907
▁more	-6.4195
▁see	-6.4368
▁he	-6.44144
e	-6.4653
▁some	-6.46867
▁had	-6.47452
▁who	-6.4895
▁think	-6.49422
▁would	-6.49517
▁your	-6.49698
▁how	-6.50894
▁their	-6.51768
▁were	-6.53181
going	-6.5444
▁which	-6.54581
▁go	-6.55381
▁want	-6.55955
▁look	-6.56201
▁world	-6.6675
▁time	-6.67777
▁You	-6.70131
▁here	-6.70353
▁actual	-6.70778
▁Thi	-6.71384
▁has	-6.71505
en	-6.71606
▁way	-6.72556
▁other	-6.72906
▁into	-6.76423
▁could	-6.77554
▁then	-6.78919
▁don	-6.78956
es	-6.80807
▁did	-6.80955
▁years	-6.81918
▁will	-6.82257
▁Now	-6.82409
▁now	-6.83197
▁things	-6.86039
▁make	-6.86201
▁where	-6.86415
▁say	-6.8885
▁no	-6.93348
▁every	-6.96641
▁work	-6.96828
▁reall	-6.97253
▁start	-6.98375
.	-7.0039
▁need	-7.02207
▁something	-7.02443
▁two	-7.02591
▁right	-7.03172
▁than	-7.03226
▁much	-7.0477
▁first	-7.06144
▁take	-7.07116
▁call	-7.07501
lso	-7.079
▁He	-7.0975
▁thing	-7.10694
▁talk	-7.11587
▁sai	-7.12041
▁life	-7.12635
▁over	-7.13211
▁she	-7.13455
▁got	-7.13834
▁back	-7.14123
▁real	-7.14957
▁kind	-7.15922
▁lot	-7.16461
▁little	-7.16582
▁In	-7.17518
▁his	-7.18518
▁That	-7.18731
▁most	-7.19223
▁What	-7.21914
▁even	-7.23049
▁show	-7.2421
▁only	-7.25015
▁new	-7.258
▁many	-7.28192
▁any	-7.29426
▁good	-7.29457
▁different	-7.3033
er	-7.30714
ll	-7.31371
▁change	-7.31374
hose	-7.32277
▁use	-7.32764
▁her	-7.3348
▁through	-7.3404
around	-7.34747
▁does	-7.34844
ies	-7.35222
▁There	-7.3876
▁mean	-7.40852
▁A	-7.43634
day	-7.43926
▁down	-7.43952
▁come	-7.47335
▁same	-7.47369
▁Well	-7.48801
▁being	-7.49751
▁try	-7.51262
▁If	-7.52377
▁tell	-7.52669
▁may	-7.52866
▁human	-7.53831
▁three	-7.53962
a	-7.55072
▁day	-7.5525
▁great	-7.55593
▁put	-7.56326
one	-7.56526
▁part	-7.57507
▁doing	-7.58647
▁well	-7.60513
▁give	-7.62426
▁why	-7.62691
▁percent	-7.63399
▁fact	-7.63767
▁own	-7.64732
▁made	-7.64961
▁year	-7.65268
▁child	-7.66607
▁find	-7.66943
▁create	-7.67563
al	-7.67625
▁ask	-7.68315
▁t	-7.68719
▁happen	-7.69639
▁should	-7.70776
▁brain	-7.70908
▁idea	-7.71322
body	-7.72325
▁important	-7.74101
▁Thank	-7.74577
other	-7.75058
▁thought	-7.75746
on	-7.76254
in	-7.77068
▁let	-7.77266
▁love	-7.77859
▁last	-7.77928
▁after	-7.79156
▁big	-7.79323
▁Be	-7.80256
▁problem	-7.80566
went	-7.8117
▁before	-7.82349
▁might	-7.82606
▁course	-7.83468
▁help	-7.83593
▁live	-7.8395
r	-7.84475
▁him	-7.85174
▁never	-7.85422
▁How	-7.85508
▁example	-7.86212
▁better	-7.86295
▁off	-7.87154
▁end	-7.87272
▁still	-7.87537
▁story	-7.87947
▁few	-7.90035
▁learn	-7.90188
▁When	-7.90661
▁system	-7.91137
ren	-7.91775
▁point	-7.92527
▁next	-7.92544
▁bit	-7.92569
ally	-7.93226
▁together	-7.93357
▁place	-7.93381
▁question	-7.93499
▁able	-7.93559
▁came	-7.94184
▁each	-7.94254
ity	-7.94406
able	-7.95129
▁between	-7.95921
▁million	-7.96398
ther	-7.96654
▁turn	-7.97227
▁ago	-7.97381
▁design	-7.98254
▁found	-7.98486
▁long	-7.98561
▁sort	-7.98582
▁believe	-7.99689
▁again	-8.00054
out	-8.00404
▁data	-8.01035
▁become	-8.02246
▁cell	-8.02396
▁play	-8.02413
▁understand	-8.03079
▁women	-8.03796
▁too	-8.04486
▁school	-8.05323
l	-8.05424
▁water	-8.07171
be	-8.07616
▁done	-8.07963
▁light	-8.08279
▁Wh	-8.08523
▁technology	-8.09787
▁four	-8.11151
▁always	-8.11671
▁second	-8.1189
▁person	-8.1243
▁money	-8.13261
▁feel	-8.14099
▁whole	-8.15188
▁power	-8.16477
▁20	-8.16628
▁experience	-8.16881
▁10	-8.17397
▁guy	-8.17719
▁away	-8.17918
▁working	-8.17976
h	-8.18085
▁ever	-8.18157
▁information	-8.18562
▁reason	-8.18801
▁p	-8.19202
▁home	-8.19403
▁country	-8.19662
ting	-8.19998
▁My	-8.2082
▁kids	-8.21084
▁thi	-8.2126
ok	-8.22822
▁food	-8.23145
ion	-8.23721
▁five	-8.23835
ves	-8.23993
ld	-8.2427
making	-8.25475
▁space	-8.25803
▁project	-8.25865
▁case	-8.25892
▁old	-8.26539
▁picture	-8.26643
▁small	-8.26775
▁U	-8.26863
o	-8.27138
▁building	-8.27421
▁She	-8.27798
ose	-8.2805
coming	-8.28312
▁moment	-8.28522
▁number	-8.28591
▁future	-8.28848
▁One	-8.28892
▁everything	-8.29381
▁develop	-8.2979
▁th	-8.30017
▁form	-8.30119
▁high	-8.30617
quite	-8.30964
ever	-8.31179
▁health	-8.313
w	-8.31591
▁man	-8.32138
▁best	-8.3225
ic	-8.33498
▁bring	-8.33538
▁enough	-8.33573
▁social	-8.33741
▁open	-8.34055
▁thinking	-8.34135
▁answer	-8.34277
▁left	-8.34793
▁hard	-8.34962
▁No	-8.35386
aid	-8.35567
▁less	-8.35599
▁energy	-8.35624
▁basic	-8.35666
ce	-8.35835
▁group	-8.36092
▁sense	-8.36563
▁These	-8.36681
▁name	-8.37338
▁process	-8.37344
▁image	-8.3738
▁For	-8.37716
cross	-8.39623
▁probabl	-8.39924
self	-8.40523
▁countries	-8.40543
▁lives	-8.40728
▁science	-8.41334
▁simple	-8.41387
▁job	-8.4144
▁hand	-8.41861
▁move	-8.41945
▁grow	-8.42033
▁business	-8.42106
▁room	-8.42123
▁keep	-8.42543
▁face	-8.42816
▁Let	-8.42848
▁dollars	-8.43078
▁build	-8.43381
▁interesting	-8.4349
▁comes	-8.43799
ness	-8.45552
▁large	-8.45677
▁else	-8.46043
▁under	-8.46513
▁billion	-8.46804
▁such	-8.4698
▁un	-8.47233
▁mind	-8.47771
▁allow	-8.47908
▁piece	-8.48203
▁seem	-8.48588
▁C	-8.48917
▁stuff	-8.48979
▁saw	-8.48996
▁language	-8.49546
▁half	-8.49608
▁body	-8.49922
91	-8.49958
retty	-8.50143
▁living	-8.50585
est	-8.50983
▁inside	-8.51098
▁family	-8.51471
▁model	-8.51728
▁am	-8.51933
▁anything	-8.52294
▁side	-8.52296
us	-8.52311
▁care	-8.52643
▁week	-8.52838
▁complete	-8.53774
93;	-8.53845
▁student	-8.5385
▁men	-8.53907
▁share	-8.53955
▁later	-8.5457
▁far	-8.54574
▁while	-8.55151
th	-8.55232
▁particular	-8.5541
▁book	-8.55411
▁set	-8.5578
▁al	-8.55925
le	-8.56017
▁single	-8.5614
▁whe	-8.56184
▁car	-8.56254
▁wrong	-8.56273
yet	-8.5686
▁government	-8.57194
▁watch	-8.57463
▁walk	-8.5749
▁music	-8.57751
▁All	-8.57938
▁hav	-8.57954
▁young	-8.58021
▁global	-8.58292
▁New	-8.58577
▁area	-8.5903
▁realize	-8.59394
▁bad	-8.59557
▁S	-8.59832
▁makes	-8.59929
ment	-8.59986
▁control	-8.60087
▁hope	-8.60512
▁age	-8.60552
▁often	-8.6075
▁matter	-8.60873
▁myself	-8.60895
▁video	-8.61381
▁times	-8.61442
▁happens	-8.61555
▁computer	-8.61613
▁certain	-8.61666
▁study	-8.61677
▁close	-8.6173
▁imagine	-8.62042
▁American	-8.62148
▁difference	-8.62477
▁level	-8.62509
▁seen	-8.62694
▁top	-8.63168
▁remember	-8.63299
ready	-8.63331
▁sure	-8.64051
▁possible	-8.64193
▁words	-8.64354
▁TED	-8.64462
amp	-8.6459
▁city	-8.64625
▁As	-8.648
▁problems	-8.64826
▁run	-8.65273
▁community	-8.65306
▁read	-8.65619
st	-8.65847
▁nothing	-8.65929
▁once	-8.66083
▁saying	-8.66278
▁true	-8.66293
▁interest	-8.66561
▁200	-8.66632
▁exact	-8.66873
▁disease	-8.66873
▁both	-8.67087
▁six	-8.67107
▁Africa	-8.67272
▁line	-8.67367
S	-8.67832
▁public	-8.67893
▁figure	-8.68212
where	-8.68554
▁research	-8.68711
▁almost	-8.68752
▁entire	-8.69166
▁spend	-8.69504
▁head	-8.69593
▁amazing	-8.69691
▁heart	-8.69859
▁issue	-8.69951
▁order	-8.70214
▁couple	-8.70333
▁beautiful	-8.70501
▁days	-8.70509
▁State	-8.70519
▁individual	-8.71077
▁Earth	-8.71344
▁test	-8.71543
▁T	-8.71564
▁heard	-8.72174
▁E	-8.72209
came	-8.72262
▁ideas	-8.72766
▁decided	-8.72923
▁patient	-8.73324
▁history	-8.73398
▁environment	-8.73664
▁b	-8.7387
▁ways	-8.73963
▁final	-8.73969
▁universe	-8.74614
▁art	-8.74753
▁value	-8.7477
▁built	-8.75012
▁cost	-8.75052
▁house	-8.75661
▁Unite	-8.7575
▁word	-8.75954
▁stories	-8.76031
▁societ	-8.76316
▁Oka	-8.76484
▁30	-8.76976
taking	-8.77198
▁hundred	-8.77284
▁education	-8.77344
▁cancer	-8.78367
▁Every	-8.78618
▁self	-8.78739
▁huge	-8.7874
▁months	-8.78839
▁unti	-8.79002
▁follow	-8.7933
▁stop	-8.80012
▁minutes	-8.80138
ation	-8.80338
▁woman	-8.8086
▁night	-8.81113
▁past	-8.81425
▁quick	-8.8169
▁though	-8.82009
msel	-8.82132
▁hear	-8.82514
▁planet	-8.82576
▁Internet	-8.82837
▁friends	-8.83265
▁China	-8.83435
▁sound	-8.83954
▁...	-8.84368
ry	-8.84507
▁team	-8.84548
▁economic	-8.85073
▁state	-8.85081
▁game	-8.85129
▁ga	-8.85213
▁50	-8.85768
▁teacher	-8.85782
▁focus	-8.85974
▁challenge	-8.86097
▁kne	-8.8653
▁experiment	-8.86785
▁mov	-8.86841
▁leave	-8.86997
▁clear	-8.87143
▁population	-8.87203
▁happening	-8.87672
▁nature	-8.87705
▁hours	-8.88217
▁pay	-8.88546
▁force	-8.8864
stead	-8.89147
▁mother	-8.8924
▁oursel	-8.89305
▁since	-8.89492
▁free	-8.89654
old	-8.89905
against	-8.90545
▁ra	-8.90841
less	-8.90881
▁term	-8.91306
▁war	-8.91314
ability	-8.91648
▁B	-8.9191
▁To	-8.9213
▁Oh	-8.92501
▁natural	-8.92554
▁paper	-8.9307
▁machine	-8.93143
▁sometimes	-8.93185
▁must	-8.9321
▁explain	-8.93296
▁front	-8.93399
▁Or	-8.93422
▁listen	-8.93524
▁company	-8.9407
▁won	-8.94212
▁difficult	-8.94274
▁America	-8.94656
▁bigge	-8.94943
▁structure	-8.95117
▁lead	-8.95133
▁India	-8.95372
is	-8.95718
▁third	-8.95723
▁father	-8.96061
▁questions	-8.96177
rhaps	-8.96209
▁powerful	-8.96273
▁God	-8.96275
▁color	-8.96292
▁kill	-8.96377
▁Do	-8.96391
▁works	-8.96406
▁per	-8.96742
▁hold	-8.97157
▁outside	-8.97303
▁oil	-8.97507
▁places	-8.97526
▁plant	-8.97705
▁amount	-8.97812
▁happy	-8.97962
▁eat	-8.98055
▁Some	-8.98281
▁full	-8.98327
▁simpl	-8.98729
▁dur	-8.98943
▁along	-8.99582
not	-8.99601
▁discover	-8.99609
▁early	-8.99619
▁culture	-8.99869
▁On	-9.00228
▁behavior	-9.00249
▁100	-9.00388
▁film	-9.00415
▁buy	-9.0066
▁air	-9.00926
▁learning	-9.01002
▁least	-9.01562
▁species	-9.01682
▁risk	-9.01826
▁personal	-9.02427
▁market	-9.02653
▁D	-9.02939
▁program	-9.03316
▁death	-9.03318
▁view	-9.03378
▁act	-9.03465
year	-9.03471
▁At	-9.03523
▁middle	-9.03687
▁black	-9.03699
▁produce	-9.03857
▁feeling	-9.04104
▁easy	-9.04585
▁choice	-9.04822
▁poor	-9.04868
▁15	-9.05147
▁yourself	-9.05235
▁political	-9.0624
▁short	-9.06331
behind	-9.06583
▁animals	-9.06756
▁local	-9.06911
▁save	-9.07045
▁seven	-9.07324
▁dream	-9.07572
▁pe	-9.07739
▁object	-9.07911
ten	-9.08107
▁media	-9.08113
▁relationship	-9.0823
▁speak	-9.08339
gan	-9.08343
▁wait	-9.08625
▁present	-9.09223
▁deal	-9.09324
▁compani	-9.09463
um	-9.10134
▁device	-9.1017
▁stand	-9.10259
▁major	-9.10265
▁fel	-9.10374
▁physical	-9.1043
▁friend	-9.10514
▁stay	-9.10517
▁systems	-9.10643
▁size	-9.10765
▁century	-9.10801
▁g	-9.11126
▁common	-9.1145
▁exist	-9.11562
▁normal	-9.11857
▁wonderful	-9.12203
▁phone	-9.1225
▁safe	-9.12284
▁eyes	-9.12298
▁doctor	-9.12452
▁obvious	-9.12779
▁pick	-9.13179
▁People	-9.1348
▁beginning	-9.1373
▁M	-9.13778
▁fight	-9.13931
▁boy	-9.141
▁spen	-9.14612
▁40	-9.14913
▁news	-9.15035
▁drive	-9.1517
▁longer	-9.15241
▁pattern	-9.15269
▁near	-9.15293
▁support	-9.15299
▁generation	-9.15426
▁stage	-9.15724
▁w	-9.15879
▁19	-9.16025
▁die	-9.16153
▁send	-9.1644
▁rate	-9.16582
▁wonder	-9.16603
▁fear	-9.16624
▁hit	-9.167
▁organization	-9.16776
▁eight	-9.1683
▁rest	-9.16919
▁deep	-9.16995
▁write	-9.17077
▁begin	-9.17147
▁los	-9.17293
▁growth	-9.17869
▁thousand	-9.17944
▁resource	-9.18019
▁lab	-9.18354
▁service	-9.18367
▁tree	-9.18449
▁York	-9.18655
ers	-9.1871
▁complex	-9.18733
land	-9.18889
▁condition	-9.18942
▁center	-9.19201
▁add	-9.19259
▁ground	-9.19485
▁hands	-9.1965
▁absolute	-9.19863
▁step	-9.19887
▁perfect	-9.20123
▁fall	-9.20132
ither	-9.20251
▁land	-9.20419
▁parents	-9.20518
▁access	-9.20971
▁Yes	-9.21166
giving	-9.21251
▁impact	-9.21539
or	-9.21568
▁reach	-9.21628
▁cities	-9.2181
using	-9.21947
5	-9.22052
▁solve	-9.22069
0	-9.22554
▁morning	-9.22652
▁movement	-9.22732
▁tried	-9.22992
▁Our	-9.2322
an	-9.23666
▁arm	-9.23797
▁low	-9.23841
▁knowledge	-9.2396
▁material	-9.24079
▁average	-9.2413
▁notice	-9.24286
▁girl	-9.24304
▁travel	-9.24322
▁potential	-9.24395
given	-9.24773
▁voice	-9.2485
▁green	-9.249
▁audience	-9.25243
aught	-9.25448
▁Yea	-9.25995
▁attention	-9.26424
▁sun	-9.26504
▁extreme	-9.26693
▁raise	-9.26817
▁message	-9.27019
▁opportunity	-9.27155
▁animal	-9.27256
▁network	-9.27263
▁English	-9.27296
▁reality	-9.27331
▁DNA	-9.27581
▁strong	-9.27605
▁slow	-9.27715
▁sleep	-9.27826
▁cool	-9.27918
▁innovation	-9.28177
▁field	-9.28343
▁economy	-9.28809
▁scale	-9.28857
▁born	-9.29034
▁situation	-9.29079
▁Just	-9.29244
▁treat	-9.29347
man	-9.29886
▁dead	-9.30194
▁train	-9.30223
▁With	-9.30303
▁product	-9.30555
▁sudden	-9.30597
▁nice	-9.30678
▁An	-9.30679
gone	-9.30757
▁action	-9.30838
▁blue	-9.30915
▁result	-9.31013
▁base	-9.31019
▁key	-9.31082
▁break	-9.31107
rought	-9.31234
▁pass	-9.31271
▁studie	-9.31298
credible	-9.31439
▁Right	-9.31521
▁Can	-9.31545
D	-9.31686
▁molecule	-9.3177
▁consider	-9.32341
▁shape	-9.32861
rote	-9.3291
▁sex	-9.32919
▁thank	-9.33277
▁approach	-9.33375
▁literal	-9.33377
▁tools	-9.33416
▁chance	-9.33708
▁main	-9.33713
▁blood	-9.33872
▁record	-9.33967
▁fee	-9.34069
▁climate	-9.34102
▁modern	-9.34108
▁solution	-9.34256
▁increase	-9.34342
▁pull	-9.34348
2	-9.34493
▁red	-9.34766
▁Not	-9.34952
▁surface	-9.35097
▁runn	-9.35291
▁hospital	-9.35509
cy	-9.35583
▁Chinese	-9.35622
▁measure	-9.35902
▁eye	-9.35935
▁creating	-9.36013
▁bottom	-9.36326
▁writing	-9.3634
▁fun	-9.36356
▁scientists	-9.36426
▁toward	-9.36502
c	-9.36525
▁continue	-9.36726
▁general	-9.36838
▁smart	-9.36934
▁camera	-9.36992
8	-9.37026
▁understanding	-9.37261
▁plan	-9.37349
▁protect	-9.37377
special	-9.37603
changing	-9.37659
▁success	-9.37877
k	-9.38074
▁photograph	-9.38112
▁region	-9.38365
▁12	-9.38488
▁teach	-9.38637
▁alone	-9.39043
▁type	-9.39128
▁meet	-9.39151
▁sit	-9.39227
▁needs	-9.39249
,000	-9.39415
▁By	-9.39424
▁books	-9.39599
▁moral	-9.39644
▁fail	-9.39907
▁specific	-9.40007
▁affect	-9.40028
▁source	-9.40043
▁Where	-9.40268
▁online	-9.4037
▁guess	-9.40574
▁cover	-9.40694
▁baby	-9.40716
▁forward	-9.40766
▁development	-9.40832
▁office	-9.40866
▁ice	-9.41019
to	-9.41032
i	-9.41137
▁provide	-9.41271
▁girls	-9.41409
▁wall	-9.41478
▁box	-9.41814
▁class	-9.41859
▁song	-9.42059
▁essential	-9.42281
▁3	-9.42382
▁o	-9.42387
▁late	-9.42417
▁movie	-9.42715
▁connect	-9.42869
▁truth	-9.43072
▁sign	-9.43142
▁1	-9.43154
▁kid	-9.4318
▁manage	-9.43192
▁soon	-9.43331
▁rich	-9.43425
▁sitt	-9.4355
▁track	-9.43615
▁fast	-9.44069
▁white	-9.44345
OK	-9.44456
▁met	-9.44528
▁ocean	-9.44642
▁suggest	-9.44689
▁cut	-9.44692
▁Google	-9.44719
thousands	-9.44773
▁numbers	-9.44815
ton	-9.44907
▁theory	-9.44922
▁effective	-9.44973
▁current	-9.45456
▁fly	-9.45464
▁conversation	-9.45482
age	-9.45755
▁telling	-9.45986
▁industry	-9.4614
▁activit	-9.46367
more	-9.46477
incredibly	-9.46499
▁easi	-9.46509
▁asking	-9.46652
▁similar	-9.46947
▁expect	-9.46959
▁goal	-9.47323
▁event	-9.47427
▁journey	-9.47582
▁Al	-9.4762
▁P	-9.47632
▁World	-9.47951
▁non	-9.47964
▁benefit	-9.48137
▁fish	-9.48184
K	-9.48206
▁worth	-9.48297
▁page	-9.48439
▁village	-9.48587
▁street	-9.48906
▁push	-9.49062
▁vision	-9.49091
by	-9.49518
▁25	-9.49533
▁favorite	-9.49799
up	-9.49883
▁collect	-9.49902
▁somebod	-9.50057
▁digital	-9.50188
▁equal	-9.50323
kay	-9.50436
▁fundamental	-9.50499
▁response	-9.50544
▁month	-9.50595
▁describe	-9.5074
ous	-9.50756
▁happiness	-9.51088
▁connection	-9.51312
▁fire	-9.51398
ism	-9.51562
▁among	-9.5166
▁trust	-9.51763
▁materials	-9.51842
▁dark	-9.52003
▁robot	-9.52005
▁touch	-9.52081
▁lose	-9.52238
as	-9.52275
turned	-9.52323
▁Europe	-9.52414
ond	-9.52419
▁map	-9.52754
▁South	-9.52869
▁creative	-9.52896
▁waste	-9.52939
tiny	-9.52987
▁sea	-9.53239
▁wish	-9.53301
▁code	-9.53347
taken	-9.53732
▁scientific	-9.53741
▁democracy	-9.53761
▁involve	-9.53899
▁direct	-9.54429
▁join	-9.54618
▁recently	-9.54713
▁effect	-9.54738
▁J	-9.54747
▁L	-9.54792
▁successful	-9.548
▁games	-9.5491
▁factor	-9.55256
▁sell	-9.55308
▁offer	-9.55321
▁18	-9.55359
▁store	-9.55507
▁law	-9.5589
▁subject	-9.55902
▁evidence	-9.55904
▁mental	-9.55905
▁recognize	-9.55928
▁em	-9.56108
▁rules	-9.5626
▁position	-9.56468
▁technologi	-9.56552
▁hole	-9.56633
▁function	-9.56731
▁content	-9.56774
▁G	-9.5679
▁putting	-9.56929
▁nation	-9.57044
▁yes	-9.57046
▁miles	-9.57048
▁memory	-9.57095
▁drug	-9.57208
▁de	-9.57342
▁cars	-9.57388
▁emotion	-9.57409
▁table	-9.57662
▁Go	-9.58048
lt	-9.58073
▁sounds	-9.58143
▁carbon	-9.58181
▁practice	-9.58259
▁R	-9.58292
▁After	-9.58299
▁First	-9.58371
▁80	-9.58558
▁Maybe	-9.58712
▁son	-9.58755
▁Even	-9.58759
▁fair	-9.58874
▁medical	-9.59035
▁artist	-9.59052
▁necessar	-9.59111
▁invent	-9.59188
▁concept	-9.59503
▁represent	-9.59604
▁search	-9.59978
▁nine	-9.60224
▁Of	-9.60328
▁special	-9.60557
time	-9.60621
▁Look	-9.6076
▁transform	-9.60904
▁Don	-9.60977
▁draw	-9.61008
▁period	-9.6103
▁tend	-9.61433
▁crazy	-9.61606
head	-9.61714
▁West	-9.61753
▁block	-9.61954
▁tool	-9.61996
▁choose	-9.62004
▁software	-9.62008
▁list	-9.62184
▁degree	-9.62208
▁account	-9.62444
▁female	-9.62498
▁onto	-9.62691
ance	-9.62744
▁meaning	-9.62833
▁spread	-9.62974
▁require	-9.63099
▁attack	-9.63172
▁surprise	-9.63269
4	-9.63311
▁60	-9.63387
▁HIV	-9.63695
▁further	-9.63698
▁return	-9.63796
▁road	-9.64023
▁stress	-9.64143
how	-9.64161
▁trial	-9.64232
▁fund	-9.64316
▁Are	-9.64325
▁plastic	-9.64552
▁revolution	-9.64691
▁haven	-9.64706
▁results	-9.64829
▁extraordinar	-9.64982
▁role	-9.64983
▁violence	-9.65181
▁led	-9.65246
z	-9.65267
▁TV	-9.65278
▁African	-9.654
▁pain	-9.65813
▁appear	-9.65849
▁leaders	-9.65923
▁throw	-9.65935
▁faster	-9.65978
▁quality	-9.66059
▁East	-9.66237
▁communities	-9.66287
▁count	-9.66339
▁mass	-9.66509
ought	-9.66617
▁treatment	-9.66755
▁remain	-9.66877
▁adult	-9.66908
▁expert	-9.67166
▁indeed	-9.6717
▁co	-9.67193
▁engineer	-9.67356
ar	-9.67379
▁stick	-9.6742
▁positive	-9.67421
▁national	-9.6755
▁surprising	-9.67608
ich	-9.67634
▁fine	-9.67678
▁male	-9.67866
▁mine	-9.67987
▁several	-9.68054
▁solar	-9.68057
ily	-9.6816
▁traditional	-9.68444
▁chemical	-9.685
te	-9.68582
way	-9.68968
▁worse	-9.68984
▁schools	-9.69182
▁finding	-9.69248
▁decision	-9.69426
▁forest	-9.6956
▁price	-9.69574
▁income	-9.69929
▁Most	-9.69954
▁virus	-9.7009
▁context	-9.70214
▁connected	-9.70363
▁11	-9.70419
▁aren	-9.70514
▁post	-9.70521
▁deliver	-9.70675
▁Who	-9.70705
▁includ	-9.70884
9	-9.70887
▁peace	-9.70971
▁decisions	-9.71192
▁immediate	-9.71221
▁carry	-9.7135
▁letter	-9.71583
▁predict	-9.71724
ch	-9.71996
▁famous	-9.72086
▁task	-9.72145
▁critical	-9.72266
▁screen	-9.72338
▁clean	-9.72593
▁drugs	-9.72598
▁perspective	-9.7261
▁hot	-9.72698
▁square	-9.72704
▁lesson	-9.72797
ty	-9.72799
▁training	-9.72995
▁rise	-9.73073
▁wear	-9.7327
▁tru	-9.73389
▁skin	-9.7339
▁version	-9.73605
▁genetic	-9.73643
▁finish	-9.73727
▁minute	-9.73769
▁college	-9.74019
▁shift	-9.74088
▁improve	-9.74469
▁website	-9.74492
▁math	-9.74701
▁direction	-9.74781
▁bank	-9.74875
▁freedom	-9.74971
▁hour	-9.74971
▁pre	-9.75052
▁standard	-9.75176
▁O	-9.75319
▁War	-9.75373
▁agree	-9.75437
▁poverty	-9.75467
▁crisis	-9.75467
▁computers	-9.7556
▁warm	-9.75614
▁wife	-9.75624
▁depend	-9.75649
▁door	-9.75731
▁90	-9.75733
▁compassion	-9.75789
▁bacteria	-9.75824
▁conflict	-9.76005
▁mom	-9.76149
▁ones	-9.76505
▁wind	-9.76799
▁David	-9.76923
▁politic	-9.77024
▁supposed	-9.77031
▁excited	-9.77039
ard	-9.77223
▁North	-9.77439
▁fit	-9.7787
▁effort	-9.77874
▁speed	-9.78155
▁meant	-9.78307
▁path	-9.78497
▁alive	-9.78528
▁John	-9.78711
▁please	-9.7873
kept	-9.78858
▁exciting	-9.78863
▁accept	-9.78913
▁interact	-9.79326
▁protein	-9.79359
▁possibilit	-9.79364
▁earlie	-9.79521
▁remarkabl	-9.79537
▁Th	-9.79591
▁prevent	-9.79827
▁religion	-9.7988
3	-9.79931
▁lower	-9.79987
▁societies	-9.80039
▁fill	-9.80161
▁enjoy	-9.80361
▁target	-9.80362
▁above	-9.80366
▁argument	-9.80369
▁reading	-9.80545
▁higher	-9.80651
▁skills	-9.80662
▁visual	-9.80734
▁flow	-9.80766
▁financial	-9.80867
▁institution	-9.81017
died	-9.81095
▁progress	-9.81345
▁visit	-9.81346
▁famili	-9.81367
▁expensive	-9.81374
▁daughter	-9.815
▁K	-9.81506
▁typical	-9.81516
▁afford	-9.81588
▁impossibl	-9.81685
▁smell	-9.81886
▁bunch	-9.81887
▁evolution	-9.82044
▁link	-9.82209
▁W	-9.82246
low	-9.82294
▁policy	-9.82585
son	-9.82779
se	-9.8284
▁board	-9.82869
eries	-9.82959
▁concern	-9.82968
▁perform	-9.82971
▁medicine	-9.83076
ful	-9.83077
▁slight	-9.8308
▁anywhere	-9.83134
▁prison	-9.83163
▁products	-9.83324
▁solutions	-9.83572
▁secret	-9.83627
side	-9.83752
▁neurons	-9.83773
▁method	-9.83898
▁magic	-9.83907
▁sent	-9.83914
▁colleague	-9.83952
▁race	-9.84107
▁massive	-9.84289
▁explore	-9.84289
magine	-9.84306
▁ready	-9.84395
▁Your	-9.84459
▁familiar	-9.84603
▁reduce	-9.8467
▁availab	-9.84739
▁Arab	-9.8498
▁funny	-9.85006
▁site	-9.85115
▁larger	-9.85166
▁purpose	-9.85169
▁Universit	-9.85252
ood	-9.85268
▁bus	-9.853
▁teaching	-9.85408
▁sexual	-9.85409
▁strange	-9.85465
▁unique	-9.85531
▁decide	-9.8561
▁respond	-9.85655
▁cold	-9.85873
▁blind	-9.86306
▁police	-9.86362
▁compare	-9.86444
▁bee	-9.86444
▁straight	-9.86464
▁writ	-9.86504
▁foot	-9.86522
▁dangerous	-9.86602
▁constant	-9.8662
▁interaction	-9.8663
▁publish	-9.86834
▁win	-9.87119
▁element	-9.87129
▁Like	-9.87135
▁temperature	-9.87157
▁address	-9.87273
▁career	-9.87518
▁usual	-9.87747
▁original	-9.87921
▁robots	-9.87927
ary	-9.87982
▁securit	-9.8805
▁weight	-9.88103
▁tissue	-9.88223
▁shark	-9.88235
▁super	-9.88373
▁signal	-9.88397
▁H	-9.88455
▁saving	-9.886
▁beauty	-9.88766
▁complicated	-9.88772
▁eventual	-9.8905
▁2	-9.89069
▁smaller	-9.89093
▁release	-9.89247
tally	-9.89775
▁luck	-9.90035
▁increasing	-9.90043
▁cross	-9.90054
refore	-9.90148
▁painting	-9.90187
▁fuel	-9.90198
▁serious	-9.90387
▁bone	-9.90738
▁legs	-9.90792
▁total	-9.9084
▁window	-9.90878
▁types	-9.90897
▁shot	-9.9093
▁babies	-9.90982
▁brother	-9.90993
▁communication	-9.91023
▁scar	-9.91098
like	-9.91167
▁performance	-9.9144
N	-9.91443
▁check	-9.91589
▁stopp	-9.91782
▁Western	-9.91864
▁humanity	-9.91919
▁shared	-9.92097
▁Afghanistan	-9.92108
▁television	-9.92108
▁terribl	-9.92115
▁German	-9.92132
▁active	-9.92208
▁press	-9.92228
▁machines	-9.92294
▁report	-9.92301
though	-9.92537
▁bas	-9.92593
▁extra	-9.92677
▁dance	-9.9269
▁citizens	-9.92884
▁paint	-9.92964
▁engine	-9.93065
▁genes	-9.93108
▁achieve	-9.9318
▁random	-9.93196
▁ultimate	-9.93248
▁worker	-9.93252
▁speech	-9.93275
▁architecture	-9.93298
▁influence	-9.93328
▁launch	-9.93413
older	-9.93485
▁fantastic	-9.93529
▁significant	-9.93574
▁researcher	-9.93679
▁birth	-9.93728
▁breath	-9.9381
▁principle	-9.93823
▁Two	-9.93847
▁chair	-9.93884
▁Toda	-9.94163
▁survive	-9.94222
▁decades	-9.94234
ach	-9.943
▁identit	-9.94401
▁creativity	-9.94401
▁instance	-9.94401
▁electricity	-9.94417
▁mention	-9.94421
▁mobile	-9.94545
▁surgery	-9.94556
▁gas	-9.94654
▁F	-9.94786
▁separate	-9.948
▁creature	-9.94982
▁biology	-9.95006
▁forth	-9.95113
▁roll	-9.95124
▁private	-9.95128
▁production	-9.95258
▁trade	-9.95342
▁Dr	-9.95346
▁belief	-9.95411
▁park	-9.95446
▁brand	-9.9546
▁summer	-9.9558
▁card	-9.95583
▁invest	-9.95597
▁relative	-9.95628
▁enter	-9.95748
▁engineering	-9.96008
▁detail	-9.9611
▁international	-9.96133
▁N	-9.96207
▁cook	-9.96487
ually	-9.96655
▁radio	-9.96727
▁failure	-9.96813
▁wild	-9.96846
▁From	-9.96863
▁honest	-9.96912
▁vote	-9.97034
▁floor	-9.97406
▁useful	-9.97474
▁propert	-9.97804
▁convince	-9.97941
▁underst	-9.97944
▁emotional	-9.98007
▁brains	-9.98046
▁21	-9.98224
▁gain	-9.98325
▁drop	-9.98372
▁apply	-9.98413
▁military	-9.98558
▁respect	-9.98613
▁demand	-9.98777
▁environmental	-9.99027
▁rule	-9.99145
▁crime	-9.9915
▁re	-9.99156
▁trouble	-9.9917
▁16	-9.99682
▁except	-9.99729
▁vehicle	-9.99759
▁intelligence	-9.99759
▁email	-9.99767
▁passion	-9.99811
▁Act	-9.99962
▁interview	-10.0002
▁ran	-10.0005
▁unit	-10.0012
▁City	-10.0025
▁communicate	-10.0035
▁neighborhood	-10.0037
▁classroom	-10.0037
▁recent	-10.0041
▁slide	-10.0066
▁cap	-10.007
▁range	-10.0072
the	-10.0072
C	-10.0073
▁meeting	-10.0079
▁walked	-10.008
▁technique	-10.0099
▁sand	-10.0132
▁landscape	-10.0161
▁yea	-10.0169
▁forget	-10.017
▁popular	-10.0172
▁text	-10.0185
▁heat	-10.0202
▁physics	-10.0224
ley	-10.0236
▁sample	-10.0247
▁decade	-10.0257
▁evolve	-10.0265
▁Facebook	-10.0289
▁sat	-10.029
▁destroy	-10.0293
▁complexity	-10.0295
▁Many	-10.0304
▁introduce	-10.0342
▁station	-10.0351
▁conference	-10.0351
▁photo	-10.0352
▁drawing	-10.0355
▁speaking	-10.0361
▁aware	-10.0366
▁spot	-10.0372
ish	-10.0383
wise	-10.0385
▁dad	-10.0413
▁coffee	-10.0413
▁collective	-10.0414
▁reward	-10.043
▁document	-10.0432
▁minds	-10.0434
A	-10.0437
▁nuclear	-10.0438
▁drink	-10.0478
▁London	-10.048
▁define	-10.048
▁cloud	-10.0483
▁cultural	-10.0491
▁central	-10.0495
known	-10.0509
▁poet	-10.0524
▁14	-10.0526
▁web	-10.0538
▁profound	-10.0542
▁zero	-10.0552
▁Indian	-10.0552
▁His	-10.0554
▁professional	-10.0557
▁wide	-10.0563
▁edge	-10.057
▁charge	-10.0609
▁meter	-10.063
▁scientist	-10.064
▁driving	-10.0643
upon	-10.0647
▁serve	-10.0655
▁worst	-10.0672
▁Middle	-10.0672
▁virtual	-10.0673
▁dying	-10.068
▁f	-10.0685
▁highly	-10.0689
▁cycle	-10.0693
▁Have	-10.0696
ial	-10.0708
▁sentence	-10.0726
▁various	-10.0738
▁sister	-10.0741
▁universit	-10.0741
▁birds	-10.0744
▁fold	-10.0748
▁election	-10.0753
▁oh	-10.0758
▁etc	-10.0764
▁twi	-10.077
▁inspired	-10.0781
▁campaign	-10.0784
▁glass	-10.0797
▁insect	-10.0804
▁husband	-10.0804
▁enormous	-10.0804
▁willing	-10.0817
▁afr	-10.0855
▁root	-10.0871
▁Take	-10.0873
▁13	-10.0874
▁Mr	-10.0884
ia	-10.089
▁expression	-10.0895
▁vast	-10.0939
▁receive	-10.0941
▁remind	-10.0946
▁199	-10.0959
▁hate	-10.0965
▁bread	-10.0967
▁dog	-10.0972
▁argue	-10.0999
▁laugh	-10.1002
▁weapon	-10.1006
▁radical	-10.1006
▁genome	-10.1008
▁Think	-10.1009
▁option	-10.1019
▁wealth	-10.1043
▁stars	-10.1047
▁accident	-10.105
▁careful	-10.1071
▁California	-10.1074
at	-10.1084
▁capacity	-10.1112
▁double	-10.1116
▁star	-10.1143
▁investment	-10.1145
▁networks	-10.1148
▁balance	-10.115
▁apart	-10.1163
tuck	-10.1185
▁basi	-10.1195
▁threat	-10.12
▁shar	-10.12
▁graph	-10.121
▁avoid	-10.1211
▁galax	-10.1211
▁leadership	-10.1212
▁missing	-10.1218
▁catch	-10.124
▁generate	-10.1263
▁possibl	-10.1265
▁component	-10.1281
▁supply	-10.1281
▁sector	-10.1281
▁dramatic	-10.1283
▁print	-10.1283
6	-10.1301
ized	-10.1302
▁damage	-10.1314
standing	-10.1324
▁distance	-10.1325
▁invite	-10.133
▁flying	-10.1333
▁artists	-10.1334
g	-10.1337
▁river	-10.1351
▁imagination	-10.1351
▁jump	-10.1358
ian	-10.1383
▁mission	-10.1395
▁rain	-10.1397
▁match	-10.1398
▁opportunit	-10.1403
▁plann	-10.1417
▁dimension	-10.1417
▁autism	-10.1424
▁streets	-10.146
▁fix	-10.1466
▁bridge	-10.1486
▁lack	-10.1492
▁responsibilit	-10.1495
▁expand	-10.1495
▁involv	-10.1502
▁desire	-10.1507
▁advance	-10.1507
▁rid	-10.1516
▁gre	-10.1519
light	-10.1524
tic	-10.1538
▁urban	-10.1542
▁airplane	-10.1565
▁Second	-10.1566
▁Chris	-10.1579
▁fashion	-10.1579
▁bar	-10.1589
▁corruption	-10.1592
▁rock	-10.1609
▁layer	-10.162
and	-10.1626
▁Iraq	-10.1632
▁neighbor	-10.1635
▁Would	-10.1635
▁opposite	-10.1635
1	-10.1648
▁bear	-10.1656
eath	-10.166
▁pressure	-10.1663
▁traffic	-10.1683
▁disappear	-10.1691
▁article	-10.1708
▁bubble	-10.1735
▁gap	-10.176
▁instrument	-10.1776
▁none	-10.1776
▁legal	-10.1778
▁universal	-10.1784
▁circle	-10.1787
u	-10.1789
▁chose	-10.1792
▁anyway	-10.1793
ne	-10.1798
▁flu	-10.1805
▁tough	-10.1806
▁rare	-10.1806
▁Did	-10.181
ities	-10.1818
▁capture	-10.185
▁consequence	-10.1854
▁application	-10.1854
▁infrastructure	-10.1855
▁stem	-10.1856
▁National	-10.1856
▁European	-10.188
night	-10.1897
▁Y	-10.1899
▁hearing	-10.1899
▁states	-10.19
▁members	-10.1914
▁equip	-10.192
▁party	-10.192
▁reveal	-10.1928
▁Again	-10.1929
▁feed	-10.193
▁consciousness	-10.1938
▁insight	-10.1953
▁loss	-10.1959
▁algorithm	-10.1967
▁core	-10.1985
▁engage	-10.1991
▁civilization	-10.2003
▁Ver	-10.2007
▁bottle	-10.2008
▁combine	-10.2025
▁AIDS	-10.2027
▁net	-10.2037
▁definition	-10.2042
▁struggle	-10.2045
▁Bill	-10.2058
▁contain	-10.2073
▁capital	-10.2077
▁Great	-10.2078
▁password	-10.2078
▁sustainabl	-10.2085
▁Any	-10.2114
▁express	-10.2127
▁San	-10.2131
▁mouth	-10.2139
▁wisdom	-10.2154
▁advantage	-10.2154
▁tremendous	-10.2154
▁Over	-10.2155
▁marrie	-10.2155
▁atmosphere	-10.2156
▁responsibl	-10.2157
▁500	-10.2157
ember	-10.2169
hand	-10.2169
rew	-10.2191
▁civil	-10.2193
▁organism	-10.221
▁patent	-10.223
ta	-10.2231
▁scene	-10.225
▁broken	-10.2274
▁dynamic	-10.2277
▁4	-10.2281
▁fac	-10.2305
▁ancient	-10.2307
▁magazine	-10.2307
▁French	-10.2307
▁museum	-10.2308
▁reaction	-10.2309
▁multi	-10.231
▁background	-10.2312
▁surviv	-10.2331
▁architect	-10.2335
▁24	-10.2335
▁corner	-10.2336
▁date	-10.2366
▁forever	-10.2372
▁worry	-10.2376
▁gift	-10.2376
▁promise	-10.2378
▁produc	-10.2382
▁tube	-10.2384
▁British	-10.2385
▁outcome	-10.2386
▁Audience	-10.2393
▁consumer	-10.2394
▁breast	-10.2415
▁town	-10.2447
▁micro	-10.2449
▁commercial	-10.2454
▁oxygen	-10.2455
▁cheap	-10.2459
▁president	-10.2472
ine	-10.2476
▁miss	-10.2481
▁quote	-10.2487
▁Big	-10.2503
▁statistics	-10.2524
▁la	-10.2535
▁encourage	-10.254
▁ecosystem	-10.2542
▁hurt	-10.2542
▁newspaper	-10.2542
▁rapid	-10.2542
▁unlike	-10.2545
▁perception	-10.255
▁pair	-10.2563
ie	-10.2565
diversity	-10.2567
▁note	-10.2571
▁sky	-10.2593
▁grade	-10.2599
▁location	-10.2613
▁sick	-10.2615
▁Her	-10.2618
▁Japan	-10.2621
▁giant	-10.2621
▁recover	-10.2621
▁suffering	-10.2624
▁Sometime	-10.2628
▁deeply	-10.2638
▁rough	-10.2642
▁claim	-10.2646
▁reflect	-10.2667
▁Muslim	-10.2669
▁notion	-10.2674
▁realiz	-10.2674
▁foreign	-10.2685
ble	-10.2688
▁dai	-10.2695
term	-10.2697
▁prove	-10.2697
▁arrive	-10.2701
▁fascinating	-10.2731
▁noise	-10.2732
▁strength	-10.277
▁fully	-10.2776
▁ship	-10.2783
▁identify	-10.2785
▁contact	-10.2795
▁ball	-10.2811
▁flight	-10.2813
▁wood	-10.2843
▁character	-10.2858
▁error	-10.2863
▁Japanese	-10.2863
▁dinner	-10.2863
▁diet	-10.2864
▁Once	-10.2871
▁sad	-10.2879
▁justice	-10.2881
it	-10.2884
▁foundation	-10.2887
▁tradition	-10.2888
▁trick	-10.2892
▁topic	-10.2896
▁creation	-10.2898
ver	-10.2911
▁sub	-10.2922
▁parent	-10.2929
▁despi	-10.2945
▁regular	-10.2945
▁strategy	-10.2945
▁politician	-10.2946
▁illness	-10.2946
dimensional	-10.295
▁negative	-10.2983
eating	-10.2994
▁injur	-10.2995
▁shoes	-10.3
▁mountain	-10.3017
▁c	-10.3019
▁suffer	-10.3025
▁happi	-10.3025
▁farm	-10.3027
▁Brazil	-10.3027
▁George	-10.3028
▁proud	-10.3028
▁wave	-10.3029
▁plane	-10.3029
▁transformation	-10.3031
▁Paul	-10.3034
▁10,000	-10.3035
▁controll	-10.3048
▁cry	-10.3062
▁pro	-10.3076
▁collapse	-10.308
▁due	-10.3098
▁puzzle	-10.3104
▁attempt	-10.3111
▁unfortunate	-10.3111
▁childhood	-10.3113
nstead	-10.3115
▁Am	-10.3117
▁gay	-10.3119
▁hair	-10.3121
▁laws	-10.3124
▁marriage	-10.3131
▁bodi	-10.3132
▁9	-10.3155
▁photos	-10.3173
▁operat	-10.3187
▁spirit	-10.3195
▁yellow	-10.3195
▁economist	-10.3198
▁Man	-10.3204
▁sugar	-10.3204
▁GDP	-10.3204
▁divide	-10.3206
▁feature	-10.3207
thing	-10.321
▁emerg	-10.3227
▁graduate	-10.3228
▁Iran	-10.3232
▁operation	-10.3235
▁users	-10.3238
▁Asia	-10.3253
▁competition	-10.328
▁interface	-10.328
▁particle	-10.328
versus	-10.328
▁employee	-10.328
▁Good	-10.3282
▁volunteer	-10.3283
▁enable	-10.3288
▁technical	-10.3295
▁More	-10.3302
▁seat	-10.3306
rry	-10.3311
▁biological	-10.3314
▁stream	-10.3322
▁click	-10.3325
▁sing	-10.3349
▁joy	-10.3361
▁See	-10.3362
▁display	-10.3365
▁talent	-10.3365
▁brilliant	-10.337
▁De	-10.3371
▁Dan	-10.3375
▁Pa	-10.3377
▁include	-10.3387
tion	-10.3401
▁narrative	-10.3411
▁farmers	-10.3436
▁shop	-10.3441
▁speaker	-10.3443
▁sequence	-10.3452
▁spin	-10.3454
▁honor	-10.3455
▁cave	-10.3461
▁agenc	-10.3462
▁aspect	-10.3462
▁cognitive	-10.3462
ng	-10.3466
▁Pe	-10.3483
▁sensor	-10.3522
▁lunch	-10.3526
▁300	-10.3544
▁Re	-10.3545
▁leader	-10.3554
▁electrical	-10.3566
▁gold	-10.357
▁designer	-10.3597
▁writer	-10.3604
ship	-10.3608
▁invisible	-10.3609
▁metal	-10.3611
▁smile	-10.3612
▁mechanism	-10.3626
▁hidden	-10.3626
▁School	-10.363
▁budget	-10.3643
▁Green	-10.365
▁limited	-10.3654
▁related	-10.367
▁efficient	-10.3694
▁wire	-10.3697
▁grown	-10.3714
▁feedback	-10.3715
▁passionate	-10.3715
▁official	-10.3719
▁rat	-10.3721
▁Mars	-10.3726
▁moon	-10.373
▁effects	-10.3732
▁spaces	-10.3743
▁remove	-10.3757
▁Does	-10.3764
▁nurse	-10.3777
▁practical	-10.3779
▁dollar	-10.3797
▁Mexic	-10.3802
▁vaccine	-10.3803
▁opinion	-10.3804
▁lung	-10.3804
▁depression	-10.3805
▁construction	-10.3805
▁faith	-10.3821
▁proper	-10.3826
▁hopeful	-10.3826
x	-10.3831
▁collection	-10.3832
▁correct	-10.3833
▁island	-10.3854
▁infect	-10.3854
▁lay	-10.387
▁operate	-10.389
▁leaving	-10.3894
▁tumor	-10.3895
▁shock	-10.3898
▁Israel	-10.3906
ey	-10.3912
▁hop	-10.3915
▁mouse	-10.3915
▁dot	-10.3918
0,000	-10.3927
▁La	-10.3929
▁meat	-10.3936
▁discovery	-10.3944
▁labor	-10.3959
▁Twitter	-10.3985
▁drone	-10.3985
ball	-10.3986
▁disaster	-10.399
▁switch	-10.3991
▁crowd	-10.3997
▁estimate	-10.3998
▁colon	-10.4004
▁litera	-10.4018
▁dis	-10.4042
▁Australia	-10.4049
▁authorit	-10.4056
▁Could	-10.4077
▁entertain	-10.4077
▁satellite	-10.4077
▁pleasure	-10.4084
▁platform	-10.4086
▁bag	-10.4088
▁mix	-10.4091
▁earth	-10.4091
▁grandmother	-10.4093
▁precise	-10.4103
▁chip	-10.4105
▁mess	-10.4117
▁analys	-10.4128
▁solv	-10.4133
▁round	-10.4142
▁score	-10.4144
▁anti	-10.4157
▁weird	-10.4161
▁Einstein	-10.4169
el	-10.4172
▁surround	-10.4176
▁finger	-10.4186
▁highest	-10.4186
▁truck	-10.4187
▁motor	-10.4202
▁exercise	-10.4205
▁industrial	-10.4213
▁theater	-10.4216
▁1,000	-10.4227
lly	-10.4229
▁Wom	-10.4266
▁invention	-10.4269
▁accurate	-10.4279
▁voices	-10.4296
▁adapt	-10.4297
▁Washing	-10.4307
ra	-10.4309
▁translate	-10.431
▁boat	-10.4331
▁beat	-10.4338
▁phenomen	-10.434
▁metaphor	-10.4346
▁determine	-10.4349
▁independent	-10.4351
▁rural	-10.4357
▁frame	-10.436
▁ordinar	-10.436
▁musician	-10.4363
▁Yet	-10.4364
▁trip	-10.4365
▁ideal	-10.4369
▁string	-10.4372
▁Sun	-10.4384
▁associate	-10.4393
line	-10.4402
▁odd	-10.4406
ory	-10.4414
▁Kenya	-10.4425
▁camp	-10.4431
▁organize	-10.4436
▁clinical	-10.4444
▁novel	-10.445
▁killing	-10.4451
▁losing	-10.4452
▁worldwide	-10.4455
▁matters	-10.447
▁channel	-10.4476
▁partner	-10.4478
▁distribution	-10.4489
▁198	-10.4497
▁wheel	-10.4505
▁copy	-10.4512
▁replace	-10.4517
▁debate	-10.4518
▁discuss	-10.4528
▁swim	-10.4532
of	-10.454
▁alternative	-10.4548
▁discussion	-10.4551
▁sold	-10.4553
M	-10.4559
▁soil	-10.457
▁pocket	-10.4572
▁therap	-10.4575
▁conscious	-10.4577
▁evolv	-10.4579
▁400	-10.4587
▁organic	-10.4593
ended	-10.4598
▁profit	-10.4639
▁England	-10.4645
▁Ma	-10.465
▁dozen	-10.4664
▁Charles	-10.4666
ray	-10.4669
▁coast	-10.4669
state	-10.4676
life	-10.4677
▁feels	-10.4686
▁artificial	-10.4686
▁chemistr	-10.4692
▁harder	-10.4699
▁di	-10.47
▁fresh	-10.4711
ization	-10.4715
▁sustain	-10.4726
▁multiple	-10.4743
▁awful	-10.4744
▁chicken	-10.4746
▁peak	-10.4774
▁characters	-10.4783
p	-10.4791
▁comfortabl	-10.4813
▁Art	-10.4827
▁demonstrate	-10.4842
▁malaria	-10.4843
▁app	-10.4846
▁valuable	-10.4853
▁label	-10.4854
▁fat	-10.4862
▁obes	-10.4863
▁assume	-10.4881
▁Canad	-10.4892
▁horse	-10.4893
▁pop	-10.4894
▁fiction	-10.4895
▁garden	-10.4917
▁bike	-10.4942
▁curious	-10.4942
▁desert	-10.4943
▁unexpected	-10.4944
▁Adam	-10.4944
▁teenager	-10.4945
▁according	-10.4951
▁adopt	-10.496
▁dry	-10.4962
B	-10.4965
▁weather	-10.4965
▁awesome	-10.4966
▁gather	-10.4975
▁detect	-10.4976
▁symbol	-10.4978
▁organs	-10.4987
▁leg	-10.5013
▁soldiers	-10.5014
R	-10.5022
▁Joe	-10.5031
▁bright	-10.5035
▁harm	-10.5039
▁pack	-10.5041
▁Street	-10.5043
▁incentive	-10.5043
▁mirror	-10.5043
▁muscle	-10.5043
▁empty	-10.5044
▁MIT	-10.5044
▁Talk	-10.5044
▁quiet	-10.5047
▁robotic	-10.5054
▁mid	-10.5055
▁succeed	-10.5056
▁applie	-10.5058
▁gene	-10.5074
▁survey	-10.5075
▁tens	-10.5075
▁kilometer	-10.5076
▁remote	-10.5085
▁chain	-10.5101
▁atom	-10.5102
ive	-10.5108
▁user	-10.5111
bodie	-10.5118
▁fell	-10.5124
▁row	-10.5137
▁musical	-10.514
▁taste	-10.5147
▁religious	-10.5157
▁Ne	-10.5158
▁symptom	-10.5164
▁variet	-10.5164
▁era	-10.5174
▁lifetime	-10.518
▁ride	-10.5197
▁professor	-10.5205
▁continu	-10.5208
▁Come	-10.5214
▁hell	-10.5215
▁grain	-10.5229
▁aging	-10.5231
▁skill	-10.5244
▁lawyer	-10.5249
▁toilet	-10.5251
▁intellectual	-10.5255
▁customer	-10.5259
▁animation	-10.526
▁crack	-10.5264
▁lift	-10.5266
▁continent	-10.5274
▁judge	-10.5344
▁extract	-10.535
wood	-10.5351
▁illusion	-10.5352
▁curve	-10.5352
▁danger	-10.5352
▁mosquito	-10.5353
▁evil	-10.5353
▁stupid	-10.5353
▁talks	-10.5357
▁Jan	-10.5359
▁seriously	-10.536
▁Other	-10.536
▁blog	-10.5361
▁actor	-10.5383
▁lock	-10.5384
▁resistan	-10.5388
▁stoo	-10.5399
▁cutting	-10.5403
▁spoke	-10.5416
▁organ	-10.5433
▁lie	-10.5436
▁master	-10.5448
▁sweet	-10.5456
▁govern	-10.5457
▁convert	-10.5458
▁equivalent	-10.5458
▁combination	-10.5458
▁caus	-10.5459
▁transition	-10.546
▁historical	-10.5462
▁humor	-10.5468
▁democratic	-10.5469
▁knowing	-10.5471
▁Their	-10.5476
▁V	-10.5499
▁journalist	-10.5506
▁avail	-10.5519
▁setting	-10.553
▁Harv	-10.5536
ier	-10.5549
▁driver	-10.5558
▁sight	-10.5563
▁Michael	-10.5564
▁tomorrow	-10.5567
▁details	-10.5573
▁measur	-10.5584
▁pounds	-10.5596
▁charit	-10.5599
▁doubt	-10.5606
ist	-10.5608
▁intelligent	-10.5611
▁Whil	-10.5626
▁penguins	-10.5627
▁mothers	-10.5646
▁tall	-10.565
▁blow	-10.5657
▁chart	-10.5668
▁ingredient	-10.5672
▁gender	-10.5672
▁apartment	-10.5675
▁liquid	-10.5676
▁empathy	-10.5683
▁appropriate	-10.5699
▁plate	-10.5716
▁molecul	-10.5719
▁Times	-10.5726
▁shapes	-10.5732
▁150	-10.5734
▁planets	-10.5752
00	-10.5769
▁nervous	-10.5781
▁telescope	-10.5781
▁maintain	-10.5782
▁whom	-10.5783
▁facilit	-10.5783
▁joke	-10.5785
▁Three	-10.5785
▁closed	-10.5787
▁burn	-10.5792
▁fellow	-10.5795
▁pure	-10.5808
▁sheet	-10.5811
▁ring	-10.5815
▁fourth	-10.5815
▁motion	-10.5817
▁cup	-10.582
▁seek	-10.582
▁CO	-10.5826
▁opening	-10.5831
▁comment	-10.5837
▁criminal	-10.5847
▁inner	-10.5854
▁participate	-10.5867
▁battle	-10.5873
▁equation	-10.5891
▁vessel	-10.5891
▁GPS	-10.5891
▁enem	-10.5891
▁silence	-10.5894
▁rational	-10.5901
eeth	-10.5902
▁ignore	-10.5903
board	-10.5908
▁Pleas	-10.591
▁grandfather	-10.591
▁extend	-10.5927
bility	-10.5932
▁prototype	-10.5945
▁grid	-10.5965
▁Hi	-10.5972
▁epidemic	-10.5973
▁pai	-10.5975
▁suit	-10.598
▁nose	-10.5999
▁psychology	-10.6002
▁Richard	-10.6002
▁fake	-10.6002
▁consume	-10.6004
▁undern	-10.6006
▁battery	-10.6007
▁brief	-10.6009
▁protection	-10.601
▁gun	-10.6021
▁severe	-10.6031
▁occurr	-10.6031
▁Me	-10.6035
▁gentlem	-10.6038
▁Jam	-10.6046
▁fan	-10.605
▁relate	-10.6071
com	-10.6084
▁reform	-10.6089
▁solid	-10.6106
▁habit	-10.6107
▁false	-10.6114
▁Life	-10.6114
▁circumstance	-10.6114
▁department	-10.6114
▁definite	-10.6114
▁staff	-10.6118
am	-10.6126
▁birthday	-10.6126
▁refugee	-10.6127
▁Brita	-10.6141
▁emissions	-10.6154
▁printing	-10.6167
▁contribute	-10.6189
▁author	-10.6195
▁scan	-10.6207
▁Day	-10.6208
▁restaurant	-10.6209
▁regret	-10.6214
▁react	-10.6225
▁laptop	-10.6228
▁Center	-10.6228
▁vulnerabl	-10.6232
▁meaningful	-10.6234
▁phrase	-10.6248
▁credit	-10.626
▁meal	-10.6262
▁King	-10.6277
et	-10.6279
▁bias	-10.6282
▁2,000	-10.6291
▁consumption	-10.6296
▁exchange	-10.6298
▁addition	-10.63
▁reverse	-10.631
▁Ri	-10.6324
rtex	-10.634
▁attract	-10.6341
▁YouTube	-10.6343
▁Robert	-10.6343
▁poem	-10.6343
▁studio	-10.6343
▁cheat	-10.6346
▁players	-10.6347
▁inspiration	-10.6352
▁section	-10.6354
▁sculpture	-10.6356
▁Mark	-10.6361
▁status	-10.6361
▁35	-10.6366
▁knee	-10.6371
▁calculate	-10.6374
▁pig	-10.6389
▁bill	-10.6391
▁Web	-10.6412
▁folks	-10.6418
▁button	-10.642
▁belong	-10.6422
▁embrace	-10.6422
ical	-10.6425
▁victims	-10.6429
▁da	-10.6437
▁cure	-10.6446
▁Fe	-10.6447
▁roof	-10.6459
▁conclusion	-10.6459
▁Since	-10.6459
▁elder	-10.6459
▁wake	-10.6459
▁shadow	-10.6461
▁lecture	-10.6467
▁soul	-10.6468
▁relevant	-10.648
▁heavy	-10.6488
▁clinic	-10.6497
tech	-10.6506
▁wine	-10.6509
▁zone	-10.6513
▁PM	-10.6513
▁broad	-10.6515
▁melt	-10.6516
▁manager	-10.6517
▁provid	-10.6531
ible	-10.6539
ility	-10.6546
O	-10.6558
▁Give	-10.6561
▁analog	-10.6568
▁tour	-10.6574
▁Congress	-10.6576
▁dolphin	-10.6576
▁encounter	-10.6576
▁Haiti	-10.6577
▁drill	-10.6578
ied	-10.658
▁expectation	-10.6581
▁climb	-10.6582
▁memori	-10.6584
▁lady	-10.6596
▁engaged	-10.6602
▁member	-10.6606
▁review	-10.661
▁loop	-10.6613
▁dogs	-10.6638
▁dictionar	-10.6645
being	-10.6662
▁receiv	-10.6663
▁philosoph	-10.6676
ma	-10.6694
▁iPhone	-10.6696
▁float	-10.6696
▁grateful	-10.6696
▁jail	-10.6696
▁implication	-10.6696
▁soft	-10.6703
▁Last	-10.6708
▁monkey	-10.6709
▁percentage	-10.6711
▁spectrum	-10.6717
▁Los	-10.6718
▁celebrate	-10.6721
▁loud	-10.6725
▁apple	-10.6726
▁repair	-10.6734
f	-10.6735
▁desk	-10.6742
▁manufactur	-10.6769
▁mistakes	-10.6777
▁importan	-10.6778
▁marketing	-10.6782
▁occur	-10.6786
▁steps	-10.6804
▁tail	-10.6816
▁Bank	-10.6817
▁academic	-10.6818
▁initial	-10.6818
▁title	-10.6819
▁medium	-10.6819
▁phase	-10.6821
▁2000	-10.6827
▁prediction	-10.683
▁rescue	-10.684
▁cat	-10.6843
ago	-10.6847
▁designers	-10.6849
▁volume	-10.6855
▁graphic	-10.6859
▁tape	-10.6866
so	-10.6882
▁angle	-10.6894
▁former	-10.6899
▁threaten	-10.6918
▁empower	-10.6937
▁elephant	-10.6938
▁unusual	-10.6938
▁challeng	-10.6938
▁assumption	-10.6939
▁lifestyle	-10.6941
▁instruction	-10.6943
▁forgot	-10.6955
▁moves	-10.6964
▁hang	-10.6988
▁electric	-10.7032
▁load	-10.7036
▁transport	-10.706
▁mushroom	-10.7061
▁librar	-10.7061
▁framework	-10.7062
▁steal	-10.7062
▁advice	-10.7062
▁grab	-10.7064
▁hydrogen	-10.7066
▁physicist	-10.707
▁bird	-10.7078
▁dense	-10.7083
ture	-10.7086
▁regard	-10.7091
bas	-10.7093
▁hide	-10.7094
▁Swede	-10.7094
▁Angel	-10.7096
▁Sea	-10.7099
▁45	-10.7107
▁director	-10.7109
▁conduct	-10.7125
▁clip	-10.7155
▁cultures	-10.7162
ant	-10.7163
▁compar	-10.7175
▁li	-10.7181
▁shame	-10.7183
ling	-10.7185
▁mathematics	-10.7186
▁polio	-10.7186
▁illegal	-10.7187
▁winter	-10.7187
▁grand	-10.7191
▁100,000	-10.7195
ter	-10.7206
▁Un	-10.7213
source	-10.7214
▁reference	-10.7218
▁perceive	-10.7221
▁bees	-10.7242
▁item	-10.7246
▁dealing	-10.7247
fore	-10.7247
▁player	-10.7253
▁mechanical	-10.7269
▁host	-10.7301
▁implant	-10.7309
▁demo	-10.7313
▁milk	-10.7313
▁dirt	-10.7313
▁collaboration	-10.7314
▁Wow	-10.7314
▁shut	-10.7317
▁innovative	-10.7318
▁intervention	-10.7318
▁Bang	-10.7319
▁gravity	-10.7327
▁pour	-10.7338
▁May	-10.7348
▁illustrate	-10.7374
ice	-10.7402
▁tea	-10.7404
▁emergenc	-10.7411
▁awareness	-10.7415
scale	-10.7422
ware	-10.743
▁hall	-10.7436
▁harvest	-10.7441
▁concrete	-10.7441
▁clever	-10.7441
▁primary	-10.7442
▁swimm	-10.7444
▁economies	-10.7446
▁hormone	-10.7446
▁earthquake	-10.7446
▁judgment	-10.7447
▁intense	-10.7468
▁length	-10.7473
gs	-10.7482
▁peer	-10.749
10	-10.7513
▁Ten	-10.7514
▁emerge	-10.7515
H	-10.7559
▁license	-10.756
▁Mo	-10.7562
▁amp	-10.7565
what	-10.7568
▁Science	-10.7571
▁vegetable	-10.7571
▁pump	-10.7571
▁Human	-10.7571
▁panel	-10.7571
▁characteristic	-10.7571
▁yester	-10.7572
▁productive	-10.7576
▁Child	-10.7577
right	-10.7593
uar	-10.7601
▁south	-10.7602
▁categor	-10.7604
▁advertis	-10.7612
▁Ju	-10.7641
▁origin	-10.7647
▁admit	-10.7661
▁sports	-10.7663
▁behavioral	-10.7672
▁agent	-10.7686
▁contract	-10.7699
▁barrier	-10.7703
▁centuries	-10.7703
▁inevitabl	-10.7703
▁mathematical	-10.7703
▁abuse	-10.7703
▁coral	-10.7703
nna	-10.7705
▁pile	-10.7705
▁Obama	-10.7708
▁fortunate	-10.771
▁activist	-10.7717
go	-10.7721
▁confidence	-10.7721
▁improvement	-10.7723
▁Real	-10.7724
down	-10.7729
▁Paris	-10.7733
▁privilege	-10.7745
▁statement	-10.7752
▁finance	-10.7771
▁pilot	-10.7791
▁handle	-10.7802
▁internal	-10.781
▁danc	-10.7816
▁height	-10.7828
ise	-10.783
▁rush	-10.783
▁client	-10.7834
▁dinosaur	-10.7836
▁chocolate	-10.7836
▁candidate	-10.7836
▁Christian	-10.7836
▁Institute	-10.7837
▁transportation	-10.7838
▁contrast	-10.7842
▁steel	-10.785
▁Girl	-10.785
▁mistake	-10.7852
foot	-10.7854
▁behave	-10.7861
▁circuit	-10.7884
▁entrepreneur	-10.7898
▁lies	-10.7907
▁previous	-10.7911
▁shoot	-10.7913
▁Star	-10.7915
▁band	-10.7924
▁Russia	-10.7944
▁cent	-10.7945
▁hip	-10.7959
il	-10.7959
▁Dere	-10.796
▁flower	-10.7961
▁agricultur	-10.7969
▁transplant	-10.797
▁rocket	-10.797
▁improv	-10.797
▁NASA	-10.7971
▁observation	-10.7972
▁hunger	-10.7972
▁nerve	-10.7973
▁clue	-10.7975
▁President	-10.7977
▁attitude	-10.7977
▁painful	-10.7978
▁computing	-10.7981
▁physician	-10.7986
▁mountains	-10.7994
▁clock	-10.7998
▁ear	-10.8
▁Tom	-10.8011
table	-10.8021
▁north	-10.8033
▁bold	-10.8035
he	-10.8038
▁destructi	-10.8057
▁prepared	-10.8064
▁appreciate	-10.809
▁shoulder	-10.81
▁court	-10.8101
▁ritual	-10.8105
▁homes	-10.8106
▁flat	-10.8107
▁hunt	-10.8107
▁TEDTalk	-10.8108
▁procedure	-10.8108
▁identical	-10.8108
▁kitchen	-10.8108
▁Gulf	-10.8108
▁frank	-10.8108
▁plent	-10.8108
▁explanation	-10.8108
▁laser	-10.8109
▁orbit	-10.8109
▁Martin	-10.8109
▁prefer	-10.8113
▁interactive	-10.8114
visible	-10.8118
▁carrie	-10.8124
▁input	-10.8124
▁sites	-10.8132
▁heads	-10.8135
hour	-10.8153
long	-10.8154
▁filter	-10.8155
ious	-10.8162
▁node	-10.8166
▁automatic	-10.8187
▁Stan	-10.819
▁entrepreneurs	-10.8201
▁protest	-10.8209
G	-10.8222
▁Steve	-10.8223
▁videos	-10.8228
▁season	-10.823
▁Pakistan	-10.8242
Sahara	-10.8247
▁Wikipedia	-10.8247
▁implement	-10.8247
▁Francisco	-10.8247
▁revenue	-10.8247
▁radiation	-10.8248
▁hotel	-10.8248
▁motivation	-10.8249
▁sustainability	-10.825
▁biologist	-10.8253
▁golf	-10.8257
▁eggs	-10.8261
ford	-10.8263
▁tax	-10.8264
▁stone	-10.8267
▁worrie	-10.8267
▁philosopher	-10.8268
▁Islamic	-10.8274
▁border	-10.8277
▁iron	-10.8279
▁mad	-10.8281
▁bare	-10.8288
ground	-10.829
▁crop	-10.8291
▁stock	-10.8295
half	-10.8298
▁poster	-10.83
▁sorr	-10.8301
▁Ben	-10.8304
▁afterward	-10.8305
▁programm	-10.8311
truck	-10.8313
▁select	-10.8323
▁trend	-10.8324
ha	-10.8325
▁earn	-10.8329
▁quarter	-10.8374
▁comfort	-10.8384
▁breathe	-10.8387
▁trillion	-10.8388
▁globe	-10.8388
▁ladies	-10.8388
▁greenhouse	-10.8388
▁Peter	-10.8388
▁commitment	-10.8389
▁vaccines	-10.8389
▁acid	-10.839
▁bug	-10.8391
▁deserve	-10.8393
▁existence	-10.8394
▁Pole	-10.8395
ri	-10.84
▁asset	-10.8401
I	-10.8402
▁coal	-10.8403
▁footprint	-10.8403
▁apparent	-10.8404
▁church	-10.8413
▁laboratory	-10.8421
▁II	-10.8426
▁plus	-10.8435
▁aim	-10.8438
▁propose	-10.8447
▁cartoon	-10.8454
raising	-10.8454
▁parking	-10.8455
▁clos	-10.8467
off	-10.8467
istic	-10.8469
▁broke	-10.8497
stage	-10.8517
▁Will	-10.852
ah	-10.8522
▁Free	-10.8523
▁Jer	-10.8525
▁trait	-10.8527
▁23	-10.853
▁frog	-10.8531
▁minister	-10.8531
▁horrible	-10.8532
▁snow	-10.8532
▁unknown	-10.8535
▁Christmas	-10.8536
▁arrest	-10.8546
▁immune	-10.8546
▁1990	-10.8558
▁authentic	-10.8563
▁3,000	-10.8565
▁Bo	-10.8569
▁stroke	-10.8578
stream	-10.8581
useum	-10.8581
▁tie	-10.8584
▁repeat	-10.859
power	-10.8602
▁sum	-10.8613
▁Ho	-10.8625
▁burning	-10.8646
▁Nigeria	-10.8648
▁violent	-10.865
base	-10.865
▁Sam	-10.8658
ngry	-10.8664
▁limit	-10.8666
gen	-10.8669
▁abstract	-10.8674
▁confront	-10.8674
▁wheelchair	-10.8676
▁narrow	-10.8676
▁silent	-10.8676
▁technological	-10.8677
▁frighten	-10.8677
▁engagement	-10.8679
▁overall	-10.8685
▁lion	-10.8685
ocin	-10.8694
▁establish	-10.8699
▁headline	-10.87
▁psychologist	-10.8712
▁Nor	-10.8715
▁Po	-10.8716
surance	-10.8719
▁Basic	-10.873
▁pregnan	-10.8748
▁St	-10.876
▁borders	-10.8763
▁Sep	-10.8768
▁spring	-10.8778
▁liver	-10.8789
▁witness	-10.8791
J	-10.8795
▁conventional	-10.8807
▁tank	-10.8808
▁fields	-10.8815
▁construct	-10.882
▁capabilit	-10.882
▁Nobel	-10.8823
▁miracle	-10.8823
▁computation	-10.8823
▁Health	-10.8823
▁healthcare	-10.8824
▁underwater	-10.8825
▁knock	-10.8829
▁presentation	-10.8832
▁sensitive	-10.8836
▁donor	-10.8837
▁decline	-10.8843
water	-10.8858
▁pool	-10.886
T	-10.8861
▁beach	-10.8864
▁Manh	-10.8874
▁split	-10.8875
▁arts	-10.8882
▁whale	-10.8886
▁mo	-10.8889
▁196	-10.8898
▁bor	-10.8908
▁tribe	-10.8911
▁dropp	-10.8918
▁hat	-10.892
▁flowers	-10.8924
▁Eric	-10.893
▁favor	-10.8949
art	-10.8952
attan	-10.8952
▁Smith	-10.8967
▁classic	-10.8967
▁courage	-10.8971
▁Egypt	-10.8972
▁session	-10.8972
▁van	-10.8972
▁pollution	-10.8972
▁Anyway	-10.8973
▁Revolution	-10.8975
▁file	-10.8976
▁icon	-10.8976
▁cluster	-10.8978
▁balloon	-10.8978
▁spreading	-10.8979
▁France	-10.898
▁inequalit	-10.898
▁astonishing	-10.8983
▁frequenc	-10.8988
▁shake	-10.8999
▁seal	-10.9006
▁presence	-10.902
▁upper	-10.9053
▁restore	-10.906
▁22	-10.9064
▁tap	-10.9077
forward	-10.9079
▁kick	-10.9086
▁wise	-10.9105
▁clouds	-10.9111
▁Latin	-10.912
▁trace	-10.9121
▁froze	-10.9123
▁participant	-10.9123
▁request	-10.9123
▁bicycle	-10.9123
▁calculation	-10.9124
heimer	-10.9124
▁condom	-10.9125
▁sphere	-10.9129
▁zoom	-10.9129
▁Arm	-10.9138
▁raw	-10.9138
▁heroes	-10.9142
▁oceans	-10.9144
▁permanent	-10.9144
▁liberal	-10.9147
▁obsess	-10.9168
▁gray	-10.9176
▁exception	-10.9178
men	-10.9187
▁younger	-10.9191
▁poll	-10.9196
▁hous	-10.9204
▁bomb	-10.9211
▁educational	-10.9219
▁Thanks	-10.9219
▁hire	-10.9226
▁monitor	-10.9227
▁polle	-10.9228
▁mapp	-10.9233
▁attach	-10.9255
▁fabric	-10.9261
▁explor	-10.9264
▁Ph	-10.9269
▁afternoon	-10.9277
▁cousin	-10.9277
▁fluid	-10.9278
▁spill	-10.9278
▁systematic	-10.9279
▁download	-10.928
work	-10.9282
▁install	-10.9282
▁mystery	-10.9284
▁sheep	-10.9285
▁oxy	-10.9293
▁Project	-10.9294
▁smoke	-10.9297
▁hero	-10.93
▁relations	-10.9305
▁cord	-10.9311
SW	-10.9312
▁efficienc	-10.9314
▁shell	-10.9315
▁bond	-10.9317
election	-10.9318
▁guide	-10.932
▁antibiotics	-10.9333
▁nor	-10.9338
▁flash	-10.934
ber	-10.9349
▁spiritual	-10.9361
▁Lad	-10.9365
ent	-10.9365
call	-10.9377
▁Del	-10.938
▁pen	-10.9392
▁inform	-10.9398
▁habitat	-10.9406
▁myth	-10.9409
▁cow	-10.941
▁Abou	-10.9419
▁Get	-10.9429
▁passenger	-10.9434
▁furniture	-10.9434
▁beetle	-10.9434
▁Amazon	-10.9434
▁wireless	-10.9436
▁Five	-10.9437
▁Eastern	-10.9438
▁pretend	-10.944
▁Final	-10.9448
▁microscope	-10.9451
▁rebuild	-10.9455
▁uncle	-10.9459
▁wars	-10.9465
E	-10.9467
▁strangers	-10.948
▁rating	-10.95
▁struggl	-10.9503
▁5	-10.9503
▁i	-10.9507
▁escape	-10.9523
▁spoken	-10.9524
▁defin	-10.9524
▁Four	-10.9532
expected	-10.9545
▁disorder	-10.955
ivity	-10.9554
▁analyze	-10.9584
50	-10.9586
nt	-10.9587
▁CEO	-10.9592
▁Congo	-10.9592
▁Foundation	-10.9593
▁agenda	-10.9593
▁prize	-10.9595
▁optimistic	-10.9596
▁diagnose	-10.9597
▁paradigm	-10.9599
stone	-10.9601
▁Chic	-10.9604
▁Frank	-10.9604
▁Iranian	-10.961
▁vulnerability	-10.9613
▁Ah	-10.9632
▁activate	-10.9642
▁defense	-10.9643
▁sacrifice	-10.9646
▁maps	-10.9653
▁intuitive	-10.9666
▁reduc	-10.9666
▁king	-10.9669
lin	-10.9674
tries	-10.9682
▁rely	-10.9699
▁exten	-10.9702
▁weigh	-10.9704
▁mail	-10.9713
▁ex	-10.9719
▁backward	-10.9721
▁portrait	-10.9722
▁electron	-10.9731
▁Hig	-10.9734
▁argu	-10.974
▁MRI	-10.9745
▁romantic	-10.9752
▁ancestor	-10.9754
▁ridiculous	-10.9754
▁heaven	-10.9754
▁Apple	-10.9754
▁ticket	-10.9754
▁Next	-10.9754
▁ignorance	-10.9754
▁evolutionary	-10.9755
▁Voice	-10.976
▁scratch	-10.9761
▁divers	-10.9761
▁telephone	-10.9762
▁clothes	-10.9764
ex	-10.9771
▁route	-10.9774
▁fiber	-10.9782
▁beside	-10.9784
▁densit	-10.9786
▁sides	-10.9803
▁Mother	-10.9803
▁imag	-10.981
▁discipline	-10.9817
▁needle	-10.9817
▁stretch	-10.9819
▁Ka	-10.9843
▁prisoner	-10.9844
▁dress	-10.9871
▁surgeon	-10.9887
▁boom	-10.9888
ated	-10.9896
iness	-10.9907
▁district	-10.9918
▁depth	-10.9918
▁guarantee	-10.9918
▁embedded	-10.9918
▁airport	-10.9918
▁wound	-10.9918
▁yield	-10.9918
▁appeal	-10.9918
▁variation	-10.9918
▁exploration	-10.9919
▁Bible	-10.9919
▁database	-10.9922
▁Antarctic	-10.9924
▁Gab	-10.9925
▁athlete	-10.9931
▁Gates	-10.9934
▁trigger	-10.9935
▁Prize	-10.9935
▁Hans	-10.9948
▁cheaper	-10.9949
▁Bos	-10.9949
▁ears	-10.995
▁organiz	-10.9952
▁stor	-10.997
▁Israeli	-10.9974
gun	-10.9982
ua	-10.9982
▁boxe	-10.9982
▁El	-10.9987
▁counter	-10.9991
▁conflicts	-10.9998
▁Islam	-10.9999
▁fossil	-11.0014
flies	-11.0031
▁Le	-11.0062
▁flag	-11.0079
▁elect	-11.0081
▁Turk	-11.0084
▁regime	-11.0084
nfortunate	-11.0084
▁compound	-11.0084
▁piano	-11.0084
▁leap	-11.0084
▁demographic	-11.0085
▁senior	-11.0087
▁crucial	-11.0089
▁Darwin	-11.009
▁mammal	-11.0091
▁hungry	-11.0091
▁99	-11.0092
▁bi	-11.0095
▁adventure	-11.0096
▁Valle	-11.0096
▁stack	-11.01
P	-11.0104
class	-11.0105
American	-11.0106
▁Russian	-11.0118
▁fixed	-11.0118
▁bribe	-11.012
▁educate	-11.012
round	-11.013
▁orange	-11.0132
▁6	-11.0135
▁engag	-11.0136
▁functional	-11.0138
▁thanks	-11.014
▁feeding	-11.0143
▁Yorker	-11.0154
▁Mc	-11.0171
▁tune	-11.0182
▁bio	-11.0191
▁ensure	-11.0198
▁limits	-11.0205
▁Wall	-11.0209
▁Ca	-11.0212
▁wash	-11.0221
ck	-11.0228
▁faci	-11.0229
▁Marc	-11.0231
▁command	-11.0233
▁style	-11.0236
▁chromosome	-11.0254
▁obstacle	-11.0254
▁corporate	-11.0254
▁gut	-11.0254
▁suspect	-11.0254
▁spell	-11.0254
▁household	-11.0254
rising	-11.0254
▁conservation	-11.0254
▁predator	-11.0254
▁figur	-11.0255
hi	-11.0255
▁1960	-11.0255
▁gesture	-11.0255
▁gear	-11.0255
▁compell	-11.0256
▁combat	-11.0258
▁flood	-11.0261
▁plain	-11.0268
▁abandon	-11.0272
▁High	-11.0274
ium	-11.0291
▁leak	-11.0291
▁Dad	-11.0297
ong	-11.0308
▁roads	-11.0316
▁Tony	-11.0316
▁tribes	-11.0325
▁seeds	-11.0329
▁Boy	-11.0329
▁Love	-11.0338
▁imagin	-11.034
▁external	-11.0362
tually	-11.0362
▁crash	-11.0363
▁stepp	-11.0366
▁worm	-11.0366
▁mortal	-11.037
▁partners	-11.0383
▁stands	-11.039
▁suck	-11.0409
▁pill	-11.0419
▁quest	-11.0424
lves	-11.0425
▁psychological	-11.0426
▁demonstration	-11.0427
▁translation	-11.0428
▁suicide	-11.043
▁Vietnam	-11.0433
▁debt	-11.0433
▁observ	-11.0434
▁1980	-11.0435
▁electronic	-11.0448
▁strike	-11.0457
ide	-11.046
▁classical	-11.0465
▁promote	-11.0466
▁pitch	-11.0474
▁cake	-11.0481
▁projection	-11.0482
▁anger	-11.0495
▁whales	-11.0502
▁dish	-11.0548
ants	-11.057
▁ski	-11.0573
▁Red	-11.0578
▁sophisticat	-11.0578
berg	-11.0586
▁ought	-11.0588
▁proof	-11.0593
▁retina	-11.0595
▁processe	-11.0599
▁prosthetic	-11.0602
▁neuroscience	-11.0602
▁recipe	-11.0602
▁NGO	-11.0602
▁distant	-11.0602
▁origami	-11.0602
▁genius	-11.0602
▁Long	-11.0602
▁objective	-11.0605
▁desperate	-11.0605
▁shall	-11.0605
▁extinct	-11.0606
cious	-11.0607
▁dive	-11.0611
▁grass	-11.0611
▁norm	-11.0614
▁tunnel	-11.0621
▁photography	-11.0625
▁Time	-11.0626
▁interpret	-11.0631
▁magical	-11.0635
▁motivate	-11.0638
▁Jim	-11.0638
▁ugl	-11.0639
▁fifth	-11.0645
▁weak	-11.0646
use	-11.0646
tra	-11.0649
▁tag	-11.0652
oxide	-11.0669
llo	-11.0672
▁mis	-11.0674
ak	-11.068
▁Co	-11.0701
▁thick	-11.0702
▁citizen	-11.0715
▁subtle	-11.0715
▁integrate	-11.0747
▁Rwanda	-11.0751
▁club	-11.0756
▁sil	-11.0763
▁murder	-11.0765
▁surrounding	-11.0767
▁Jun	-11.0775
▁reject	-11.0778
▁Peace	-11.078
▁essence	-11.078
▁rainforest	-11.078
▁shelter	-11.078
▁vertical	-11.078
▁description	-11.078
▁privacy	-11.078
▁representative	-11.078
▁elite	-11.078
▁scenario	-11.0781
▁kidney	-11.0781
rctic	-11.0781
▁contribution	-11.0782
▁vital	-11.0783
▁chest	-11.0784
▁Nothing	-11.0786
▁scanner	-11.079
▁manag	-11.079
▁fears	-11.081
▁shopp	-11.0814
all	-11.0815
▁winner	-11.0816
▁anonymous	-11.0817
▁instantly	-11.0829
▁resolve	-11.0836
▁photographer	-11.0853
point	-11.0857
▁depress	-11.0867
▁secure	-11.0877
▁boundar	-11.0878
▁95	-11.0897
▁excite	-11.0909
▁vi	-11.091
▁logic	-11.091
io	-11.0929
▁flip	-11.093
▁Rememb	-11.0939
▁194	-11.0949
▁pray	-11.0953
▁inter	-11.0954
ate	-11.0957
▁robust	-11.0962
▁substance	-11.0962
▁Brown	-11.0962
▁northern	-11.0962
▁cooperation	-11.0962
▁nonprofit	-11.0962
▁incident	-11.0962
▁dose	-11.0963
▁curiosity	-11.0963
▁pause	-11.0964
▁welcome	-11.0966
▁column	-11.0968
▁suspend	-11.0969
▁till	-11.0969
▁firm	-11.0976
▁expectanc	-11.0983
ir	-11.0983
fusion	-11.0983
▁resist	-11.0983
▁anxiety	-11.0987
▁cloth	-11.1001
▁granted	-11.1002
Something	-11.1006
▁inspiring	-11.1029
▁toxic	-11.1034
▁201	-11.1046
century	-11.105
itting	-11.1053
▁600	-11.1054
▁intention	-11.1056
▁Ven	-11.1078
▁min	-11.1096
▁recording	-11.1096
▁prime	-11.1104
▁observe	-11.1118
▁pot	-11.1128
U	-11.113
▁sweat	-11.1138
▁recogni	-11.1143
▁frustrat	-11.1145
▁pioneer	-11.1147
▁Fellow	-11.1147
▁chaos	-11.1147
▁smartphone	-11.1147
▁Through	-11.1147
▁Should	-11.1147
▁terrifi	-11.1147
▁copyright	-11.1148
▁cheese	-11.1148
▁dung	-11.1149
▁Di	-11.1151
▁tower	-11.1151
▁1950	-11.1156
led	-11.117
▁None	-11.1173
▁ethical	-11.1178
▁Scott	-11.1179
▁officer	-11.118
▁Island	-11.119
▁axis	-11.1193
▁identifie	-11.1193
▁infinite	-11.1194
▁attend	-11.1201
▁sensory	-11.1216
▁plot	-11.1219
▁approv	-11.1225
ors	-11.1228
▁thin	-11.1238
▁personalit	-11.1245
▁cartoons	-11.1246
level	-11.1249
11	-11.1253
made	-11.1261
kind	-11.1278
▁ill	-11.128
over	-11.1286
▁nei	-11.1306
▁Part	-11.1309
me	-11.1314
▁hid	-11.1316
▁meetings	-11.1319
▁shocking	-11.1327
▁strategi	-11.133
▁accomplish	-11.1333
▁tattoo	-11.1336
▁uncomfortabl	-11.1336
▁Depart	-11.1336
▁medication	-11.1336
▁reduction	-11.1336
▁Nature	-11.1336
▁Lego	-11.1337
▁Listen	-11.1337
▁overcome	-11.1337
▁boss	-11.1339
▁breed	-11.1342
ndeed	-11.1343
▁General	-11.1343
que	-11.1347
▁rap	-11.1348
▁dominant	-11.1349
cific	-11.1349
▁10-	-11.135
▁coin	-11.1355
▁killer	-11.1367
ram	-11.1368
▁shipp	-11.1375
rs	-11.1381
▁alter	-11.1386
dependent	-11.1396
▁confus	-11.1407
la	-11.1413
▁blame	-11.1423
▁refer	-11.1443
▁mal	-11.1465
▁quant	-11.147
▁fle	-11.1479
bru	-11.1481
▁transfer	-11.1494
▁ink	-11.1499
id	-11.1502
▁preserve	-11.1518
ification	-11.1519
▁Dur	-11.1521
ership	-11.1521
▁mark	-11.1526
▁ultra	-11.1528
▁International	-11.1528
▁intuition	-11.1528
▁drove	-11.1528
▁concentration	-11.1529
▁textbook	-11.1529
▁Nation	-11.1529
▁trash	-11.1529
▁transparency	-11.153
▁Park	-11.153
▁salt	-11.1533
▁magnet	-11.1534
▁agricultural	-11.1535
▁representation	-11.1535
▁mere	-11.1536
▁River	-11.1536
▁distribute	-11.154
▁participat	-11.1544
▁conclude	-11.1545
▁ceiling	-11.1549
▁regulation	-11.156
▁parallel	-11.1563
▁printer	-11.1564
▁Flor	-11.1569
▁sales	-11.1572
▁pace	-11.1575
▁2006	-11.1581
▁locate	-11.1603
▁award	-11.1626
▁rape	-11.1633
▁intrigu	-11.1634
12	-11.1644
oft	-11.1645
▁fascinat	-11.1649
▁edit	-11.1649
▁soup	-11.165
b	-11.1651
▁shooting	-11.1654
▁hack	-11.1655
▁mile	-11.1661
▁Van	-11.1664
force	-11.1667
▁pet	-11.1669
▁mate	-11.167
▁suppose	-11.1671
▁prepare	-11.1674
▁bow	-11.1675
▁Henr	-11.168
▁ratio	-11.1695
▁US	-11.1698
▁employ	-11.1704
▁attribute	-11.1707
▁reported	-11.1714
▁concert	-11.1719
▁sauce	-11.1723
▁jazz	-11.1724
▁neural	-11.1724
▁chapter	-11.1724
▁protocell	-11.1724
▁ruin	-11.1724
▁partnership	-11.1725
▁keyboard	-11.1726
▁exhibition	-11.1727
▁lamp	-11.1727
▁mutation	-11.1732
▁cats	-11.1733
▁mimic	-11.1734
▁mice	-11.1735
▁verb	-11.1736
▁White	-11.1738
ida	-11.1739
▁peaceful	-11.174
▁20,000	-11.1742
▁homeless	-11.1751
▁capita	-11.1756
▁uncertaint	-11.176
uel	-11.1774
▁farmer	-11.1778
▁inventor	-11.1781
▁invit	-11.1782
▁nutrient	-11.1787
▁Jack	-11.1792
▁shine	-11.1799
▁Space	-11.1803
▁Uni	-11.1806
aday	-11.1808
▁House	-11.1811
▁tears	-11.1816
▁trends	-11.1836
▁senses	-11.1837
▁recycl	-11.1855
PA	-11.1858
▁inspire	-11.1871
▁march	-11.1882
▁50,000	-11.1895
▁Korea	-11.1897
▁package	-11.1898
▁quit	-11.1899
▁fir	-11.1905
▁formula	-11.1907
▁profession	-11.1908
▁mixed	-11.1908
ur	-11.1916
ham	-11.1921
▁exhibit	-11.1921
▁aesthetic	-11.1924
▁explosion	-11.1924
▁dialogue	-11.1924
▁lake	-11.1925
▁primate	-11.1925
▁resident	-11.1925
▁Greek	-11.1925
▁Third	-11.1926
cellular	-11.1927
▁variable	-11.1927
▁output	-11.1928
▁Minister	-11.1929
▁resilienc	-11.1931
lf	-11.1933
▁Never	-11.1934
▁probabilit	-11.1936
▁Hill	-11.1939
▁tired	-11.194
▁measurement	-11.1941
▁consistent	-11.1945
▁attractive	-11.1946
▁array	-11.1948
▁nest	-11.1952
▁exploit	-11.1953
▁limb	-11.1962
▁fruit	-11.1966
▁pulse	-11.1974
▁laid	-11.1974
▁compromise	-11.1974
▁woke	-11.1975
▁east	-11.1977
▁unbelievabl	-11.1978
▁acknowledge	-11.1997
▁burst	-11.2003
two	-11.2004
ches	-11.2012
▁stair	-11.202
▁utter	-11.203
rous	-11.2031
▁repeated	-11.2043
▁hackers	-11.2074
▁pie	-11.2087
clock	-11.2089
minute	-11.2091
while	-11.2091
▁ha	-11.2094
▁defend	-11.2096
▁slice	-11.2105
▁Blue	-11.2121
▁bullet	-11.2123
W	-11.2123
▁diabet	-11.2126
▁instinct	-11.2128
▁helicopter	-11.2128
▁diagram	-11.2128
▁Brian	-11.2128
▁comparison	-11.2128
▁collaborative	-11.2128
▁pizza	-11.2128
▁Bush	-11.2128
▁Olympic	-11.2128
▁Lester	-11.2129
▁guilt	-11.2129
▁phosphorus	-11.2129
▁traged	-11.2129
▁hemisphere	-11.2129
▁installation	-11.213
▁limitation	-11.213
▁mindset	-11.2131
▁Make	-11.2135
▁pathway	-11.2135
▁highlight	-11.2135
▁burden	-11.2136
▁tendenc	-11.2137
▁darkness	-11.214
▁victim	-11.214
▁marker	-11.2143
▁achievement	-11.2145
▁Tell	-11.2145
▁bend	-11.2151
▁absorb	-11.2151
ol	-11.2175
▁dancer	-11.2194
▁additional	-11.221
20	-11.2217
hood	-11.2227
▁wings	-11.2238
na	-11.2242
▁kiss	-11.2244
▁reconstruct	-11.2261
ee	-11.2273
place	-11.2303
▁slides	-11.2305
▁egg	-11.2315
▁bother	-11.2324
▁Design	-11.2325
▁corn	-11.2329
▁dig	-11.2332
▁alcohol	-11.2334
▁football	-11.2335
▁awkward	-11.2337
▁tragic	-11.2337
▁entrop	-11.2337
▁routine	-11.2337
▁Koran	-11.2337
▁electrode	-11.2337
▁devil	-11.2337
▁neat	-11.2337
▁dignit	-11.2337
▁loan	-11.234
▁detector	-11.2342
▁calorie	-11.2345
▁microbe	-11.2345
▁Ghana	-11.2345
▁frequent	-11.2345
▁Sunday	-11.235
▁investor	-11.2354
▁fortune	-11.2354
▁suggestion	-11.2354
▁psychopath	-11.2359
▁250	-11.2362
▁gradual	-11.237
▁intend	-11.2371
▁walks	-11.2385
omas	-11.2385
▁palm	-11.2386
▁electronics	-11.2389
▁bath	-11.239
▁helpful	-11.2393
▁hill	-11.2425
▁Age	-11.243
▁32	-11.2433
▁soldier	-11.2435
▁experienc	-11.2442
▁qualit	-11.2445
▁sport	-11.2445
▁fulfill	-11.2449
▁Kar	-11.2449
▁urge	-11.2458
umber	-11.2475
▁MT	-11.2493
▁Up	-11.2509
▁hook	-11.2517
▁Research	-11.2522
▁borrow	-11.2528
▁cast	-11.2528
▁spark	-11.2538
ping	-11.2538
hai	-11.2539
▁vot	-11.254
dollar	-11.2542
▁gathering	-11.2542
▁exam	-11.2545
L	-11.2546
▁ceremon	-11.2549
▁curriculum	-11.2549
▁jihad	-11.2549
▁pyramid	-11.2549
▁tweet	-11.2549
▁Oxford	-11.2549
▁garage	-11.2549
▁extension	-11.2549
ney	-11.255
▁kingdom	-11.255
▁Wait	-11.255
▁delay	-11.255
▁relax	-11.255
▁stole	-11.255
▁Back	-11.255
▁generous	-11.255
▁thrill	-11.255
▁strongly	-11.2551
▁skull	-11.2551
▁dump	-11.2551
▁synthetic	-11.2553
▁deploy	-11.2557
▁bound	-11.2557
▁Centr	-11.2558
▁agreement	-11.2559
▁boot	-11.2561
▁twist	-11.2566
▁chief	-11.2573
▁introduc	-11.2576
▁parasite	-11.2582
▁profile	-11.259
▁programmer	-11.2591
▁Mom	-11.2592
▁Micros	-11.2598
▁Six	-11.26
▁dust	-11.2606
▁confident	-11.2612
▁Was	-11.2625
itude	-11.263
etic	-11.2631
▁Moon	-11.2637
▁neuron	-11.2641
▁Carolin	-11.2649
▁glow	-11.2654
▁pret	-11.2655
free	-11.2656
▁scann	-11.2659
▁underly	-11.2659
▁comic	-11.2665
▁sharp	-11.2671
ga	-11.2673
▁educat	-11.2675
▁Eve	-11.2678
ge	-11.2692
▁Se	-11.2706
▁instant	-11.2707
▁freak	-11.2716
▁brown	-11.2724
▁optimis	-11.2763
▁adjust	-11.2764
▁distinct	-11.2764
▁Obvious	-11.2767
▁inherent	-11.2767
▁virtue	-11.2767
▁federal	-11.2767
▁supermarket	-11.2767
▁Taliban	-11.2767
▁breakthrough	-11.2767
▁hallucination	-11.2767
▁LED	-11.2767
▁Jesu	-11.2767
▁reef	-11.2767
▁hypothesis	-11.2768
▁mask	-11.2768
▁native	-11.2768
▁Stage	-11.2768
▁simplicity	-11.2768
▁pole	-11.277
▁miserable	-11.277
▁Friday	-11.2773
worth	-11.2773
▁Soviet	-11.2775
▁poison	-11.2775
▁Show	-11.2778
▁wider	-11.2783
▁achiev	-11.2784
▁Ken	-11.2785
▁autonomous	-11.2786
▁retirement	-11.2792
▁coach	-11.2792
▁determined	-11.2801
▁expose	-11.2806
▁expos	-11.2806
related	-11.2806
▁Thom	-11.2808
▁wing	-11.2812
▁viewer	-11.2819
▁format	-11.282
▁65	-11.2822
▁fate	-11.2844
▁lens	-11.2851
▁infection	-11.2852
▁drivers	-11.2854
▁tricks	-11.2856
▁Su	-11.2858
▁committ	-11.286
▁ethic	-11.2862
▁describ	-11.2863
▁sandwich	-11.2897
▁producer	-11.2914
▁alien	-11.2921
fully	-11.2933
▁brave	-11.294
▁Air	-11.2948
▁wo	-11.2957
▁recruit	-11.2959
▁mall	-11.2959
▁Jona	-11.296
▁industri	-11.2975
▁8	-11.2977
ether	-11.2977
▁Aristot	-11.2989
▁December	-11.2989
▁Square	-11.2989
▁chimpanzee	-11.2989
▁choosing	-11.2989
▁fabulous	-11.2989
▁smooth	-11.2989
▁Spanish	-11.2989
▁cigarette	-11.2989
▁domestic	-11.2989
▁Josh	-11.2989
▁Watch	-11.299
▁defeat	-11.299
▁primari	-11.2991
▁Out	-11.2992
▁duck	-11.2992
▁glad	-11.2994
▁innocent	-11.2997
▁currenc	-11.2998
▁mood	-11.2999
▁insist	-11.3
▁cable	-11.3001
▁Beijing	-11.3002
▁fastest	-11.3002
▁occasional	-11.3008
▁genetically	-11.3008
▁accelerat	-11.301
look	-11.3012
▁silver	-11.3014
▁comedy	-11.3014
well	-11.3017
▁constraint	-11.3019
ster	-11.3024
▁wedding	-11.3025
▁refuse	-11.304
▁serving	-11.3053
▁195	-11.3062
▁5,000	-11.3063
▁opera	-11.3063
▁bite	-11.3069
▁tongue	-11.3072
olds	-11.3076
▁wrapp	-11.3078
▁mentor	-11.3081
▁penguin	-11.3082
▁twin	-11.3083
▁experimental	-11.3084
box	-11.309
▁reserve	-11.3097
▁lo	-11.3113
▁compete	-11.3121
ite	-11.3132
▁cart	-11.3137
▁smok	-11.3137
▁statistical	-11.314
rays	-11.3154
▁drum	-11.3174
▁Uganda	-11.3185
▁beer	-11.3188
▁puts	-11.319
▁Men	-11.3194
▁m	-11.3207
▁journal	-11.3212
▁magnetic	-11.3215
▁bizarre	-11.3216
▁pigeon	-11.3216
▁division	-11.3216
▁spider	-11.3216
▁breakfast	-11.3216
▁pursuit	-11.3216
▁simulation	-11.3217
▁FG	-11.3217
▁weekend	-11.3219
▁editor	-11.3219
▁33	-11.322
▁globalization	-11.3221
▁suppress	-11.3221
▁2001	-11.3222
▁upload	-11.3227
▁disable	-11.3227
▁sink	-11.3232
▁southern	-11.3233
▁outer	-11.3234
▁evening	-11.324
▁Holly	-11.3241
▁transparent	-11.3241
▁domain	-11.3241
▁script	-11.3241
▁censor	-11.3242
▁glacier	-11.3243
▁cute	-11.3249
house	-11.3253
▁diagnosi	-11.3256
▁warning	-11.3257
▁flavor	-11.3257
sleep	-11.3257
▁bedroom	-11.3257
▁William	-11.3269
▁manipulate	-11.3272
▁transmit	-11.3272
▁Count	-11.3287
▁winn	-11.329
▁texting	-11.3307
▁4,000	-11.3309
▁Ford	-11.3312
▁prepar	-11.3314
▁navigate	-11.3315
glasses	-11.3318
▁nutrition	-11.3326
▁conservative	-11.3353
▁priorit	-11.3355
ories	-11.3358
▁theme	-11.3365
▁Ro	-11.338
▁hearts	-11.3393
▁replicate	-11.3402
▁orchestra	-11.3406
▁pink	-11.3411
▁torture	-11.3415
▁pose	-11.3416
▁28	-11.3434
▁wrap	-11.3435
▁leather	-11.3449
▁August	-11.3449
▁despair	-11.3449
▁hierarch	-11.3449
▁pandemic	-11.3449
▁pharmaceutical	-11.3449
▁spectacular	-11.3449
▁unprecedented	-11.3449
▁Texa	-11.3449
▁expedition	-11.3449
▁fragment	-11.3449
▁veteran	-11.3449
▁Abraham	-11.3449
▁naked	-11.3449
▁ubiquitous	-11.3449
▁Daniel	-11.3449
▁reinvent	-11.3449
▁geek	-11.3449
▁refrigerator	-11.345
▁artwork	-11.3451
▁rethink	-11.3456
▁fed	-11.3456
▁filmmaker	-11.3457
▁smiling	-11.3458
▁Egyptian	-11.3459
▁Octo	-11.346
▁requirement	-11.3464
clear	-11.3469
▁clay	-11.347
▁Nov	-11.3473
▁blank	-11.3474
▁prosperity	-11.3476
▁lega	-11.3479
ro	-11.3488
▁grandchild	-11.3491
▁grandparents	-11.3491
BM	-11.3493
▁factories	-11.3493
▁120	-11.3499
percent	-11.3505
▁crew	-11.3507
third	-11.3507
▁disorders	-11.3512
▁delivery	-11.3513
▁arise	-11.3514
▁joint	-11.3518
▁36	-11.3518
atrix	-11.3527
case	-11.3531
▁tension	-11.3547
org	-11.3549
▁tip	-11.3557
▁singer	-11.3557
▁cube	-11.3561
▁remov	-11.3573
▁strip	-11.3585
▁pad	-11.3589
▁Ja	-11.359
een	-11.3594
▁concentrate	-11.36
▁Actua	-11.3607
▁Sa	-11.361
▁circuits	-11.361
▁hanging	-11.3615
▁tear	-11.3623
▁complain	-11.3635
▁harness	-11.365
▁worri	-11.3654
ably	-11.3667
▁brutal	-11.3679
▁boil	-11.368
▁luxur	-11.3683
ped	-11.3686
▁fool	-11.3687
▁Charli	-11.3687
▁Neanderthal	-11.3687
▁favela	-11.3687
▁structural	-11.3687
▁Sudden	-11.3687
▁rope	-11.3687
▁strand	-11.3687
▁acquire	-11.3687
▁aircraft	-11.3688
▁Stewar	-11.3688
▁lifespan	-11.3689
▁wipe	-11.3689
▁assignment	-11.3689
▁skeptic	-11.3689
▁homework	-11.3691
▁recall	-11.3691
▁strain	-11.3696
▁Academ	-11.3699
▁impression	-11.3702
▁Palestinian	-11.3713
▁basket	-11.3713
▁gate	-11.3717
▁releas	-11.3717
▁Mac	-11.372
▁restaurants	-11.3727
▁indoor	-11.3727
▁enhance	-11.3728
▁brush	-11.3728
▁terrorist	-11.3732
▁lotter	-11.3733
os	-11.3753
four	-11.3761
spring	-11.3761
▁shak	-11.3761
born	-11.3772
▁healing	-11.3781
▁previously	-11.3794
▁thumb	-11.3809
fi	-11.3818
▁believ	-11.382
▁Cyr	-11.3827
▁typ	-11.3833
▁shin	-11.3843
▁tackle	-11.3849
ca	-11.3852
bye	-11.3852
▁dressed	-11.3864
▁Gar	-11.3875
▁Ed	-11.3878
▁Sir	-11.3883
▁specialize	-11.3884
▁archive	-11.3885
▁broadcast	-11.3902
▁oppos	-11.3905
ko	-11.3906
▁Islands	-11.3915
▁geo	-11.3916
▁mayor	-11.392
▁via	-11.3923
▁arriv	-11.3928
▁disappoint	-11.3928
▁Afghan	-11.3931
▁pancrea	-11.3931
▁valley	-11.3931
▁bathroom	-11.3931
▁Northern	-11.3931
▁flourish	-11.3931
▁unconscious	-11.3931
▁Gandhi	-11.3931
▁flaw	-11.3931
▁signature	-11.3931
▁Mandela	-11.3932
▁storm	-11.3932
▁collaborator	-11.3932
▁insane	-11.3932
▁backyard	-11.3933
▁compress	-11.3933
▁automobile	-11.3933
▁terrifying	-11.3934
▁nerd	-11.3934
uch	-11.3935
▁glimpse	-11.3937
▁sail	-11.394
▁amateur	-11.3941
▁creator	-11.3941
▁grasp	-11.3941
▁fragile	-11.3944
▁youth	-11.3952
▁plug	-11.3953
▁troop	-11.3957
▁register	-11.3957
▁bulb	-11.3957
▁marine	-11.3965
▁Dut	-11.3972
▁Edi	-11.3973
sky	-11.3978
▁Social	-11.3979
ollege	-11.3983
▁doors	-11.3983
digit	-11.3987
▁makers	-11.3992
▁proportion	-11.4003
▁determin	-11.4004
▁overwhelming	-11.401
▁bump	-11.4011
▁flexibl	-11.4014
▁stabilit	-11.4015
▁temporar	-11.4015
▁Mos	-11.4023
three	-11.4025
▁arrow	-11.4026
▁dear	-11.4027
▁85	-11.4029
em	-11.4036
▁Ya	-11.4048
▁Lu	-11.4061
ure	-11.4063
▁26	-11.4065
▁Ba	-11.4072
▁nuts	-11.4092
▁shower	-11.4104
▁Kid	-11.4114
▁Wat	-11.4114
▁slums	-11.4115
▁falls	-11.412
ists	-11.4145
ac	-11.4154
pe	-11.4159
▁Alex	-11.416
▁hyper	-11.416
cal	-11.4167
▁Ever	-11.4167
▁manual	-11.4179
▁crystal	-11.418
▁civic	-11.4181
▁tropic	-11.4181
▁Church	-11.4181
▁storytelling	-11.4181
▁Ocean	-11.4181
▁Indonesia	-11.4181
▁initiative	-11.4181
▁Coke	-11.4181
▁simultaneous	-11.4181
▁Jewish	-11.4181
▁audio	-11.4181
▁pipeline	-11.4182
▁Norden	-11.4182
▁contemporar	-11.4183
▁denial	-11.4183
▁portion	-11.4184
▁proposal	-11.4184
▁appearance	-11.4185
▁Mexican	-11.4185
▁burie	-11.4186
▁snake	-11.4188
▁convey	-11.4189
▁Half	-11.4191
▁crush	-11.4192
▁kilo	-11.4192
▁workplace	-11.4192
▁specialist	-11.4193
ndustrial	-11.4194
▁interconnected	-11.4202
▁beating	-11.4203
▁Bob	-11.4203
▁charming	-11.4206
▁stereotype	-11.4208
▁rice	-11.4208
▁Same	-11.4209
▁confirm	-11.421
▁myceli	-11.4211
▁devastating	-11.4217
▁Jo	-11.4219
▁prior	-11.4223
▁satisfy	-11.4223
▁uniform	-11.4226
▁Put	-11.4227
▁endless	-11.4228
▁highway	-11.4231
▁polar	-11.424
▁Sure	-11.4248
▁leverage	-11.4251
▁compet	-11.426
dom	-11.4268
▁bang	-11.4268
▁bin	-11.427
▁Bell	-11.4281
▁dial	-11.4286
▁commit	-11.4291
net	-11.4292
ile	-11.4296
▁Global	-11.4299
▁upset	-11.4303
▁unemploy	-11.4308
▁owner	-11.4312
▁mechanic	-11.4325
▁democrac	-11.4333
der	-11.4337
▁developer	-11.4337
▁Roy	-11.4339
▁pursue	-11.4341
▁passe	-11.4347
▁chas	-11.4353
op	-11.4367
▁Mu	-11.4372
coli	-11.439
▁damn	-11.4394
▁thrive	-11.4399
▁generat	-11.4401
▁horizon	-11.4411
▁pin	-11.442
▁drag	-11.4427
▁recommend	-11.4436
▁decrease	-11.4436
▁schizophreni	-11.4437
▁Detroit	-11.4437
▁guerrilla	-11.4437
▁membrane	-11.4437
▁insulin	-11.4437
▁Rosling	-11.4437
▁jaw	-11.4437
▁garbage	-11.4437
▁pride	-11.4438
▁endanger	-11.4438
▁fraction	-11.4438
▁Iceland	-11.4438
▁cash	-11.4438
▁Jew	-11.4438
▁Rome	-11.4438
▁tiger	-11.4439
▁TEDster	-11.444
▁marathon	-11.444
▁strategic	-11.444
▁notic	-11.4441
▁Mike	-11.4443
▁annual	-11.4446
▁transmission	-11.4447
▁hub	-11.4461
▁Ap	-11.4462
▁Wolf	-11.4469
▁offering	-11.4493
▁container	-11.45
▁reliabl	-11.4521
▁TEDx	-11.4542
ril	-11.4543
profit	-11.4543
ip	-11.4549
eye	-11.4552
ger	-11.4565
eaten	-11.4568
▁copie	-11.4576
▁crows	-11.4582
▁port	-11.4589
▁Lo	-11.4591
▁dough	-11.4596
▁Spa	-11.4603
▁indicate	-11.461
▁Ji	-11.4611
▁Sand	-11.4611
▁juice	-11.4619
▁washing	-11.4637
vill	-11.4641
▁Lee	-11.4641
▁burned	-11.4643
▁Home	-11.4657
▁29	-11.4667
▁infant	-11.4667
▁Andrew	-11.4668
▁Swed	-11.4689
▁Bu	-11.4691
▁polic	-11.4698
▁Singapore	-11.47
▁Swiss	-11.47
▁excuse	-11.47
▁grocer	-11.47
▁harbor	-11.47
▁mathematician	-11.47
▁contagio	-11.47
▁oyster	-11.47
▁Shang	-11.47
ealand	-11.47
▁towel	-11.4701
▁shrimp	-11.4701
▁elevator	-11.4701
▁Technolog	-11.4701
▁Virgin	-11.4701
▁preference	-11.4701
▁static	-11.4702
▁calm	-11.4702
▁fence	-11.4702
Arthur	-11.4703
▁syndrome	-11.4703
▁silk	-11.4704
ese	-11.4705
▁disconnect	-11.4705
▁replacement	-11.4706
▁Steph	-11.4709
▁cylinder	-11.4711
▁enterprise	-11.4713
▁yoursel	-11.4719
▁coat	-11.472
▁historic	-11.472
than	-11.472
▁heal	-11.4735
▁passive	-11.4749
town	-11.4757
ortality	-11.4764
▁Ray	-11.477
▁Che	-11.4773
▁abilit	-11.4774
▁Law	-11.4778
▁ethnic	-11.4786
▁Asian	-11.4796
ai	-11.4807
▁seed	-11.4814
ler	-11.4822
▁millimeter	-11.4824
▁tar	-11.4826
izing	-11.4827
▁im	-11.4831
social	-11.4835
▁architectur	-11.4849
drive	-11.4855
interest	-11.4863
▁Profess	-11.4867
▁corporations	-11.4878
▁overwhelm	-11.4883
dge	-11.4888
▁eliminate	-11.4889
▁flowing	-11.4894
▁climbing	-11.4898
▁ironic	-11.491
▁independen	-11.4921
▁shit	-11.4933
▁30-	-11.4935
▁documentar	-11.4939
▁tight	-11.494
▁capitalis	-11.4947
▁occasion	-11.4947
▁Fin	-11.495
▁mode	-11.4951
▁Matt	-11.4952
▁Yemen	-11.4957
▁gods	-11.496
cost	-11.4962
▁paradox	-11.4962
▁sanit	-11.4965
▁distract	-11.4967
▁Chile	-11.4969
▁philanthrop	-11.4969
▁craft	-11.497
▁Bronx	-11.4971
▁DVD	-11.4971
▁Shakespeare	-11.4971
▁drown	-11.4971
▁immense	-11.4971
▁neuroscientist	-11.4971
▁potato	-11.4971
▁trajector	-11.4971
▁receptor	-11.4971
▁microphone	-11.4971
▁genuine	-11.4971
▁thylacine	-11.4971
▁mysterious	-11.4971
▁spontaneous	-11.4971
▁steer	-11.4972
▁subway	-11.4973
▁Thai	-11.4974
▁Tim	-11.4974
▁intent	-11.4975
▁aggressive	-11.4976
▁valve	-11.4977
▁salar	-11.4977
▁sake	-11.4981
▁adolescent	-11.4981
▁1930	-11.4982
▁texture	-11.4982
▁renewable	-11.4983
ner	-11.4996
▁bored	-11.5003
▁ending	-11.5008
▁tech	-11.5009
bar	-11.5009
pit	-11.501
▁grave	-11.5018
▁tale	-11.502
▁recogniz	-11.5034
▁integrat	-11.5038
▁Na	-11.5048
her	-11.5054
▁Mov	-11.5056
▁supplie	-11.5058
▁explode	-11.506
▁Lin	-11.5063
▁cooperate	-11.5064
▁bombs	-11.5066
▁impress	-11.5076
▁k	-11.5084
▁antibod	-11.5094
▁translat	-11.5102
▁Has	-11.5109
▁association	-11.5111
▁goat	-11.5117
▁Atlant	-11.5123
back	-11.5137
vity	-11.5138
▁founder	-11.5138
▁unhapp	-11.514
▁Ta	-11.5141
ueen	-11.5142
rhythm	-11.5147
Y	-11.5153
weight	-11.5154
plus	-11.5156
▁ten	-11.516
▁associat	-11.5166
▁candy	-11.5166
second	-11.5174
▁legislati	-11.5176
▁beam	-11.5177
▁ecological	-11.5185
▁stranger	-11.5189
▁diploma	-11.5192
▁polici	-11.5202
▁Sant	-11.5203
▁Map	-11.5206
▁pr	-11.5209
▁shirt	-11.5212
▁autist	-11.5214
▁assum	-11.5215
▁Wi	-11.5219
CD	-11.5224
▁anticipate	-11.5227
▁purchase	-11.5232
▁mutual	-11.5232
▁Us	-11.5233
▁teenage	-11.5241
▁delight	-11.5246
▁ideolog	-11.5246
racing	-11.5247
▁reproduce	-11.5247
▁leaf	-11.5248
▁scaffold	-11.5248
▁sweep	-11.5248
▁impulse	-11.5248
▁intimate	-11.5248
▁cyber	-11.5248
▁strict	-11.5249
▁primitive	-11.5249
▁courageous	-11.525
▁Republican	-11.525
▁excellen	-11.525
▁elementary	-11.5251
▁hometown	-11.5251
▁logo	-11.5252
▁sacred	-11.5252
▁friendship	-11.5253
▁Lab	-11.5254
▁viral	-11.5255
▁detection	-11.5256
▁survived	-11.5257
▁dawn	-11.5259
▁inherit	-11.526
▁threshold	-11.526
▁blindness	-11.526
▁analyz	-11.5263
F	-11.5272
▁dedicat	-11.5274
▁Yo	-11.5274
▁Try	-11.5274
▁pan	-11.5277
▁drought	-11.528
▁server	-11.5282
bo	-11.5289
▁destiny	-11.5292
▁dare	-11.5294
▁starv	-11.5296
▁embarrassing	-11.5304
▁Nel	-11.5305
ti	-11.5311
▁Simon	-11.5317
▁terrain	-11.5319
▁reflection	-11.5328
▁gra	-11.5334
▁embrac	-11.5338
fa	-11.5342
▁interrupt	-11.5354
some	-11.536
▁tone	-11.5362
▁dumb	-11.5368
▁terroris	-11.5374
▁payment	-11.5377
▁sh	-11.5387
▁Pat	-11.5394
ize	-11.5395
▁pipe	-11.5403
▁donation	-11.5422
nda	-11.544
blowing	-11.5452
king	-11.5457
fold	-11.5457
▁Emma	-11.5469
▁cosm	-11.5475
end	-11.5478
▁rose	-11.5483
ang	-11.5486
▁sensation	-11.5491
ically	-11.5496
▁consist	-11.5497
▁secrets	-11.551
▁custom	-11.5513
▁expansi	-11.5516
fish	-11.552
▁Ke	-11.553
▁views	-11.5531
▁800	-11.5532
▁scare	-11.5533
▁Catholic	-11.5534
▁Joseph	-11.5534
▁gorgeous	-11.5534
▁jewel	-11.5534
▁sibling	-11.5534
▁swallow	-11.5534
▁marvel	-11.5534
▁Court	-11.5534
▁explicit	-11.5534
▁banana	-11.5534
▁criteri	-11.5534
▁Montana	-11.5534
▁fetus	-11.5534
▁Compan	-11.5534
▁cruel	-11.5534
▁permission	-11.5534
▁mustache	-11.5534
▁canvas	-11.5535
▁magnificent	-11.5536
▁interpretation	-11.5537
▁Albert	-11.5537
▁1900	-11.5537
▁manner	-11.5538
▁investigation	-11.5539
▁marry	-11.554
▁genocide	-11.5542
▁campus	-11.5543
▁Open	-11.5543
▁Water	-11.5543
page	-11.5544
▁bowl	-11.5545
▁Tasmanian	-11.5545
▁elegant	-11.5547
▁contrar	-11.5553
▁sir	-11.5559
▁honey	-11.556
▁trans	-11.5563
▁inject	-11.5567
▁Grand	-11.5567
▁chess	-11.5568
▁tide	-11.5569
▁neutral	-11.5571
▁disturbing	-11.5581
▁quad	-11.5586
gentleman	-11.5588
▁31	-11.5588
▁divorce	-11.559
▁bush	-11.559
har	-11.559
▁intensive	-11.5607
▁controversial	-11.5607
▁Kev	-11.5608
gie	-11.5627
▁upside	-11.5628
▁reporter	-11.5634
▁pound	-11.5639
ook	-11.564
▁altitude	-11.5649
▁assembl	-11.5657
▁Pop	-11.5662
▁Mary	-11.5666
▁cliff	-11.5668
▁competitive	-11.5668
▁fires	-11.567
▁fanc	-11.567
▁examine	-11.5678
▁Mar	-11.5679
▁linear	-11.5682
▁included	-11.5683
▁proven	-11.5685
ke	-11.5689
▁cod	-11.5707
▁span	-11.5712
▁lonel	-11.5714
▁lit	-11.572
▁jar	-11.5721
▁spray	-11.5735
ade	-11.5739
▁br	-11.5741
▁wi	-11.5747
sight	-11.5749
war	-11.5752
▁Prince	-11.5752
▁regenerate	-11.5758
world	-11.5762
▁boost	-11.58
▁ambitio	-11.5803
▁odor	-11.5804
▁dedicate	-11.5807
fer	-11.581
▁shy	-11.581
▁wage	-11.5811
▁bucks	-11.582
therland	-11.5823
set	-11.5824
▁creep	-11.5828
▁violin	-11.5828
▁vacuum	-11.5828
▁confine	-11.5828
▁Keep	-11.5828
▁proposition	-11.5828
▁venture	-11.5828
▁monster	-11.5828
▁puppet	-11.5828
▁vacation	-11.5828
▁bombsight	-11.5828
▁temple	-11.5829
▁immortal	-11.5829
▁improvisation	-11.5829
▁drift	-11.5829
▁redesign	-11.583
▁negotiation	-11.5831
▁loving	-11.5831
▁frontier	-11.5831
▁heritage	-11.5832
▁Jane	-11.5832
▁shout	-11.5833
▁dragg	-11.5835
▁rhythm	-11.5838
▁magician	-11.5842
▁cue	-11.5845
▁logical	-11.5846
▁astronomer	-11.5847
▁Newton	-11.5847
▁Alexand	-11.5847
▁bleed	-11.585
▁deepest	-11.5851
▁corrupt	-11.5858
▁horizontal	-11.5858
▁momentum	-11.5858
▁Geograph	-11.5859
▁obtain	-11.586
▁spare	-11.586
▁neck	-11.5865
▁Ko	-11.5865
▁Ron	-11.5876
▁Korean	-11.588
▁girlfriend	-11.5882
▁advocate	-11.5895
ka	-11.592
▁replac	-11.5923
▁Lot	-11.5934
▁Car	-11.5937
▁guard	-11.5941
▁20-	-11.5952
rich	-11.5959
▁ego	-11.5975
▁sale	-11.5985
ery	-11.5995
▁55	-11.6007
▁critic	-11.6012
▁cope	-11.6034
▁realm	-11.6036
▁Gree	-11.6047
▁Oo	-11.6048
▁relation	-11.6072
▁hybrid	-11.6074
▁announce	-11.6079
fall	-11.6081
de	-11.6083
▁stamp	-11.6087
▁resolution	-11.6096
urveillance	-11.6106
▁distribut	-11.6106
mar	-11.6107
▁freez	-11.611
▁authors	-11.6117
▁diagnos	-11.6121
active	-11.6121
face	-11.6125
bular	-11.6126
wards	-11.6127
▁OE	-11.613
▁controvers	-11.6131
▁Black	-11.6131
▁Tanzania	-11.6131
▁chronic	-11.6131
▁expense	-11.6131
▁humanitarian	-11.6131
▁minimum	-11.6131
▁syringe	-11.6131
▁warrior	-11.6131
▁ultrasound	-11.6131
▁Saturn	-11.6131
▁scheme	-11.6131
▁caregiver	-11.6131
▁triangle	-11.6131
▁exposure	-11.6131
▁deliberate	-11.6132
▁nano	-11.6132
▁reclaim	-11.6132
▁batteries	-11.6132
▁compassionate	-11.6133
▁progressive	-11.6133
perm	-11.6134
▁galler	-11.6134
▁cartoonist	-11.6134
▁astronaut	-11.6134
▁Rather	-11.6134
▁fireflies	-11.6135
▁veil	-11.6135
▁minus	-11.6136
▁educator	-11.6136
▁lobe	-11.6138
▁downtown	-11.6138
▁adaptation	-11.6138
▁rocks	-11.6138
▁Lewi	-11.614
▁vibration	-11.6141
nburg	-11.6143
▁helmet	-11.6143
▁Italian	-11.6144
▁Super	-11.6145
▁loose	-11.6148
▁grabb	-11.6149
▁readers	-11.6151
uthern	-11.6151
▁soap	-11.6153
▁Laden	-11.6155
▁administrati	-11.6156
▁stunning	-11.6162
▁congest	-11.6165
osity	-11.6171
▁Ky	-11.6177
▁socially	-11.6179
▁swing	-11.6183
▁hardest	-11.6185
▁trap	-11.6188
▁helpless	-11.6191
▁surgeons	-11.6193
▁bind	-11.6193
▁jumped	-11.6195
▁log	-11.6197
▁30,000	-11.6201
▁announc	-11.6209
▁collaborate	-11.6222
▁quantit	-11.6224
BC	-11.6227
▁paralyz	-11.623
▁2.	-11.6242
▁provider	-11.6256
▁assemble	-11.6257
▁guns	-11.626
BI	-11.6296
▁Jay	-11.6313
▁po	-11.6316
▁deaf	-11.6319
version	-11.632
▁metaboli	-11.6326
▁Scot	-11.6329
▁chemist	-11.633
ax	-11.6339
▁Cam	-11.634
ung	-11.6348
lines	-11.6352
▁alarm	-11.6355
▁practic	-11.6358
▁realistic	-11.6358
▁Kan	-11.637
▁awe	-11.6376
▁bless	-11.6384
assembl	-11.6384
▁bell	-11.6393
▁abundan	-11.6393
▁punch	-11.6397
▁continuous	-11.6398
▁Mi	-11.6404
▁integr	-11.6423
income	-11.6425
▁chop	-11.643
▁heavi	-11.6431
lihood	-11.644
▁Organiz	-11.644
▁Absolute	-11.6444
▁Silicon	-11.6444
▁album	-11.6444
▁encouraging	-11.6444
▁Disney	-11.6444
▁authoritarian	-11.6444
▁blob	-11.6444
▁Brooklyn	-11.6444
▁Lord	-11.6444
▁deforest	-11.6444
▁leopard	-11.6444
▁Medicine	-11.6444
▁dopamine	-11.6444
▁striking	-11.6444
▁inflation	-11.6444
▁destination	-11.6444
▁Clint	-11.6445
▁meditation	-11.6445
▁USA	-11.6445
▁civilian	-11.6445
▁episode	-11.6446
▁addiction	-11.6446
▁shepherd	-11.6447
▁modest	-11.6449
▁philosophical	-11.6449
▁Play	-11.6449
▁toast	-11.645
▁occupy	-11.6452
▁convict	-11.6453
▁assign	-11.6456
▁mineral	-11.6457
▁align	-11.6464
▁summarize	-11.6465
▁Li	-11.6466
▁hut	-11.6466
▁Somali	-11.647
▁sponsor	-11.647
▁penis	-11.6475
▁interior	-11.6479
▁Rose	-11.6486
▁stimulate	-11.6491
▁tile	-11.6496
▁SS	-11.6498
▁rehabilitati	-11.6501
▁fatal	-11.6506
▁accessib	-11.6509
▁accelerate	-11.6515
ux	-11.6517
▁recycle	-11.6518
▁metric	-11.6522
do	-11.6532
▁shore	-11.6536
▁Tes	-11.6543
aking	-11.6544
▁update	-11.655
▁oven	-11.6551
▁gase	-11.6558
▁ma	-11.6558
▁staring	-11.656
▁envelope	-11.6569
▁whistle	-11.6569
▁tolerance	-11.6569
seas	-11.6576
▁cleaner	-11.6579
▁Ital	-11.6581
▁Seven	-11.6615
▁se	-11.662
▁monitoring	-11.6625
▁cop	-11.663
bert	-11.6632
▁tick	-11.6635
▁terror	-11.664
▁axe	-11.6648
▁junk	-11.6653
sh	-11.6659
▁div	-11.6664
▁Phil	-11.6676
▁correspond	-11.6676
▁shap	-11.6679
▁Philip	-11.6684
▁camps	-11.6703
top	-11.6706
ttle	-11.6714
▁graduat	-11.6717
▁ho	-11.6721
tact	-11.6731
van	-11.6733
▁negotiate	-11.6735
▁minorit	-11.6739
▁export	-11.6742
gram	-11.6752
Global	-11.6759
zler	-11.6761
▁Far	-11.6761
▁regulate	-11.6764
▁autonom	-11.6766
▁Saturday	-11.6766
▁famine	-11.6766
▁stomach	-11.6766
▁visceral	-11.6766
▁Coast	-11.6766
▁Similar	-11.6766
▁irrational	-11.6766
▁Parkinson	-11.6766
▁chamber	-11.6766
▁enzyme	-11.6766
▁secular	-11.6766
▁vivid	-11.6766
▁empire	-11.6766
▁Nathan	-11.6767
▁Sierra	-11.6767
▁spaghetti	-11.6767
▁Treat	-11.6767
▁phenomena	-11.6767
▁feminist	-11.6768
▁accumulate	-11.6768
▁Sarah	-11.6768
▁territor	-11.6769
▁neocort	-11.677
witzer	-11.6772
▁obsession	-11.6772
au	-11.6774
▁coverage	-11.6774
▁selfish	-11.6775
▁Hope	-11.6775
▁pleasant	-11.6776
person	-11.6779
▁embodi	-11.6782
▁Pretty	-11.6784
▁commission	-11.6786
▁intrinsic	-11.6787
ative	-11.679
GG	-11.6793
▁realization	-11.6799
nix	-11.6799
▁Hall	-11.68
▁storyteller	-11.6802
▁chimp	-11.6802
▁deposit	-11.6805
▁worrying	-11.6805
▁Jones	-11.6812
▁Line	-11.6812
▁referr	-11.6815
▁Da	-11.6817
▁disability	-11.6822
▁nonviolen	-11.6831
aware	-11.6836
▁Brother	-11.684
▁manufacturer	-11.684
▁entit	-11.6846
▁Port	-11.685
▁inmate	-11.685
makers	-11.6853
▁Mur	-11.6854
▁maker	-11.686
▁discoveries	-11.6861
▁vari	-11.6861
▁clari	-11.6863
lmost	-11.6866
▁Cal	-11.6866
▁gener	-11.6872
▁settle	-11.6872
▁Year	-11.6874
▁eliminat	-11.6875
▁branch	-11.6877
▁semi	-11.6908
▁con	-11.6925
▁bask	-11.693
▁Carol	-11.6955
▁impressi	-11.6964
vice	-11.6966
▁Mon	-11.6971
tangible	-11.6987
kin	-11.6998
nce	-11.701
let	-11.7016
audi	-11.7027
ittle	-11.7028
▁Turns	-11.7038
▁Ted	-11.7042
▁institutional	-11.7047
▁productiv	-11.7048
▁significan	-11.705
ap	-11.7069
▁valid	-11.7071
▁switched	-11.7077
▁badly	-11.7081
ota	-11.7082
▁beef	-11.7086
▁donate	-11.7088
love	-11.7089
▁Minist	-11.7094
col	-11.7094
▁voca	-11.7096
unch	-11.7096
▁eco	-11.7097
,500	-11.7099
▁Accord	-11.71
▁fantasy	-11.71
▁historian	-11.71
▁iPod	-11.71
▁janitor	-11.71
▁multiply	-11.71
▁tribal	-11.71
▁jellyfish	-11.71
openha	-11.71
▁substantial	-11.71
▁cotton	-11.71
▁naive	-11.71
▁2030	-11.71
▁captain	-11.71
▁Still	-11.71
▁broc	-11.71
▁theoretical	-11.71
▁Twenty	-11.71
▁hint	-11.7101
▁selective	-11.7101
▁premise	-11.7101
▁panic	-11.7101
▁Johnny	-11.7102
▁stabilize	-11.7102
▁preparation	-11.7102
▁invitation	-11.7102
▁deck	-11.7102
▁Stop	-11.7102
▁translator	-11.7102
▁unfold	-11.7102
▁fascinate	-11.7103
pox	-11.7103
▁nightmare	-11.7104
▁distinction	-11.7104
▁Muh	-11.7104
▁frustration	-11.7105
▁12-	-11.7107
▁therapist	-11.7108
▁carrot	-11.7109
▁blogg	-11.7109
▁executive	-11.7113
▁descend	-11.7113
▁shatter	-11.7114
▁ambulance	-11.7115
▁bam	-11.7115
▁Lake	-11.7116
▁pond	-11.7117
▁nail	-11.7119
▁yeast	-11.7122
▁entry	-11.7126
▁guid	-11.7127
▁tactic	-11.7128
▁Palm	-11.7129
▁vary	-11.7132
▁Dar	-11.7135
▁mat	-11.7136
▁cafe	-11.7138
▁spike	-11.7146
ft	-11.7148
▁stake	-11.715
ila	-11.715
▁processor	-11.7153
▁flipp	-11.7155
▁AK	-11.7156
▁Julian	-11.7158
per	-11.7159
▁Canadian	-11.7162
▁Turn	-11.7163
▁optical	-11.7171
oid	-11.7176
▁preserv	-11.7184
▁retire	-11.7195
▁thus	-11.7203
▁slip	-11.7207
▁knife	-11.7209
▁44	-11.721
▁voter	-11.721
▁jet	-11.7211
▁useless	-11.7212
▁Bud	-11.7216
▁Gold	-11.7236
▁extinction	-11.7238
▁15-	-11.7241
om	-11.7242
▁equit	-11.7245
▁camel	-11.7245
▁wir	-11.7257
cut	-11.7259
▁masse	-11.7264
▁38	-11.7265
▁fuse	-11.7283
▁impose	-11.7288
▁compute	-11.729
▁redefine	-11.7311
iest	-11.7322
▁amaze	-11.7325
style	-11.7336
▁lawn	-11.7338
▁Dian	-11.7343
▁blend	-11.7346
▁propos	-11.7352
waves	-11.7358
▁tooth	-11.7363
▁dominate	-11.7368
amma	-11.7371
▁pit	-11.7385
▁lane	-11.7387
erson	-11.74
▁hum	-11.7401
▁Har	-11.7403
▁Syria	-11.7405
▁Cambodia	-11.7416
▁forgive	-11.7425
▁Du	-11.7436
▁isolat	-11.744
▁Democrat	-11.7442
▁disagree	-11.7442
▁Leban	-11.7443
▁accura	-11.7444
▁Buddhis	-11.7444
▁Norwegian	-11.7444
▁Sylvi	-11.7444
▁dilemma	-11.7444
▁hamburger	-11.7444
▁obsolet	-11.7444
▁octopus	-11.7444
▁victor	-11.7444
▁immigrant	-11.7445
▁unfair	-11.7445
▁Publi	-11.7445
▁vitamin	-11.7445
▁lump	-11.7445
▁drunk	-11.7445
▁multinational	-11.7445
▁pirate	-11.7445
▁diagnostic	-11.7445
▁Roger	-11.7446
▁skeleton	-11.7446
▁intersection	-11.7446
bridge	-11.7446
▁nucle	-11.7446
▁arrangement	-11.7446
▁visualization	-11.7447
▁Ethiopia	-11.7447
▁pheromone	-11.7449
▁insert	-11.745
▁slave	-11.745
▁mild	-11.7451
▁cage	-11.7451
▁symphon	-11.7452
▁fertilizer	-11.7452
▁passage	-11.7453
▁Histor	-11.7454
▁Stone	-11.7458
▁revelation	-11.7459
▁formal	-11.7466
▁Ross	-11.7467
word	-11.7467
▁200,000	-11.7474
▁toxin	-11.7483
▁vo	-11.7483
▁baker	-11.7489
shirt	-11.749
▁aspiration	-11.7491
▁bust	-11.7493
lept	-11.7495
▁Lang	-11.7496
▁longe	-11.7497
▁playful	-11.7497
▁enforce	-11.7498
▁Hunt	-11.7501
▁lover	-11.7502
▁schedule	-11.7507
▁communicat	-11.7508
▁reader	-11.7513
▁dropping	-11.7514
boo	-11.7516
shape	-11.7517
five	-11.7526
▁sew	-11.7531
▁probe	-11.7531
▁publishe	-11.7542
▁integration	-11.7542
▁inch	-11.7547
▁shoe	-11.7564
▁Less	-11.7578
▁publisher	-11.7578
▁stare	-11.7585
▁harmon	-11.7585
▁seeming	-11.7587
▁tent	-11.7589
▁dome	-11.7591
▁spreads	-11.76
▁Gi	-11.7601
alem	-11.7606
▁48	-11.7613
▁mesh	-11.7647
▁boundary	-11.7649
▁42	-11.7653
olation	-11.7659
▁scarce	-11.766
gging	-11.7666
▁lever	-11.7667
month	-11.7668
▁infections	-11.7672
▁branche	-11.768
we	-11.7685
drew	-11.7699
▁refine	-11.7701
▁cookie	-11.7709
ogether	-11.7712
▁lean	-11.7713
▁liter	-11.7724
no	-11.7725
▁sens	-11.7736
▁Julia	-11.7744
▁meme	-11.7745
▁visualize	-11.7752
▁neuro	-11.7763
▁cooling	-11.7766
▁awake	-11.7774
▁import	-11.7781
▁Under	-11.7783
▁ongoing	-11.7787
▁geometr	-11.7795
▁pant	-11.7795
▁Republic	-11.78
▁punish	-11.78
▁stigma	-11.78
▁admire	-11.7801
▁Know	-11.7802
imbabwe	-11.7802
▁Parliament	-11.7802
▁Secur	-11.7802
▁Ushahidi	-11.7802
▁artifact	-11.7802
▁calendar	-11.7802
▁encrypt	-11.7802
▁endeavor	-11.7802
▁remittance	-11.7802
▁welfare	-11.7802
▁absence	-11.7802
▁calculator	-11.7802
▁depict	-11.7802
▁antenna	-11.7802
▁stadium	-11.7802
Cola	-11.7802
▁cybercriminal	-11.7802
▁funeral	-11.7802
▁Goliath	-11.7802
▁orgasm	-11.7802
▁Homo	-11.7802
▁occupation	-11.7802
▁relief	-11.7802
▁Thirty	-11.7802
▁loyal	-11.7802
▁delicious	-11.7802
▁erotic	-11.7802
▁ladder	-11.7802
▁Leonardo	-11.7802
▁Light	-11.7802
▁chord	-11.7802
▁infectious	-11.7802
▁biodiversity	-11.7803
▁trivial	-11.7803
▁innovator	-11.7803
▁regain	-11.7803
▁workshop	-11.7803
▁uncover	-11.7803
▁Phoe	-11.7803
▁crank	-11.7804
▁Milk	-11.7804
▁Doug	-11.7804
▁generic	-11.7804
▁Food	-11.7805
▁queen	-11.7806
▁stimulation	-11.7806
▁candle	-11.7807
▁anxious	-11.7807
▁tomato	-11.7808
▁apologiz	-11.7808
EDI	-11.7809
▁glove	-11.781
▁Julie	-11.781
▁transit	-11.7811
▁Mean	-11.7811
▁arbitrar	-11.7814
▁dating	-11.7815
▁Student	-11.7816
▁crawl	-11.7816
▁retain	-11.7817
▁Power	-11.7817
▁investigate	-11.782
kyo	-11.7821
▁par	-11.7824
▁lowest	-11.7829
▁celebrity	-11.7831
▁seventh	-11.7831
▁approache	-11.7837
engineering	-11.7838
▁Building	-11.7839
friend	-11.784
▁envision	-11.7841
▁beaten	-11.7851
view	-11.7852
wandering	-11.7852
corn	-11.7853
vascular	-11.7857
load	-11.7859
law	-11.7863
▁neurological	-11.7865
▁butterfl	-11.7866
wide	-11.7874
▁Steven	-11.7874
▁binar	-11.7877
spread	-11.7879
food	-11.7882
efficient	-11.7883
▁Christ	-11.7884
▁fade	-11.7885
▁addict	-11.7888
▁improvise	-11.7891
book	-11.7896
▁longest	-11.7898
▁Ask	-11.7901
quality	-11.7902
▁radi	-11.7903
▁elevate	-11.7904
iro	-11.7911
▁contribut	-11.7915
▁packag	-11.7918
▁Con	-11.792
ause	-11.792
size	-11.7922
▁Cambri	-11.7928
aring	-11.7929
▁satisfact	-11.7929
▁kite	-11.793
▁Marco	-11.7932
▁Pro	-11.7947
▁owe	-11.7959
▁rubb	-11.7961
pper	-11.7966
nia	-11.7972
▁consum	-11.7973
▁Say	-11.7974
▁usage	-11.7979
▁steam	-11.7983
▁pointed	-11.8015
▁confuse	-11.8027
▁yards	-11.8028
▁Countr	-11.8044
▁combin	-11.8048
▁Stor	-11.8054
▁Edward	-11.8077
▁chase	-11.8081
▁celebrat	-11.809
▁Cha	-11.8093
▁Tu	-11.8097
▁mini	-11.8102
.5	-11.8103
▁Wa	-11.8104
sburg	-11.8105
▁Si	-11.8121
▁mon	-11.813
▁vocal	-11.8144
▁angel	-11.8146
▁unite	-11.8148
▁Start	-11.8155
▁Swee	-11.8157
▁Rob	-11.8158
▁geograph	-11.8161
▁conquer	-11.8164
pound	-11.8167
xcept	-11.8171
▁tempt	-11.8171
▁transcend	-11.8171
▁choir	-11.8172
▁default	-11.8172
▁fault	-11.8172
▁tsunami	-11.8172
▁Benjam	-11.8172
▁Business	-11.8172
▁beneficia	-11.8172
▁exquisite	-11.8172
▁reputation	-11.8172
▁conscience	-11.8172
▁unveil	-11.8172
▁opposition	-11.8172
▁pesticide	-11.8172
▁smash	-11.8172
▁Mountain	-11.8172
▁Societ	-11.8172
▁iPad	-11.8172
▁Tower	-11.8172
▁parachute	-11.8172
▁bucket	-11.8172
▁proceed	-11.8172
▁kilogram	-11.8172
▁libert	-11.8172
▁marrow	-11.8172
▁silicon	-11.8172
▁watt	-11.8172
▁pencil	-11.8172
▁persist	-11.8172
▁deficit	-11.8172
▁ooh	-11.8173
▁pubert	-11.8173
▁bonus	-11.8173
▁SMS	-11.8173
▁Susan	-11.8173
▁sidewalk	-11.8173
▁Education	-11.8173
▁superpower	-11.8173
▁ecolog	-11.8174
▁constitution	-11.8174
▁Computer	-11.8174
▁thread	-11.8175
▁settlement	-11.8175
▁approximate	-11.8176
▁weakness	-11.8177
▁browser	-11.8177
▁Monday	-11.8179
▁Learn	-11.8179
▁assessment	-11.8182
▁petal	-11.8182
▁introduction	-11.8182
▁kit	-11.8183
▁aunt	-11.8187
▁Leone	-11.8187
▁accent	-11.8187
▁enlighten	-11.8187
▁decent	-11.8188
▁index	-11.8188
▁purple	-11.8189
▁constrain	-11.8189
FO	-11.8198
▁Sal	-11.8199
▁Te	-11.82
▁46	-11.8203
▁Lama	-11.8204
▁promis	-11.8205
▁hopeless	-11.8206
▁slope	-11.8208
▁spinn	-11.821
▁gross	-11.8211
▁Mall	-11.8212
▁emotionally	-11.8212
▁overlap	-11.8216
▁roman	-11.8217
▁mold	-11.8218
▁hunter	-11.823
▁forc	-11.8235
▁tele	-11.8236
▁1.2	-11.8236
▁informal	-11.8237
estate	-11.8239
▁adolescence	-11.824
▁lethal	-11.824
va	-11.8241
▁Young	-11.8242
▁Walk	-11.825
▁circulat	-11.8262
▁mines	-11.8272
bucks	-11.8273
▁delete	-11.8274
mail	-11.8278
▁commodit	-11.8283
effective	-11.8283
economic	-11.8284
▁innovate	-11.8286
co	-11.8287
sense	-11.8287
▁metabol	-11.8288
▁intens	-11.8291
▁Nik	-11.8292
▁Broad	-11.8295
▁intangible	-11.83
unk	-11.8305
▁mature	-11.8307
▁isolate	-11.8311
▁glue	-11.8317
▁x	-11.8326
care	-11.8327
ology	-11.834
▁96	-11.8343
rapped	-11.8344
▁Jud	-11.8353
▁intervene	-11.8357
space	-11.8366
cher	-11.8372
minded	-11.8377
shift	-11.8389
▁disrupt	-11.8389
▁Sad	-11.8397
▁remotely	-11.8397
▁tri	-11.8402
▁migrate	-11.8407
oto	-11.8408
▁yell	-11.8415
▁displace	-11.8452
▁rank	-11.846
▁render	-11.847
ki	-11.8473
▁submit	-11.8475
▁fruits	-11.8476
▁grant	-11.8487
ow	-11.8496
ending	-11.8504
▁declin	-11.8518
▁bat	-11.8522
▁convention	-11.8523
▁blink	-11.8527
▁bats	-11.8536
▁assist	-11.8538
▁drama	-11.8541
▁chick	-11.8545
▁anesthesi	-11.8546
lium	-11.855
▁anatom	-11.8552
▁sequenc	-11.8552
▁cardio	-11.8553
▁inhibit	-11.8553
▁distort	-11.8554
▁stimul	-11.8554
▁Alpha	-11.8555
ouncil	-11.8556
▁differ	-11.8557
▁Copernic	-11.8557
▁shrink	-11.8557
▁Apollo	-11.8557
▁Hospital	-11.8557
▁Natural	-11.8557
▁cathedral	-11.8557
▁jungle	-11.8557
▁mammogram	-11.8557
▁pedestrian	-11.8557
▁virgin	-11.8557
▁whisper	-11.8557
▁Small	-11.8557
▁exponential	-11.8557
▁exclusive	-11.8557
▁dismiss	-11.8557
▁haunt	-11.8557
▁Francis	-11.8557
▁melod	-11.8557
▁encyclopedia	-11.8557
▁undergraduate	-11.8557
▁remix	-11.8557
▁dentist	-11.8557
▁suspicious	-11.8557
▁fungi	-11.8557
▁anthropologist	-11.8558
▁posture	-11.8558
▁adaptive	-11.8558
▁diamond	-11.8558
▁iceberg	-11.8558
▁Carne	-11.8558
▁subjective	-11.8559
▁alert	-11.856
▁Berke	-11.856
▁encode	-11.8561
▁Cameron	-11.8561
▁Rock	-11.8563
▁outdoor	-11.8567
▁Media	-11.8567
▁overlook	-11.8571
▁mosque	-11.8572
▁Cloud	-11.8573
▁slaughter	-11.8576
▁seize	-11.8576
▁summar	-11.858
▁farming	-11.858
▁rubber	-11.8589
▁correlation	-11.8597
▁sufficient	-11.86
▁eradicate	-11.86
ulu	-11.8604
▁surger	-11.8611
▁rotate	-11.8613
▁Bolt	-11.8614
▁Ha	-11.8622
▁mastery	-11.8623
▁Anas	-11.8629
▁Nigerian	-11.863
▁abundant	-11.8635
▁Had	-11.8635
▁sophisticate	-11.8638
▁dependenc	-11.8642
▁phenomenal	-11.8643
▁lucki	-11.8644
ntil	-11.8647
▁rang	-11.8651
▁warp	-11.8652
▁Probab	-11.8665
grow	-11.8674
frontal	-11.8676
▁healthie	-11.8676
▁chunk	-11.8683
controll	-11.8685
▁landing	-11.8687
▁traffick	-11.8694
conflict	-11.8696
▁bench	-11.8698
massive	-11.8699
course	-11.8701
▁accidental	-11.8704
▁professors	-11.8725
▁eastern	-11.8727
▁Carl	-11.8733
▁Bern	-11.8733
▁Op	-11.8738
▁minimal	-11.8745
▁owners	-11.8765
▁jur	-11.8774
▁Ga	-11.8778
▁maxim	-11.8779
▁banker	-11.8789
▁scrap	-11.8789
▁Han	-11.8801
▁unsee	-11.881
▁CD	-11.8822
▁decid	-11.8827
car	-11.8835
▁simulate	-11.8837
▁les	-11.8842
▁transmitt	-11.8846
lah	-11.885
▁earning	-11.8852
▁kidd	-11.8859
▁sketch	-11.888
▁consen	-11.888
ew	-11.8884
▁exot	-11.8887
▁settl	-11.8887
▁rent	-11.8895
▁Rive	-11.8899
▁flap	-11.8899
room	-11.89
▁solo	-11.8908
▁customiz	-11.8921
ba	-11.8923
av	-11.8925
▁Bosnia	-11.8928
▁patien	-11.8931
▁Fo	-11.8932
▁divid	-11.8951
▁trauma	-11.8955
▁Elizabeth	-11.8955
eopard	-11.8955
▁Civil	-11.8957
▁Scientist	-11.8957
▁Siberia	-11.8957
▁Sputnik	-11.8957
▁athletic	-11.8957
▁configuration	-11.8957
▁migrant	-11.8957
▁neglect	-11.8957
▁extensive	-11.8957
▁calculating	-11.8957
azeera	-11.8957
▁Help	-11.8957
▁Machine	-11.8957
▁glorious	-11.8957
▁horror	-11.8957
▁mammograph	-11.8957
▁cooperative	-11.8957
▁Colombia	-11.8957
▁irrelevan	-11.8957
▁timing	-11.8957
▁lawsuit	-11.8957
▁Government	-11.8957
▁polite	-11.8957
▁catastrophic	-11.8957
▁legitimate	-11.8957
▁Clear	-11.8957
▁monk	-11.8958
▁beekeeper	-11.8958
▁2.0	-11.8958
▁Type	-11.8958
▁Kong	-11.8958
▁germ	-11.8958
▁indicator	-11.8959
▁intimacy	-11.8959
▁Democratic	-11.8959
▁horrifi	-11.896
▁DJ	-11.896
▁screw	-11.896
lphi	-11.896
▁couch	-11.8962
▁SO	-11.8964
▁detected	-11.8966
▁mustard	-11.8968
▁optimal	-11.8969
▁bitter	-11.8971
▁psychiatr	-11.8972
▁accumulat	-11.8972
pago	-11.8976
▁shredd	-11.8977
▁taxe	-11.898
▁nurture	-11.8988
▁asteroid	-11.8995
▁bypass	-11.8997
alai	-11.8997
▁negotiat	-11.8997
ties	-11.9
▁Palestine	-11.9001
ridge	-11.9004
▁ambition	-11.9011
▁1.5	-11.9011
▁reminder	-11.902
RA	-11.9022
▁Tempe	-11.9023
▁Penn	-11.9025
▁deny	-11.9026
▁continuously	-11.9035
▁trad	-11.9039
▁digg	-11.904
▁magn	-11.9042
ot	-11.9045
▁Fly	-11.905
▁Too	-11.905
▁Coc	-11.9055
▁Mama	-11.9055
▁composition	-11.9056
▁Glass	-11.9059
aged	-11.9061
▁activat	-11.9071
▁Way	-11.9071
▁Mill	-11.908
▁revolutionar	-11.908
wan	-11.909
▁Kenyan	-11.9091
▁imp	-11.9091
▁thoughtful	-11.9095
▁periodic	-11.9101
cession	-11.9102
▁pest	-11.9106
nformation	-11.9107
▁Hell	-11.9115
▁Shir	-11.9118
▁personalize	-11.9119
▁performer	-11.9123
▁socio	-11.9124
▁disrupti	-11.9126
broad	-11.9128
positive	-11.9133
▁digitize	-11.9138
polar	-11.9138
tlantic	-11.9141
speed	-11.9145
▁discriminati	-11.9151
▁storms	-11.9159
▁pregnanc	-11.9164
▁gramma	-11.9168
stair	-11.9178
▁arena	-11.9181
▁ease	-11.9182
V	-11.9187
▁Jenn	-11.9194
▁casual	-11.9196
ina	-11.9198
▁hir	-11.92
▁regional	-11.9205
ire	-11.9213
▁130	-11.9221
▁corners	-11.9229
bian	-11.923
▁thinker	-11.9232
▁centimeter	-11.9237
▁loser	-11.9243
▁AM	-11.9249
▁Kenne	-11.9253
▁filling	-11.9258
mile	-11.9268
▁advanc	-11.9268
▁wander	-11.9285
▁Nick	-11.9291
▁Wal	-11.9307
▁screening	-11.9319
▁sur	-11.9328
▁lips	-11.9333
▁6,000	-11.9336
ula	-11.9338
▁thermo	-11.9349
▁sue	-11.935
▁precis	-11.9357
▁resilien	-11.9358
▁grip	-11.9358
kins	-11.9359
▁na	-11.936
▁ward	-11.9361
ad	-11.9367
▁Low	-11.9371
bit	-11.9373
▁Nanopatch	-11.9373
▁cockroach	-11.9373
▁collision	-11.9373
▁holiday	-11.9373
▁maneuver	-11.9373
▁peanut	-11.9373
▁principal	-11.9373
▁Interesting	-11.9373
▁cerebr	-11.9373
▁imperative	-11.9373
▁Rachel	-11.9373
▁prophet	-11.9373
▁carpet	-11.9373
▁Fried	-11.9373
▁alumin	-11.9373
▁postcard	-11.9373
▁rigid	-11.9373
▁transistor	-11.9373
▁hostile	-11.9374
▁cardiac	-11.9374
▁entrance	-11.9374
▁instinctive	-11.9374
▁headache	-11.9374
▁billboard	-11.9374
▁supercomputer	-11.9374
▁notebook	-11.9374
▁psychiatrist	-11.9375
▁pillar	-11.9375
▁illustration	-11.9375
▁spacecraft	-11.9376
▁problematic	-11.9376
▁novelty	-11.938
▁flute	-11.9382
▁dispute	-11.9382
▁trailer	-11.9383
▁Mad	-11.9385
▁Evan	-11.9387
▁impair	-11.9387
▁Step	-11.9388
▁acre	-11.939
▁extremist	-11.939
▁powder	-11.939
▁Telescope	-11.939
▁cream	-11.939
▁outbreak	-11.9391
▁punishment	-11.9393
blew	-11.9394
▁1.3	-11.9395
▁Kelly	-11.9397
▁Case	-11.9398
fire	-11.9403
▁Spring	-11.9405
▁banne	-11.9406
▁cows	-11.9408
▁visitor	-11.941
▁minor	-11.9412
▁Dol	-11.9416
▁Columbia	-11.9421
▁dishe	-11.9422
▁greed	-11.9427
▁PH	-11.9432
▁Tit	-11.9434
new	-11.9435
uke	-11.9439
▁heroic	-11.944
▁Chad	-11.9441
bati	-11.9442
ette	-11.9442
DP	-11.9443
▁annoying	-11.9447
▁hive	-11.9451
▁consent	-11.9454
▁screaming	-11.9454
acre	-11.9463
▁Arabia	-11.9467
▁Jordan	-11.9469
▁receiver	-11.9475
lock	-11.9478
▁seri	-11.9479
lan	-11.9482
tta	-11.9497
ul	-11.95
saving	-11.95
▁Australian	-11.9501
▁Color	-11.9501
▁Johns	-11.9501
alo	-11.9506
ora	-11.9508
▁Head	-11.9509
finite	-11.951
craft	-11.9519
▁outrage	-11.9533
▁43	-11.9553
▁heel	-11.9554
▁existential	-11.9555
break	-11.9556
▁freeze	-11.9558
▁unpredictabl	-11.9562
▁nois	-11.9563
wear	-11.9565
▁64	-11.957
▁fundrais	-11.9576
▁employment	-11.9578
child	-11.9581
▁foods	-11.9583
da	-11.9584
field	-11.9585
▁globaliz	-11.9588
▁Louis	-11.9589
▁350	-11.959
lanes	-11.9597
ating	-11.9601
▁formation	-11.9604
▁Development	-11.9606
▁chains	-11.9607
▁sometime	-11.9608
hop	-11.9616
▁dece	-11.9621
▁AO	-11.9621
▁Rick	-11.9633
▁woods	-11.9635
▁automat	-11.9635
▁Khan	-11.9635
uring	-11.9637
witz	-11.9638
tial	-11.9645
▁Lar	-11.9647
generation	-11.9647
▁resonate	-11.9652
▁evaluate	-11.9654
▁decode	-11.966
▁Bru	-11.9665
ik	-11.9665
▁Berli	-11.9679
▁balls	-11.968
▁perceiv	-11.9689
together	-11.9696
▁ban	-11.9697
▁wins	-11.9698
▁laborator	-11.9704
▁Len	-11.9712
▁thermal	-11.9712
▁gentle	-11.9712
▁ventilat	-11.9713
▁ti	-11.9715
▁embarrass	-11.9719
▁Miss	-11.972
▁Pan	-11.9721
▁Ham	-11.9741
ssociation	-11.9742
dad	-11.9745
▁Dub	-11.9763
▁humble	-11.9772
sustainabl	-11.9774
▁140	-11.9783
upreme	-11.9783
▁Gil	-11.9787
▁shelve	-11.9788
▁dies	-11.9788
hip	-11.9791
ero	-11.9794
▁Office	-11.9802
▁Simpl	-11.9804
▁crap	-11.9805
uite	-11.9805
▁Hawaii	-11.9807
▁Journal	-11.9808
▁contest	-11.9808
ectar	-11.9808
▁Michigan	-11.9808
▁System	-11.9808
▁anniversar	-11.9808
▁flexibilit	-11.9808
▁nuance	-11.9808
▁orangutan	-11.9808
▁peculiar	-11.9808
▁Bhutan	-11.9808
▁Defen	-11.9808
▁algae	-11.9808
▁veloci	-11.9808
▁clitoris	-11.9808
▁laundr	-11.9808
▁squid	-11.9808
▁facult	-11.9808
▁foster	-11.9808
▁nasty	-11.9808
▁Lakota	-11.9808
▁Tesla	-11.9808
▁cabinet	-11.9808
▁Recent	-11.9808
▁checklist	-11.9808
▁hollow	-11.9808
▁pension	-11.9808
▁guest	-11.9808
▁shallow	-11.9808
▁banjo	-11.9808
▁flesh	-11.9808
▁Gala	-11.9808
▁suitcase	-11.9809
▁hump	-11.9809
▁debri	-11.9809
▁grape	-11.9809
▁fame	-11.9809
▁coincidence	-11.9809
▁1,500	-11.9809
▁exit	-11.9809
▁Sound	-11.981
▁separation	-11.981
▁Jackson	-11.981
▁scholarship	-11.981
▁temptation	-11.981
▁surgical	-11.981
▁headquarter	-11.981
▁migration	-11.981
▁shuttle	-11.981
▁reproduction	-11.9811
▁greet	-11.9811
▁injustice	-11.9811
▁riot	-11.9811
▁volcano	-11.9811
ward	-11.9812
▁generator	-11.9812
▁Austria	-11.9813
▁empowerment	-11.9815
▁democratiz	-11.9816
▁Jess	-11.9816
▁Death	-11.9817
▁playground	-11.9819
▁operator	-11.9819
▁sadness	-11.982
▁Ru	-11.982
▁degrad	-11.9821
▁coma	-11.9821
sanitary	-11.9821
▁Book	-11.9822
▁worldview	-11.9824
▁armor	-11.9825
▁CN	-11.9825
▁asthma	-11.9825
▁convincing	-11.9826
▁propagand	-11.9826
▁praise	-11.9827
my	-11.9827
inch	-11.983
aba	-11.9831
red	-11.9831
▁assistant	-11.9832
onsider	-11.9837
pite	-11.9841
▁exhaust	-11.9847
▁prayer	-11.9848
▁Fa	-11.9849
▁captur	-11.9849
▁indirect	-11.985
▁paste	-11.985
▁Heart	-11.9854
▁cattle	-11.9857
▁wilder	-11.9858
▁devise	-11.9859
▁Master	-11.9866
▁Wil	-11.9868
▁Emil	-11.987
aging	-11.9874
holes	-11.9874
▁champion	-11.9878
▁dictator	-11.9881
Donald	-11.9882
▁mud	-11.9886
▁Fair	-11.9888
oma	-11.989
ov	-11.9896
▁Dave	-11.9899
▁Stay	-11.9908
▁rendering	-11.9909
▁poke	-11.9911
▁sixth	-11.9912
▁Ash	-11.9912
▁guards	-11.9913
▁symbolic	-11.9916
▁keys	-11.9918
lov	-11.9918
rah	-11.992
▁Ur	-11.9936
▁fe	-11.9937
AT	-11.9951
▁reinforce	-11.9953
▁fighter	-11.9953
▁triple	-11.996
▁atomic	-11.9968
▁miser	-11.998
▁sin	-11.998
▁Bay	-11.9982
▁reflectiv	-11.9984
beat	-11.9988
tter	-12.0004
ay	-12.0005
▁mount	-12.0006
▁Per	-12.0008
his	-12.0015
▁bacteri	-12.0018
uk	-12.0019
▁prospect	-12.0021
rcul	-12.0024
▁Jean	-12.0024
grade	-12.0032
▁sands	-12.0032
plan	-12.0041
▁86	-12.0048
resistan	-12.0056
▁underestimate	-12.0056
nutrition	-12.0057
▁shifts	-12.0058
great	-12.0059
group	-12.0061
▁impos	-12.0069
▁gram	-12.0075
▁investigat	-12.0086
▁biotechnolog	-12.0089
▁publicly	-12.0096
ica	-12.0103
▁Argentin	-12.011
▁consult	-12.0114
▁restrict	-12.0118
▁logg	-12.0119
▁emphasize	-12.0123
can	-12.0125
▁ambiguit	-12.0125
▁zoo	-12.013
▁hi	-12.013
▁dispos	-12.0133
▁monument	-12.0136
▁vibrat	-12.0136
▁MR	-12.0146
crops	-12.0155
▁prop	-12.0163
ED	-12.0167
stein	-12.0171
▁deni	-12.0171
▁scream	-12.0175
▁tuna	-12.0183
▁bounce	-12.0188
▁arrange	-12.0188
story	-12.019
▁toys	-12.0192
▁Kal	-12.0197
▁din	-12.0208
▁analytic	-12.0209
▁Happ	-12.021
▁opens	-12.0212
atar	-12.0215
13	-12.0218
▁Ra	-12.0224
▁ac	-12.0234
▁dye	-12.0237
▁98	-12.0244
▁Sta	-12.0246
▁CC	-12.0248
ways	-12.0249
rizon	-12.0262
▁buzz	-12.0263
▁Himalaya	-12.0263
▁PowerPoint	-12.0263
▁elaborate	-12.0263
▁intricate	-12.0263
▁testosterone	-12.0263
▁thorough	-12.0263
▁Sudan	-12.0263
▁charcoal	-12.0263
▁corridor	-12.0263
violet	-12.0263
▁steep	-12.0263
▁Doctor	-12.0263
▁biomaterial	-12.0263
▁energetic	-12.0263
▁Picture	-12.0263
▁Jefferson	-12.0263
▁Text	-12.0263
▁macro	-12.0263
▁Romo	-12.0263
▁Jeff	-12.0263
▁barrel	-12.0263
▁faint	-12.0263
▁multiverse	-12.0263
▁Report	-12.0263
▁Fox	-12.0263
▁acute	-12.0263
▁Trad	-12.0263
▁mixture	-12.0264
▁Motor	-12.0264
▁flock	-12.0264
▁Oak	-12.0264
▁cease	-12.0264
▁soccer	-12.0264
▁portray	-12.0264
balone	-12.0264
▁Truth	-12.0264
▁Speak	-12.0264
▁Sara	-12.0265
▁Grace	-12.0265
▁8,000	-12.0265
▁marketplace	-12.0265
▁superior	-12.0265
▁gel	-12.0266
▁possession	-12.0266
▁Justice	-12.0267
▁injection	-12.0267
▁conviction	-12.0267
▁Margar	-12.0269
▁cultivate	-12.0269
▁confusion	-12.0269
▁Luck	-12.0269
▁unlock	-12.027
▁Meli	-12.027
otherap	-12.0271
▁Nepal	-12.0271
▁comprehensive	-12.0271
▁Kiri	-12.0275
▁Self	-12.0277
▁Teacher	-12.0277
▁governor	-12.0277
▁Cuba	-12.028
▁vegetarian	-12.0281
▁kindergart	-12.0281
▁diameter	-12.0282
▁vagina	-12.0282
▁quo	-12.0284
▁animate	-12.0285
▁tilt	-12.029
▁basement	-12.0293
▁avatar	-12.03
▁patholog	-12.0301
▁1,	-12.0302
▁fertil	-12.0304
ingenu	-12.0305
▁personaliz	-12.0305
▁methodolog	-12.031
▁derive	-12.0311
▁eighth	-12.0313
▁chole	-12.0313
▁scroll	-12.0313
▁noble	-12.0324
▁vend	-12.0325
▁strengthen	-12.0331
▁commander	-12.0332
▁prioritize	-12.0332
▁Canc	-12.0342
▁coordinat	-12.0344
aving	-12.0344
▁optic	-12.0344
▁Clay	-12.0344
▁coordinate	-12.0346
▁hammer	-12.0347
▁winds	-12.0354
mi	-12.0363
▁tightly	-12.0367
▁Find	-12.0374
▁Pass	-12.0375
▁deception	-12.038
▁qualifie	-12.038
▁Hawk	-12.0381
▁planner	-12.0387
▁cur	-12.039
▁matche	-12.041
eith	-12.0414
▁Add	-12.0421
▁taxi	-12.0427
▁93	-12.0431
▁western	-12.0443
94	-12.0446
▁enabl	-12.0465
▁patch	-12.0474
▁provoke	-12.0476
▁cosmolog	-12.0481
▁Modern	-12.0481
▁Aur	-12.0488
▁52	-12.0498
reedom	-12.0516
▁RS	-12.0516
▁statistic	-12.0521
▁psycho	-12.0531
omen	-12.0533
▁j	-12.0537
▁Ali	-12.0549
▁dominat	-12.055
▁liberat	-12.0551
▁horses	-12.0558
stock	-12.056
cover	-12.0561
▁Old	-12.0564
ith	-12.0566
edge	-12.0568
▁recess	-12.0569
ira	-12.0572
▁convenient	-12.0582
▁reactor	-12.0592
ark	-12.0596
tunate	-12.06
▁industrialize	-12.0605
▁worship	-12.0609
complete	-12.0623
▁prim	-12.0623
▁0.	-12.0627
▁criticize	-12.063
mino	-12.0641
▁pore	-12.0655
▁41	-12.0655
lcome	-12.066
▁reli	-12.0661
▁Main	-12.0662
▁assure	-12.0685
fill	-12.0689
ring	-12.0692
▁feeds	-12.0697
▁regenerati	-12.0706
▁cuts	-12.0709
specific	-12.0711
osphere	-12.0712
visually	-12.0713
▁calci	-12.0715
peech	-12.0715
▁Music	-12.0728
▁rip	-12.0729
▁incorporate	-12.0729
▁185	-12.0731
▁rig	-12.0732
▁counsel	-12.0737
▁suburb	-12.0737
▁Radio	-12.0737
▁orphan	-12.0738
▁Mitchell	-12.0739
▁Mumbai	-12.0739
▁Nairobi	-12.0739
▁Sleep	-12.0739
▁Taylor	-12.0739
▁Yellow	-12.0739
▁anecdote	-12.0739
▁communal	-12.0739
▁diarrhea	-12.0739
▁graffiti	-12.0739
▁guitar	-12.0739
▁juvenile	-12.0739
▁peripher	-12.0739
▁resurrect	-12.0739
▁straw	-12.0739
▁Craig	-12.0739
▁Cultur	-12.0739
▁chaotic	-12.0739
▁cinema	-12.0739
▁cocktail	-12.0739
▁drain	-12.0739
▁Alaska	-12.0739
▁hypothetical	-12.0739
▁stagger	-12.0739
▁Garden	-12.0739
▁Ryan	-12.0739
▁feather	-12.0739
▁Empire	-12.0739
▁shade	-12.0739
▁Suppose	-12.0739
▁internet	-12.0739
▁protocol	-12.0739
▁ballot	-12.0739
▁cellphone	-12.0739
▁blanket	-12.074
▁retreat	-12.074
▁urgent	-12.074
▁salad	-12.074
▁sympath	-12.074
▁Virtual	-12.074
▁timber	-12.074
laughter	-12.0741
▁Brazilian	-12.0741
▁duty	-12.0742
▁warehouse	-12.0742
sea	-12.0742
▁indigen	-12.0743
oline	-12.0743
▁cement	-12.0744
▁regulator	-12.0744
▁wallet	-12.0744
▁correlate	-12.0744
ig	-12.0744
▁accomplishment	-12.0745
▁wow	-12.0745
▁Fire	-12.0746
▁motivat	-12.0748
▁Fall	-12.0751
▁composer	-12.0752
▁rear	-12.0752
▁alphabet	-12.0754
for	-12.0754
bule	-12.0756
▁phthalate	-12.0759
▁progression	-12.0765
▁cubic	-12.0766
▁Skyp	-12.0767
▁eternal	-12.0768
rtie	-12.0769
▁conception	-12.077
▁Gw	-12.077
▁Grant	-12.0775
▁collector	-12.0776
▁experimentation	-12.0776
▁Jon	-12.0778
▁Hav	-12.0781
▁province	-12.0781
▁publication	-12.0784
▁Eat	-12.0788
▁persuade	-12.0793
▁Linu	-12.0795
▁slum	-12.0797
▁differentiate	-12.081
▁articulate	-12.0811
bul	-12.0812
mates	-12.0816
▁Aar	-12.082
▁duration	-12.0825
▁clon	-12.0826
▁transferr	-12.0827
▁Alan	-12.0829
gh	-12.0832
▁Station	-12.0833
▁Kat	-12.0833
▁lime	-12.0834
▁popp	-12.0841
▁jam	-12.0841
rid	-12.0842
▁incremental	-12.0843
lage	-12.0846
▁CAPTCHA	-12.0859
▁upward	-12.0861
▁epidemics	-12.0865
▁Ark	-12.0866
▁transformati	-12.0869
ament	-12.0875
ana	-12.0877
▁hacker	-12.0887
onference	-12.0887
▁Gall	-12.0888
un	-12.0889
▁teen	-12.0893
erk	-12.0901
▁chem	-12.0901
▁scarc	-12.0904
scope	-12.0909
▁pursu	-12.0922
star	-12.0926
▁inhabit	-12.0929
ep	-12.0954
▁sp	-12.096
▁1.	-12.0966
tune	-12.097
▁lyric	-12.0972
▁34	-12.0977
▁Kim	-12.0977
cca	-12.0984
▁microscop	-12.0988
▁resemble	-12.0995
▁mite	-12.0997
ngue	-12.0997
▁squeeze	-12.1008
▁bombing	-12.102
▁Gene	-12.1026
ans	-12.1027
tched	-12.1029
▁eradicat	-12.1035
▁Harr	-12.104
ribbe	-12.1045
▁Mah	-12.1055
▁petition	-12.1055
ni	-12.1056
▁trappe	-12.1059
▁Send	-12.1069
culture	-12.1072
generat	-12.1073
ab	-12.1078
▁Pri	-12.1081
school	-12.1087
organic	-12.1088
▁Ge	-12.1088
gar	-12.1092
own	-12.11
▁reasonabl	-12.1101
▁cri	-12.1102
fund	-12.1102
▁admir	-12.1105
mart	-12.1108
▁epic	-12.1108
▁appreciati	-12.1109
▁memorize	-12.1109
▁obscure	-12.1115
ain	-12.1121
▁doodl	-12.1122
▁follower	-12.1128
▁listener	-12.1142
▁Bur	-12.1148
▁annoy	-12.1151
▁ignor	-12.116
▁bull	-12.1163
▁Aye	-12.1163
▁Plato	-12.1177
▁Work	-12.1177
▁arter	-12.1189
▁mic	-12.1198
▁offshor	-12.1202
▁retail	-12.1207
li	-12.1212
omi	-12.1213
rus	-12.1214
air	-12.1214
eval	-12.1218
▁tables	-12.1219
▁Frankl	-12.1223
▁skip	-12.1224
▁Bangladesh	-12.1228
▁shove	-12.1231
▁Ann	-12.1232
▁Wonder	-12.1234
▁Tibet	-12.1237
▁tutor	-12.1238
ssential	-12.1239
esteem	-12.1239
▁Hundred	-12.1239
▁Lawrence	-12.1239
▁Service	-12.1239
▁millisecond	-12.1239
▁mutilat	-12.1239
▁competitor	-12.1239
▁adjacen	-12.1239
▁conspirac	-12.1239
▁chef	-12.1239
▁benign	-12.1239
▁spoil	-12.1239
▁polymer	-12.1239
▁frugal	-12.1239
▁lemon	-12.1239
▁reservation	-12.1239
▁prescription	-12.1239
▁distill	-12.1239
▁cheer	-12.1239
▁paragraph	-12.1239
▁biosphere	-12.1239
▁diffusion	-12.1239
▁spatial	-12.1239
▁echo	-12.1239
▁Secretary	-12.1239
▁superstar	-12.1239
▁exile	-12.1239
▁draft	-12.124
▁discard	-12.124
▁textile	-12.124
▁Stir	-12.124
▁insult	-12.124
▁utilit	-12.124
▁criticism	-12.124
prejudice	-12.124
▁brainstorm	-12.124
▁pollutant	-12.124
▁olive	-12.124
▁crab	-12.124
▁provocative	-12.1241
▁evaluation	-12.1241
▁Roman	-12.1241
▁seawater	-12.1241
▁trunk	-12.1242
▁grad	-12.1242
▁manipulation	-12.1242
▁celebration	-12.1243
▁immerse	-12.1243
▁1800	-12.1243
▁CL	-12.1244
▁attachment	-12.1245
▁assess	-12.1245
▁distraction	-12.1245
▁motorcycle	-12.1245
▁Tru	-12.1247
▁Forget	-12.1247
▁Victorian	-12.125
▁riches	-12.125
▁Fund	-12.1252
▁idiot	-12.1253
▁identification	-12.1253
▁Cape	-12.1254
▁Nativ	-12.1255
▁cosmo	-12.1261
lo	-12.1265
▁blogger	-12.1267
▁sci	-12.1271
▁kn	-12.1272
▁Game	-12.1277
▁Coch	-12.1279
▁Abu	-12.128
▁tagg	-12.128
▁Rich	-12.128
pa	-12.1283
uff	-12.1284
▁Europ	-12.1284
▁toaster	-12.1286
▁Designer	-12.1287
▁possess	-12.1287
▁nurtur	-12.129
uck	-12.1291
▁Vinc	-12.1298
▁unimaginabl	-12.1299
▁sock	-12.1311
▁technologist	-12.1312
band	-12.1312
▁brake	-12.1312
▁distinguish	-12.1313
▁consideration	-12.1321
▁hypothes	-12.1326
ronto	-12.1326
▁capitalist	-12.1328
▁warn	-12.1329
▁modify	-12.1331
▁temporal	-12.1332
▁Dea	-12.1334
▁du	-12.1347
▁deer	-12.1347
▁companion	-12.1363
▁minimize	-12.1366
▁Buddha	-12.1372
▁backup	-12.1374
▁electromagnet	-12.1375
5,000	-12.1381
▁Shake	-12.1383
ual	-12.1384
▁Medica	-12.1386
▁scholar	-12.1386
▁Iraqi	-12.1392
▁sensibl	-12.1404
▁ham	-12.1412
▁manufacture	-12.1413
lli	-12.1418
▁nitro	-12.1423
iza	-12.1426
▁unleash	-12.1432
ansa	-12.1435
limate	-12.1436
▁hydro	-12.1438
▁verbal	-12.1438
▁Buy	-12.1453
▁marks	-12.1454
▁treaty	-12.1456
▁pops	-12.1466
cou	-12.1467
▁Col	-12.1476
▁gamer	-12.1477
ou	-12.148
▁induce	-12.1482
po	-12.1484
▁thumbs	-12.1498
tive	-12.1501
▁Missi	-12.1514
wire	-12.1524
▁revolutionize	-12.1524
istan	-12.1524
iff	-12.1527
▁lone	-12.1528
▁survivors	-12.1528
▁journalis	-12.1535
▁demonstrat	-12.1544
▁reconcile	-12.1546
,200	-12.1549
300	-12.1549
heart	-12.155
▁outward	-12.1552
▁declare	-12.1555
ison	-12.1556
shar	-12.1558
alactic	-12.1564
▁emitt	-12.1565
▁Diet	-12.1574
titude	-12.1577
▁upgrade	-12.1585
take	-12.1585
▁explod	-12.159
▁lap	-12.1595
axis	-12.1595
▁Best	-12.1595
▁geographical	-12.1597
▁biologically	-12.1611
gged	-12.1612
ari	-12.1618
▁Brit	-12.1628
▁SR	-12.1634
meter	-12.1634
adequate	-12.1636
▁Ram	-12.1637
▁brin	-12.164
sexual	-12.1643
fashion	-12.1645
government	-12.1645
piece	-12.1645
oven	-12.1657
▁numb	-12.1659
credit	-12.1669
▁nights	-12.167
▁swam	-12.1673
ink	-12.1676
▁Unti	-12.168
▁58	-12.168
▁estimat	-12.1688
▁execute	-12.1692
uga	-12.1696
ops	-12.1707
▁traumatic	-12.1711
100	-12.1715
▁spit	-12.1716
▁180	-12.1724
▁Ku	-12.1726
▁Bab	-12.1728
away	-12.1729
▁astronom	-12.1729
▁Harl	-12.1732
▁balanc	-12.1732
▁remark	-12.1733
▁AV	-12.1735
▁disturb	-12.1736
gi	-12.174
▁hug	-12.1747
cratch	-12.1748
▁reuse	-12.1753
▁intellect	-12.1754
ased	-12.1756
▁optimize	-12.1758
▁Archi	-12.1758
atus	-12.1759
▁nuclei	-12.1762
▁prosper	-12.1762
fel	-12.1763
▁stereo	-12.1765
ltimate	-12.1765
▁pneumo	-12.1765
▁Photograph	-12.1765
▁Language	-12.1765
▁convenience	-12.1765
▁mortgage	-12.1765
▁pixel	-12.1765
▁turtle	-12.1765
▁vibran	-12.1765
▁voluntar	-12.1765
▁Command	-12.1765
▁scoop	-12.1765
▁cochlea	-12.1765
▁curator	-12.1765
▁UCL	-12.1765
▁radar	-12.1765
▁ghost	-12.1765
▁verge	-12.1765
▁bulk	-12.1765
▁Guinea	-12.1765
▁fuzz	-12.1765
▁acquisition	-12.1765
▁serotonin	-12.1765
▁rigorous	-12.1765
▁pivot	-12.1765
▁tribute	-12.1765
▁spiral	-12.1765
▁microRNA	-12.1765
▁Deep	-12.1766
▁Gaza	-12.1766
▁nonverbal	-12.1766
▁council	-12.1766
▁missile	-12.1766
RNA	-12.1766
▁gluco	-12.1766
▁hurdle	-12.1766
▁Libra	-12.1766
▁innate	-12.1766
▁violation	-12.1766
▁sociologist	-12.1767
▁orientation	-12.1767
▁MP	-12.1767
▁Saul	-12.1767
▁Movement	-12.1767
▁Stefan	-12.1767
▁urbanization	-12.1768
▁Liberia	-12.1768
▁slate	-12.1768
▁catastrophe	-12.1768
▁Hindu	-12.1769
▁paradi	-12.1769
▁ideological	-12.1769
▁crater	-12.1769
▁Trust	-12.177
psychotic	-12.177
▁fisherm	-12.1771
▁knot	-12.1771
▁calcul	-12.1772
▁consultant	-12.1772
▁beast	-12.1773
▁sync	-12.1773
▁spouse	-12.1774
▁Mello	-12.1774
▁institute	-12.1775
▁60,000	-12.1777
▁Walker	-12.1777
▁sole	-12.1778
▁abstraction	-12.1778
▁occupie	-12.1778
▁Polic	-12.178
▁statue	-12.1781
▁Use	-12.1783
▁Top	-12.1785
▁Portug	-12.1787
entrepreneurship	-12.1788
▁halve	-12.1789
▁laz	-12.179
hou	-12.179
▁Fifty	-12.1793
lit	-12.1794
▁Fib	-12.1798
▁Mont	-12.18
▁Bring	-12.1804
lb	-12.1806
regon	-12.181
▁startling	-12.1812
▁humbl	-12.1813
bone	-12.1815
hire	-12.1815
umor	-12.1817
rane	-12.1818
▁Award	-12.1818
▁Save	-12.1821
lapse	-12.1823
▁steak	-12.1824
▁FDA	-12.1824
▁Hungarian	-12.1825
▁jacket	-12.1825
▁employer	-12.1826
▁Wo	-12.1826
▁Fast	-12.1827
▁env	-12.1828
▁arous	-12.1828
▁mock	-12.183
▁Whoa	-12.1831
▁matern	-12.1831
MG	-12.1832
▁bla	-12.1837
▁augmented	-12.1843
▁frontal	-12.185
▁tender	-12.1852
▁vein	-12.1857
▁Working	-12.1859
igital	-12.1863
▁gallon	-12.1863
▁sketche	-12.1872
▁Force	-12.1874
▁mysteri	-12.1874
▁certificate	-12.1878
▁mistaken	-12.1879
▁Moo	-12.188
▁Syrian	-12.1887
▁Sch	-12.19
▁stat	-12.1901
▁margins	-12.1903
▁collar	-12.1904
▁Uh	-12.191
▁forger	-12.1911
▁midst	-12.1922
▁Alic	-12.1926
▁behold	-12.1928
finishe	-12.1931
stan	-12.1933
ji	-12.1935
▁Post	-12.1942
dding	-12.1957
▁dar	-12.1957
haired	-12.1958
built	-12.1962
▁recreate	-12.1968
▁Gra	-12.197
▁fisc	-12.1972
▁Rand	-12.1973
▁migrat	-12.1973
▁folk	-12.1976
▁53	-12.1979
▁potent	-12.1981
▁wa	-12.1983
ek	-12.1984
▁Mil	-12.1987
dictionarie	-12.1996
▁chat	-12.1998
▁appl	-12.2003
▁24-	-12.2005
tler	-12.2014
▁unst	-12.2018
▁Jenni	-12.2025
▁ambigu	-12.2026
▁commentar	-12.2031
▁spor	-12.2038
▁rail	-12.204
▁defi	-12.2042
▁Ala	-12.2047
ads	-12.2053
▁damag	-12.2059
▁Million	-12.206
▁unt	-12.2067
raham	-12.2067
▁specializ	-12.2073
▁Film	-12.2075
▁Pier	-12.209
▁Swa	-12.2091
j	-12.2091
▁125	-12.2095
ups	-12.21
tz	-12.2102
▁collaps	-12.2103
▁arc	-12.2105
▁hotte	-12.2106
▁Cap	-12.2108
form	-12.2117
AD	-12.2123
▁nitr	-12.2126
national	-12.2137
▁constitute	-12.2141
▁paralyze	-12.2144
▁gr	-12.2158
▁parliament	-12.2159
▁evaporate	-12.2171
▁developmental	-12.2172
▁violate	-12.2173
▁54	-12.2177
read	-12.2183
▁opt	-12.2189
BA	-12.2193
▁Beau	-12.2195
▁morally	-12.2206
cultural	-12.2208
▁Mist	-12.2211
horn	-12.2218
orient	-12.2224
brush	-12.2224
bound	-12.2231
most	-12.2232
zero	-12.2234
green	-12.2235
risk	-12.2238
cock	-12.224
▁depriv	-12.2241
▁promot	-12.2241
CO	-12.2241
▁Got	-12.2247
▁18-	-12.225
fford	-12.2254
▁committe	-12.2261
opening	-12.2262
▁Bal	-12.2267
ington	-12.2271
▁reconcili	-12.2274
tress	-12.2274
▁rains	-12.2275
▁carri	-12.2275
▁metha	-12.2276
▁secondar	-12.2276
home	-12.2279
▁sneak	-12.2284
orta	-12.2288
▁Sex	-12.2288
▁rebel	-12.2291
▁culturally	-12.2291
▁merge	-12.2303
hran	-12.2303
type	-12.2307
reasure	-12.2312
▁Bali	-12.2313
▁emphasi	-12.2315
disciplinar	-12.2315
▁degrade	-12.2315
▁Choi	-12.2318
▁Whit	-12.2319
▁Democracy	-12.2321
▁Odysse	-12.2321
▁Serious	-12.2321
▁Venezuela	-12.2321
▁attorney	-12.2321
▁fingertip	-12.2321
▁fluorescen	-12.2321
▁gravitational	-12.2321
▁meadow	-12.2321
▁technician	-12.2321
▁unequal	-12.2321
▁unnecessar	-12.2321
▁cumulative	-12.2321
▁mutant	-12.2321
▁semester	-12.2321
▁Nichol	-12.2321
▁Studio	-12.2321
▁grassroots	-12.2321
▁larva	-12.2321
▁widow	-12.2321
▁forecast	-12.2321
▁essay	-12.2321
▁MoMA	-12.2321
▁vegetati	-12.2321
moud	-12.2321
▁Gehr	-12.2321
▁comedian	-12.2321
▁glory	-12.2321
▁Potter	-12.2321
▁bruise	-12.2321
▁passport	-12.2321
▁Economist	-12.2321
▁battlefield	-12.2321
▁transaction	-12.2321
▁owl	-12.2321
▁obligation	-12.2321
▁persistent	-12.2321
Barack	-12.2321
▁Economic	-12.2321
▁carcinogen	-12.2321
▁distinctive	-12.2321
▁biotech	-12.2322
▁rediscover	-12.2322
acci	-12.2322
▁curtain	-12.2322
▁Canyon	-12.2322
ane	-12.2322
▁MBA	-12.2322
▁manifestation	-12.2322
▁landfill	-12.2322
▁railway	-12.2322
▁coca	-12.2322
▁reckless	-12.2323
▁Grow	-12.2323
▁synapse	-12.2323
▁boreal	-12.2323
etween	-12.2324
▁audaci	-12.2324
▁troll	-12.2324
▁hallway	-12.2325
▁coil	-12.2325
▁Norman	-12.2325
▁TEDW	-12.2326
▁Bat	-12.2326
▁Pol	-12.2326
▁planting	-12.2326
▁Artist	-12.2327
▁Cross	-12.2328
▁interfere	-12.233
▁resort	-12.233
▁inclusive	-12.2331
▁airline	-12.2334
▁affair	-12.2336
▁ca	-12.2337
▁500,000	-12.2337
saw	-12.2337
▁Often	-12.2337
▁Islamist	-12.2338
▁Acc	-12.2339
▁roommate	-12.234
▁attraction	-12.234
▁Dai	-12.2341
▁En	-12.2342
▁scatter	-12.2344
▁Field	-12.2344
▁freeway	-12.2344
▁synthesize	-12.2345
▁Kle	-12.2345
▁expressive	-12.2346
▁planetary	-12.2346
▁restoration	-12.2348
▁Nan	-12.2351
▁Biospher	-12.2351
▁admitted	-12.2353
confidence	-12.2355
▁peacekeep	-12.2355
▁alliance	-12.2362
▁equi	-12.2364
▁ignoran	-12.2368
▁oppress	-12.2368
▁communist	-12.2369
▁Call	-12.237
▁illuminat	-12.2384
▁193	-12.2389
▁carb	-12.24
▁scaling	-12.2401
▁observer	-12.2402
▁Val	-12.2406
▁illitera	-12.2409
hearted	-12.2415
▁acquir	-12.2416
▁grace	-12.2417
▁orient	-12.2418
im	-12.2422
▁Hard	-12.2425
▁Sub	-12.2427
▁Tro	-12.2428
▁Pakistani	-12.2428
600	-12.2428
▁Gen	-12.2434
ence	-12.2436
▁Baby	-12.2437
▁bay	-12.2438
▁Bah	-12.2442
▁bully	-12.2445
▁timeline	-12.2446
▁mindful	-12.2447
ston	-12.2449
▁Monte	-12.2451
▁digest	-12.2454
▁caps	-12.246
▁runner	-12.2461
▁Die	-12.2471
▁spott	-12.2483
▁categori	-12.2491
▁raft	-12.2491
▁submitt	-12.2505
▁painter	-12.2526
ola	-12.2528
ho	-12.2534
verse	-12.2537
▁contemplat	-12.2539
▁corporation	-12.2539
oh	-12.2545
▁strap	-12.2556
▁feasib	-12.2559
▁wit	-12.2564
▁divine	-12.2573
alti	-12.2577
section	-12.2578
▁disc	-12.2581
▁Desp	-12.2582
▁conceptual	-12.2585
ja	-12.2593
▁manipulat	-12.2605
▁geographic	-12.2607
▁pickle	-12.2608
cell	-12.261
▁teache	-12.2611
▁gang	-12.2622
▁tips	-12.2632
▁Prim	-12.2633
▁analyst	-12.2642
▁va	-12.2652
▁causal	-12.2653
▁auditor	-12.2659
oral	-12.2662
nel	-12.2667
ev	-12.2671
▁explorers	-12.2672
▁Down	-12.2685
▁Cla	-12.2689
▁acoustic	-12.269
▁plott	-12.2693
▁controller	-12.2704
vy	-12.2704
industrial	-12.2708
▁Mak	-12.2709
nmark	-12.2727
▁collaborat	-12.2727
rum	-12.2727
▁Yu	-12.2741
▁Rem	-12.2751
lvani	-12.2752
▁deceive	-12.2756
▁undergo	-12.2759
▁Mer	-12.2768
▁Williams	-12.2771
▁improvis	-12.2775
▁Tob	-12.2782
▁vent	-12.2791
▁Job	-12.2793
▁Lim	-12.2795
tification	-12.2801
▁surge	-12.2806
▁Ror	-12.2809
▁mytholog	-12.2811
wash	-12.2816
▁builder	-12.2819
▁devastat	-12.282
▁augment	-12.2822
bi	-12.2823
▁stain	-12.2823
play	-12.2824
▁penn	-12.2827
Man	-12.2828
▁polariz	-12.2836
▁behav	-12.2839
▁TS	-12.2841
ibo	-12.2841
▁sw	-12.285
lace	-12.2852
▁examin	-12.2852
▁forbid	-12.2854
sensitive	-12.2856
strong	-12.2856
track	-12.2858
▁Sh	-12.286
check	-12.2862
million	-12.2862
undan	-12.2865
▁Ell	-12.2871
▁Kam	-12.2872
▁whip	-12.288
▁Tunisia	-12.2881
tense	-12.2887
▁snap	-12.2895
hicken	-12.2899
owing	-12.29
▁lik	-12.2902
▁physiolog	-12.2906
▁sulf	-12.2908
▁Babylon	-12.2909
▁spear	-12.2909
▁Pepsi	-12.2909
▁Video	-12.2909
▁accommodate	-12.2909
▁administrator	-12.2909
▁autobiograph	-12.2909
▁disadvantage	-12.2909
▁hilarious	-12.2909
▁hyena	-12.2909
▁marshmallow	-12.2909
▁relevanc	-12.2909
▁respirator	-12.2909
▁sabbatical	-12.2909
▁specimen	-12.2909
▁triumph	-12.2909
▁premature	-12.2909
▁sensitivit	-12.2909
▁roost	-12.2909
▁wreck	-12.2909
▁inexpensive	-12.2909
▁plaque	-12.2909
▁windmill	-12.2909
▁appliance	-12.2909
▁prevail	-12.2909
▁pronounce	-12.2909
▁subconscious	-12.2909
▁deceptive	-12.2909
▁reply	-12.2909
▁honeybee	-12.2909
▁Voyage	-12.2909
▁Pantheon	-12.2909
▁eyebrow	-12.2909
▁crude	-12.2909
▁chew	-12.2909
untu	-12.2909
▁priest	-12.2909
▁fraud	-12.2909
▁distress	-12.2909
▁maximize	-12.2909
▁logistic	-12.2909
▁Financial	-12.2909
▁incubator	-12.2909
▁fluctuation	-12.291
SDA	-12.291
▁fungus	-12.291
▁compact	-12.291
▁vacan	-12.291
▁Honey	-12.291
▁audition	-12.291
▁pollinator	-12.291
▁Magic	-12.291
▁Laborator	-12.291
▁interg	-12.2911
▁pepper	-12.2911
focal	-12.2911
▁trustworth	-12.2911
▁subsequent	-12.2911
▁worthwhile	-12.2911
▁Honor	-12.2911
▁astronomical	-12.2912
▁crust	-12.2912
▁exclude	-12.2912
▁atheist	-12.2912
▁physiological	-12.2913
▁joyful	-12.2913
▁Want	-12.2913
▁Spider	-12.2913
▁breakdown	-12.2913
▁queue	-12.2914
▁Mario	-12.2914
▁Meyer	-12.2915
▁gaze	-12.2915
▁slavery	-12.2915
▁deployment	-12.2915
▁swarm	-12.2915
▁simplify	-12.2916
▁medal	-12.2917
▁commandment	-12.2918
▁residu	-12.2919
▁disruption	-12.292
▁guideline	-12.2921
▁reconnect	-12.2922
▁forge	-12.2922
▁promotion	-12.2922
▁Russe	-12.2922
▁Moz	-12.2923
arable	-12.2925
▁lands	-12.2926
opoly	-12.2926
▁memorial	-12.2926
▁Large	-12.2928
▁shortage	-12.2929
▁Ninety	-12.2929
▁Bonnie	-12.2932
ives	-12.2933
▁genomic	-12.2933
▁friction	-12.2933
▁susceptib	-12.2933
▁delusion	-12.2934
▁paraly	-12.2934
▁microbi	-12.2934
▁memorabl	-12.2934
▁outrageous	-12.2934
▁linguistic	-12.2939
▁Bag	-12.2939
▁Gues	-12.294
▁Gord	-12.2942
▁Live	-12.2943
▁Rocket	-12.2947
▁genital	-12.2948
▁Fred	-12.295
▁Gayl	-12.295
▁erect	-12.2951
▁Sebastia	-12.2951
▁geneticist	-12.2951
▁Politic	-12.2951
▁sponge	-12.2951
▁Wood	-12.2954
party	-12.2954
▁Brand	-12.2955
▁Alf	-12.2958
▁Blai	-12.2958
▁disgusting	-12.296
▁diplomat	-12.2962
▁Den	-12.297
▁Vi	-12.2972
huma	-12.2974
▁cycl	-12.2974
▁recipient	-12.2976
▁Katrina	-12.2976
rez	-12.2977
communication	-12.2977
▁soda	-12.2977
▁doom	-12.2977
▁blurr	-12.2979
▁embody	-12.298
▁vibrate	-12.298
rity	-12.2986
▁Guy	-12.299
▁Camp	-12.299
▁carbonate	-12.2998
▁yard	-12.2999
▁sane	-12.3
▁Aim	-12.3009
▁projector	-12.3011
▁Nei	-12.3013
▁popped	-12.3013
▁metaphorical	-12.3014
▁amaz	-12.3019
stick	-12.3021
▁Row	-12.3024
ean	-12.3032
▁82	-12.3036
▁Peru	-12.3043
▁Rub	-12.3046
▁swo	-12.3051
▁Cole	-12.3053
▁wrestle	-12.3054
▁Pi	-12.3057
▁evaluat	-12.3061
▁adequate	-12.3063
pler	-12.3065
rose	-12.3073
vasive	-12.3075
▁circula	-12.3076
▁foreigner	-12.3077
▁relativ	-12.3079
▁visionar	-12.3085
▁shave	-12.3092
▁considerabl	-12.3093
▁surf	-12.3093
▁tablet	-12.3095
▁quar	-12.3096
▁warfar	-12.3102
solv	-12.3103
▁vaccinate	-12.3104
▁cello	-12.3106
▁hunch	-12.3111
▁Tara	-12.3115
▁Mau	-12.3116
▁tales	-12.3131
▁Philipp	-12.3133
14	-12.3135
▁slogan	-12.3135
▁restor	-12.3138
▁Ac	-12.3139
▁attacker	-12.3142
▁appar	-12.3142
▁fo	-12.3145
ibera	-12.3155
inner	-12.3155
ado	-12.3157
sonance	-12.3168
▁commute	-12.317
▁doubl	-12.3173
arithm	-12.3176
▁Ig	-12.3177
atic	-12.3183
▁brick	-12.3184
▁herd	-12.3187
▁Test	-12.3193
▁3.	-12.3199
▁CE	-12.3201
pan	-12.3202
▁dictate	-12.3203
hane	-12.3204
▁belt	-12.3204
ini	-12.3206
▁Nine	-12.3207
▁Mathematica	-12.3215
▁frie	-12.3223
airo	-12.3227
train	-12.3228
ru	-12.3231
▁Hol	-12.3232
▁explorer	-12.3236
▁Gand	-12.3237
▁Hand	-12.3248
iful	-12.3277
▁clone	-12.3281
▁plankton	-12.3287
▁Fl	-12.3287
▁op	-12.3293
di	-12.3295
hind	-12.3298
▁nudge	-12.3308
▁pollinate	-12.3308
▁refrigerat	-12.331
▁satisf	-12.3328
▁Cor	-12.3331
▁soar	-12.3339
▁exceptional	-12.3341
▁Hop	-12.3365
▁Maya	-12.3367
▁oxide	-12.338
▁belonging	-12.3381
▁forum	-12.3384
▁sovereign	-12.3388
▁venue	-12.339
▁refus	-12.3393
▁Wu	-12.3397
▁rhetoric	-12.3399
▁contaminat	-12.3401
human	-12.3403
▁grim	-12.3404
▁beats	-12.3412
bro	-12.3415
ripped	-12.3416
ala	-12.3418
▁BR	-12.3427
▁Eight	-12.3429
▁virtuo	-12.3431
engineer	-12.3435
▁curl	-12.3436
gill	-12.3439
▁rotat	-12.3441
iv	-12.3442
▁connectiv	-12.3444
▁influenc	-12.3446
▁stimulat	-12.3446
ag	-12.3447
▁110	-12.3455
▁MA	-12.3458
▁Financ	-12.3462
▁Dam	-12.3465
▁legend	-12.3466
▁Bi	-12.3472
▁holder	-12.3473
▁Fey	-12.3478
▁funder	-12.3482
▁lighter	-12.3485
▁whistl	-12.3486
▁Bil	-12.3491
HC	-12.3492
▁ag	-12.3493
ulation	-12.3493
▁psyche	-12.3495
RC	-12.3496
▁polls	-12.3497
▁PC	-12.3502
▁buyer	-12.3507
fur	-12.3508
▁biograph	-12.3509
▁Snow	-12.351
▁auto	-12.3514
▁Teach	-12.3515
pleasant	-12.3516
walk	-12.3522
ank	-12.3524
▁trail	-12.3525
model	-12.3526
▁BM	-12.3529
design	-12.353
▁bent	-12.3531
▁lobby	-12.3531
▁quiz	-12.3533
▁millennia	-12.3533
darin	-12.3533
ampaign	-12.3534
▁excess	-12.3534
▁Nico	-12.3534
▁Excuse	-12.3534
▁Guatemala	-12.3534
▁cafeteria	-12.3534
▁empirical	-12.3534
▁invasion	-12.3534
▁nickname	-12.3534
▁opponent	-12.3534
▁persuasi	-12.3534
▁ridicule	-12.3534
▁template	-12.3534
▁transgender	-12.3534
▁treadmill	-12.3534
▁Mount	-12.3534
▁sermon	-12.3534
▁arrogan	-12.3534
▁nanotube	-12.3534
▁sterile	-12.3534
▁Laptop	-12.3534
▁miraculous	-12.3534
▁Oscar	-12.3534
▁excerpt	-12.3534
▁improbab	-12.3534
▁seamless	-12.3534
▁Airport	-12.3534
▁Photoshop	-12.3534
▁Window	-12.3534
▁progeri	-12.3534
jev	-12.3534
▁charisma	-12.3534
▁sanctuar	-12.3534
▁cherish	-12.3534
▁ancestr	-12.3534
▁oblivio	-12.3534
▁extrovert	-12.3534
▁Matthew	-12.3534
▁counterpart	-12.3534
▁wetsuit	-12.3534
▁festival	-12.3534
▁Index	-12.3534
▁Group	-12.3534
▁cereal	-12.3534
▁Ariel	-12.3534
▁concussion	-12.3534
▁clash	-12.3534
▁pinpoint	-12.3534
▁blueprint	-12.3534
▁nanoscale	-12.3534
▁Ahmed	-12.3535
▁boson	-12.3535
▁Achill	-12.3535
▁resign	-12.3535
▁fridge	-12.3535
▁pollination	-12.3535
▁embark	-12.3535
transcendence	-12.3535
▁Transition	-12.3535
▁soundscape	-12.3535
▁Typical	-12.3535
▁flame	-12.3535
▁cynic	-12.3535
▁Dennis	-12.3535
▁Believe	-12.3535
▁stink	-12.3535
▁Darwinian	-12.3535
shine	-12.3536
▁carpenter	-12.3536
▁gamma	-12.3536
▁Hanna	-12.3537
▁Rule	-12.3537
▁Money	-12.3537
▁Bloom	-12.3537
▁Helen	-12.3537
▁vow	-12.3537
▁appetite	-12.3538
▁Extreme	-12.3538
▁forgiveness	-12.3538
▁composite	-12.3538
▁indication	-12.3539
▁dislike	-12.3539
▁Code	-12.354
▁navigation	-12.354
hrir	-12.3541
▁conductor	-12.3541
▁rode	-12.3541
▁nomad	-12.3541
▁disk	-12.3541
▁Hmm	-12.3542
▁tailor	-12.3543
▁daf	-12.3544
bao	-12.3544
▁anomal	-12.3545
▁payoff	-12.3546
cumen	-12.3546
▁graceful	-12.3546
▁pathogen	-12.3547
▁clapp	-12.3547
▁porn	-12.3548
hatred	-12.3548
logy	-12.3548
▁handl	-12.355
▁Serge	-12.355
▁extraction	-12.3551
▁roughness	-12.3552
▁Pink	-12.3552
▁spaceship	-12.3553
▁grind	-12.3554
▁tourist	-12.3554
▁aspire	-12.3556
▁sentiment	-12.356
▁Chernobyl	-12.356
▁submarine	-12.356
▁responsive	-12.356
▁bladder	-12.356
▁diar	-12.356
▁blade	-12.3561
▁Poet	-12.3563
▁gland	-12.3563
▁respectful	-12.3571
▁Mayan	-12.3571
moor	-12.3571
ennis	-12.3573
▁heartbreak	-12.3576
▁indicat	-12.358
liberation	-12.3583
▁Burn	-12.3583
chk	-12.3584
▁Senat	-12.3587
▁partially	-12.3588
▁Change	-12.3588
▁je	-12.3594
▁Uncle	-12.3597
▁correction	-12.3602
▁zip	-12.3604
▁throat	-12.3605
▁bait	-12.3605
sterda	-12.361
▁flatten	-12.3611
▁Personal	-12.3612
start	-12.3612
dental	-12.3614
▁booth	-12.3615
▁Jami	-12.3616
▁Earl	-12.3617
▁End	-12.3618
▁900	-12.362
▁PI	-12.3625
▁exaggerat	-12.363
▁crisp	-12.3631
aptain	-12.3632
▁360	-12.3632
▁enthusiastic	-12.3633
▁defender	-12.3633
▁Hadr	-12.3636
▁dementi	-12.364
balance	-12.364
▁Git	-12.3641
▁gangs	-12.3651
▁Maha	-12.3651
▁Juan	-12.3656
▁undermine	-12.3664
▁ador	-12.3666
▁sued	-12.3679
enture	-12.3683
▁Luc	-12.3683
▁Fer	-12.3688
▁Nic	-12.3695
▁environmentally	-12.3698
▁nin	-12.37
▁verse	-12.3702
erial	-12.3705
▁bureaucrat	-12.3706
▁reside	-12.3706
▁Reg	-12.3708
▁190	-12.3708
▁protester	-12.371
▁Phila	-12.3716
▁blessing	-12.3717
af	-12.3717
▁invade	-12.3719
▁gyr	-12.3725
urgenc	-12.3726
▁scal	-12.3736
▁justif	-12.3741
▁crow	-12.3745
▁Anna	-12.3749
▁incarcerat	-12.375
▁requir	-12.3756
lux	-12.3762
▁fin	-12.3764
tail	-12.3766
ut	-12.3769
vil	-12.3779
▁redefin	-12.3779
▁Robbi	-12.379
▁Mari	-12.3814
▁prey	-12.3817
▁Shar	-12.3818
▁photon	-12.382
dder	-12.3821
ju	-12.3823
▁accompani	-12.3824
▁widen	-12.3824
▁Perc	-12.3825
ill	-12.3829
▁fur	-12.3833
▁pale	-12.3833
rate	-12.3836
▁survivor	-12.3836
▁marking	-12.3836
ff	-12.384
▁remembering	-12.384
▁Justin	-12.3843
▁Stand	-12.3853
▁anticipat	-12.3854
▁Billy	-12.3857
▁doodle	-12.3857
cha	-12.3866
tor	-12.3871
reach	-12.3876
▁introverts	-12.3878
ggle	-12.3882
▁Rang	-12.3888
▁drawer	-12.3898
▁16-	-12.3902
▁characterize	-12.3917
crony	-12.3918
▁spine	-12.392
pack	-12.3924
▁bricks	-12.3925
▁nut	-12.3926
▁condense	-12.3927
▁breasts	-12.3931
▁medi	-12.3946
▁appreciat	-12.3948
▁aggregate	-12.3954
▁50-	-12.3956
AG	-12.3958
▁invad	-12.3972
▁Westerner	-12.3981
▁emit	-12.399
ARPA	-12.4012
▁gentl	-12.402
▁450	-12.4024
▁Maria	-12.4024
responding	-12.4042
door	-12.4042
▁hills	-12.4049
mostat	-12.4052
▁merit	-12.4053
▁yo	-12.4053
rise	-12.4066
▁lymph	-12.4067
ature	-12.4069
▁reimagine	-12.4071
▁uncertain	-12.4075
▁cris	-12.4083
▁locomoti	-12.4085
▁endur	-12.4086
▁lend	-12.4088
▁destin	-12.4094
▁disabilit	-12.4095
▁dispers	-12.4111
core	-12.4126
▁Pal	-12.4128
rank	-12.4132
▁plac	-12.4142
ight	-12.4146
▁theft	-12.4148
▁bake	-12.4149
posed	-12.4149
q	-12.4151
▁racis	-12.4152
▁intentional	-12.4156
▁Differen	-12.4159
sex	-12.4163
▁fl	-12.4165
▁Late	-12.4169
▁Connecti	-12.4176
▁rabbi	-12.4177
▁84	-12.419
▁anthropolog	-12.4191
illin	-12.4192
▁marketer	-12.4193
▁synthesi	-12.4195
▁manifest	-12.4196
▁TD	-12.4197
▁hobby	-12.4198
zoning	-12.4199
▁flour	-12.42
▁suspens	-12.4201
▁Critic	-12.4201
▁Exact	-12.4201
▁Hiroshi	-12.4201
▁Orleans	-12.4201
▁altruist	-12.4201
▁antidote	-12.4201
▁balcon	-12.4201
▁delicate	-12.4201
▁embryo	-12.4201
▁hippocamp	-12.4201
▁inferior	-12.4201
▁leisure	-12.4201
▁reperto	-12.4201
▁reunion	-12.4201
▁sprawl	-12.4201
▁turbine	-12.4201
▁vector	-12.4201
▁DIY	-12.4201
▁Taiwan	-12.4201
▁intractable	-12.4201
▁Certain	-12.4201
▁Schwarz	-12.4201
▁Thursday	-12.4201
▁vague	-12.4201
▁Rouge	-12.4201
▁imprison	-12.4201
▁mourn	-12.4201
▁Control	-12.4201
▁catalyst	-12.4201
▁gossip	-12.4201
▁Tweet	-12.4201
▁strive	-12.4201
▁craving	-12.4201
▁plaster	-12.4201
▁histories	-12.4201
▁worn	-12.4201
▁verify	-12.4201
▁Cruz	-12.4201
▁epiphan	-12.4201
▁holistic	-12.4201
▁quantitative	-12.4201
▁Anthon	-12.4201
▁Point	-12.4201
▁pavilion	-12.4201
▁eager	-12.4201
▁harsh	-12.4201
▁infra	-12.4201
▁tolerate	-12.4201
▁pillow	-12.4201
▁headphone	-12.4201
▁suburbia	-12.4201
▁Cooper	-12.4201
▁Night	-12.4201
▁contradiction	-12.4202
▁Pearl	-12.4202
counterintuitive	-12.4202
▁constructive	-12.4202
▁appall	-12.4202
▁Brook	-12.4202
▁Shame	-12.4202
▁toolbox	-12.4203
▁Pick	-12.4203
▁fluent	-12.4203
▁absurd	-12.4204
▁keen	-12.4204
▁Trice	-12.4204
▁equator	-12.4204
▁confession	-12.4205
▁liar	-12.4205
▁Normal	-12.4205
▁supplement	-12.4205
-2	-12.4205
▁alpha	-12.4205
▁lesion	-12.4206
▁inhabitant	-12.4206
▁collage	-12.4206
▁Diver	-12.4206
▁unthink	-12.4206
▁exhilarating	-12.4207
▁youngster	-12.4207
▁Jake	-12.4208
▁nonviolence	-12.4208
▁thunder	-12.4208
▁gigant	-12.4208
bra	-12.4209
▁Short	-12.4209
▁Persian	-12.4209
▁placebo	-12.4209
▁fatty	-12.421
▁Traditional	-12.421
▁rejection	-12.4211
▁relational	-12.4211
▁Est	-12.4212
▁attain	-12.4212
▁Fear	-12.4212
FL	-12.4213
▁pun	-12.4213
▁Miller	-12.4213
▁recreation	-12.4213
▁delightful	-12.4213
▁SB	-12.4214
sel	-12.4214
Thousands	-12.4216
onia	-12.4216
▁budd	-12.4217
▁supporti	-12.4217
▁thou	-12.4218
▁Fort	-12.4218
▁Alto	-12.4218
▁INC	-12.4219
▁multitask	-12.4219
found	-12.4219
emost	-12.4219
▁apprentice	-12.422
▁Player	-12.422
▁union	-12.4221
▁supplier	-12.4222
▁Brad	-12.4224
▁den	-12.4225
▁meaningless	-12.4225
▁Malco	-12.4226
▁prompt	-12.4228
▁laureate	-12.4228
▁algebra	-12.4228
▁penetrate	-12.4229
▁socket	-12.4229
▁desir	-12.423
▁ovari	-12.4232
▁empathiz	-12.4233
structure	-12.4233
inister	-12.4234
proof	-12.4234
▁Stockh	-12.4235
▁persever	-12.4236
MRI	-12.4236
▁reluctant	-12.4237
▁cr	-12.4238
nick	-12.4238
familiar	-12.4239
white	-12.4239
pattern	-12.4239
▁conserve	-12.424
▁seren	-12.4241
▁accountant	-12.4242
▁antique	-12.4242
birth	-12.4243
▁naught	-12.4243
▁Alis	-12.4244
▁coup	-12.4245
▁Huh	-12.4248
▁rabbit	-12.4252
▁deplet	-12.4253
▁puzzl	-12.4254
▁bark	-12.4254
escent	-12.4255
▁inspect	-12.4255
▁carrier	-12.4256
essage	-12.4259
▁murderer	-12.426
▁Near	-12.426
press	-12.4261
ister	-12.4263
rick	-12.4267
▁fi	-12.4268
brew	-12.4269
▁Agn	-12.4269
▁Patient	-12.4277
▁gifted	-12.4277
▁hazard	-12.4277
voted	-12.4279
▁oppose	-12.4279
▁participator	-12.428
ryl	-12.428
▁Tri	-12.4282
▁mimick	-12.4282
▁rigg	-12.4291
▁Dead	-12.4292
▁hostilit	-12.4294
huse	-12.4297
▁initiate	-12.43
▁certifi	-12.4302
▁swimmer	-12.4308
▁sober	-12.4308
grader	-12.4308
▁AR	-12.4314
▁Eighty	-12.4316
▁dock	-12.4318
▁cymatics	-12.4321
▁facilitate	-12.4323
ija	-12.4325
▁awaken	-12.433
In	-12.4333
92	-12.4337
ept	-12.4337
eight	-12.4339
▁predictabl	-12.4351
▁token	-12.4352
▁functionalit	-12.4357
lic	-12.4358
▁sling	-12.4363
▁192	-12.4369
handed	-12.4374
▁organizer	-12.4379
▁Compare	-12.4379
▁Forty	-12.4382
▁canop	-12.4385
▁committee	-12.4395
apped	-12.4396
▁mutate	-12.4397
mo	-12.4397
ments	-12.4397
▁tinie	-12.4401
▁Gran	-12.4403
▁stumbl	-12.4404
▁meta	-12.4413
▁investigati	-12.4415
▁battles	-12.4415
amas	-12.4424
▁HP	-12.4424
eo	-12.4428
oil	-12.4436
▁beep	-12.4441
▁moderate	-12.4447
▁serial	-12.4451
mer	-12.4456
▁conceivabl	-12.4458
▁Moor	-12.4459
▁substitute	-12.446
▁irre	-12.446
▁Ar	-12.4462
▁Win	-12.4465
explored	-12.4469
our	-12.447
▁plea	-12.4477
illa	-12.4477
eur	-12.4478
shot	-12.4482
▁BP	-12.4486
row	-12.4493
emia	-12.4496
ompassion	-12.4499
▁closet	-12.4503
▁dissolve	-12.4506
▁destructive	-12.4514
hmer	-12.4515
▁allocate	-12.4516
▁cub	-12.4532
urance	-12.4534
▁introvert	-12.4539
steps	-12.4541
olm	-12.4543
eric	-12.4544
▁casualt	-12.4559
▁14-	-12.4574
▁signing	-12.4575
▁miniatur	-12.4578
▁Animal	-12.4583
▁Agen	-12.4586
▁replicat	-12.4605
▁Olive	-12.4607
▁blam	-12.4611
live	-12.4618
libr	-12.4622
▁Univers	-12.4624
▁CP	-12.4628
▁gravel	-12.4631
▁strat	-12.4636
▁Kay	-12.4638
▁clarif	-12.4639
▁wrinkle	-12.4641
▁outline	-12.4643
▁starch	-12.4644
▁acknowledg	-12.465
CA	-12.466
▁Nazi	-12.4661
nal	-12.4663
▁towns	-12.4663
mmunity	-12.4666
adore	-12.4672
produc	-12.4674
▁reache	-12.468
ake	-12.4686
▁intra	-12.4689
▁Break	-12.4694
wick	-12.4696
▁relie	-12.4706
▁sav	-12.4712
▁mystic	-12.4713
▁systemic	-12.4734
▁rival	-12.4744
▁marked	-12.4748
▁wav	-12.4749
inal	-12.475
▁Plan	-12.4768
▁photographic	-12.4788
▁neurologic	-12.4789
▁recorder	-12.4794
▁vascular	-12.4807
maker	-12.4809
▁Environment	-12.4814
wesome	-12.482
▁Bart	-12.4825
▁blur	-12.4837
MA	-12.4842
▁Meet	-12.4843
cro	-12.4843
▁UN	-12.4843
201	-12.4855
elli	-12.4855
▁enthusias	-12.4857
▁mega	-12.4861
▁activis	-12.4865
quarter	-12.4867
▁heated	-12.4867
▁digit	-12.4872
▁compliment	-12.4873
▁dominan	-12.4875
▁Bel	-12.4881
nergy	-12.4884
▁Tasmania	-12.4888
master	-12.4891
▁flick	-12.4901
min	-12.4909
proving	-12.4911
▁flee	-12.4912
▁compass	-12.4912
▁bioluminescen	-12.4913
maid	-12.4913
▁necessit	-12.4914
▁testimon	-12.4914
▁Ukrain	-12.4914
▁catalog	-12.4915
nnovation	-12.4915
▁Netflix	-12.4915
▁WorldWide	-12.4915
▁irrigati	-12.4915
▁Charlotte	-12.4915
▁Fantastic	-12.4915
▁Freud	-12.4915
▁ambassador	-12.4915
▁amputee	-12.4915
▁assault	-12.4915
▁condemn	-12.4915
▁doctrine	-12.4915
▁elusive	-12.4915
▁embroider	-12.4915
▁estrogen	-12.4915
▁lettuce	-12.4915
▁mangrove	-12.4915
▁outweigh	-12.4915
▁perceptual	-12.4915
▁plummet	-12.4915
▁taxpayer	-12.4915
▁Scoop	-12.4915
▁cricket	-12.4915
▁homosexual	-12.4915
▁paranoi	-12.4915
▁daunting	-12.4915
▁gadget	-12.4915
▁patron	-12.4915
▁Common	-12.4915
▁ribbon	-12.4915
▁tweak	-12.4915
▁CIA	-12.4915
▁stakeholder	-12.4915
▁Reddit	-12.4915
▁antiretroviral	-12.4915
▁knob	-12.4915
▁Barbar	-12.4915
▁bottleneck	-12.4915
▁decisive	-12.4915
▁ingenious	-12.4915
▁coalition	-12.4915
▁forensic	-12.4915
▁Club	-12.4915
▁Fifteen	-12.4915
▁Morning	-12.4915
▁mockingbird	-12.4915
▁sulfur	-12.4915
▁singular	-12.4915
▁confer	-12.4915
▁Max	-12.4915
▁quirk	-12.4915
▁fragrance	-12.4915
▁juni	-12.4915
▁shipyard	-12.4915
▁Geoff	-12.4915
▁Pitt	-12.4915
▁rectangle	-12.4915
▁Kind	-12.4915
▁championship	-12.4915
▁dictatorship	-12.4915
▁landmine	-12.4915
▁latitude	-12.4916
▁Shaw	-12.4916
▁Solar	-12.4916
▁refresh	-12.4916
▁facade	-12.4916
▁Raise	-12.4916
▁Patent	-12.4916
▁Strange	-12.4916
▁instructor	-12.4916
▁rodent	-12.4916
▁vaccination	-12.4916
▁cellulos	-12.4916
▁Papua	-12.4916
almon	-12.4916
▁partial	-12.4917
▁latter	-12.4917
▁aisle	-12.4917
▁Bono	-12.4917
▁Wang	-12.4917
location	-12.4918
▁preview	-12.4918
▁dug	-12.4918
▁cabin	-12.4918
▁Engineer	-12.4918
▁devastation	-12.4918
▁Wide	-12.4918
▁Massac	-12.4918
▁terminal	-12.4919
▁Chop	-12.4919
▁Kite	-12.4919
▁disagreement	-12.4919
heid	-12.4919
▁Face	-12.492
▁variant	-12.492
▁Intel	-12.492
▁scaled	-12.4921
▁Current	-12.4921
▁hail	-12.4922
▁slime	-12.4922
▁crave	-12.4922
▁restriction	-12.4923
▁browse	-12.4923
▁backpack	-12.4924
▁fond	-12.4924
▁livelihood	-12.4924
▁superhero	-12.4925
▁Birds	-12.4927
▁baseline	-12.4929
▁participati	-12.493
zzar	-12.4931
▁Java	-12.4931
etas	-12.4931
▁Jacque	-12.4932
umann	-12.4933
▁Tso	-12.4934
▁Bots	-12.4935
tenance	-12.4936
▁Bayes	-12.4936
▁cultivat	-12.4936
▁advancement	-12.4939
rief	-12.494
▁Fold	-12.494
▁treasure	-12.4941
▁rainbow	-12.4942
▁reassure	-12.4946
▁dissection	-12.4948
fus	-12.495
▁Yemeni	-12.4951
▁fearless	-12.4954
▁foresee	-12.4955
▁stripped	-12.4957
▁purchas	-12.4959
▁mast	-12.496
▁Hot	-12.4961
▁humid	-12.4962
mish	-12.4964
eduction	-12.4965
▁Luk	-12.4965
▁sword	-12.4966
SG	-12.4967
▁Dance	-12.4969
NES	-12.497
▁Genom	-12.4971
▁judg	-12.4972
▁Nav	-12.4973
▁charter	-12.4977
▁iteration	-12.4978
▁Word	-12.4978
skirt	-12.4978
verbal	-12.4982
▁forbidd	-12.4984
▁Indiana	-12.4984
▁Pran	-12.4985
▁Whe	-12.4985
▁uprising	-12.4989
traumatic	-12.4992
▁instrumental	-12.4993
ks	-12.4994
▁legendar	-12.4994
Bay	-12.4996
▁Pilot	-12.4998
lateral	-12.4998
ovo	-12.4999
▁Colli	-12.4999
erence	-12.5001
resolution	-12.5002
▁Naj	-12.5002
apping	-12.5002
homa	-12.5003
key	-12.5004
focus	-12.5004
computer	-12.5007
famous	-12.5009
▁ramp	-12.5009
cow	-12.501
mega	-12.5013
▁blast	-12.5014
▁Environmental	-12.5017
▁recurren	-12.5019
▁mill	-12.502
▁originate	-12.5021
▁Hold	-12.5021
▁cops	-12.5023
▁cock	-12.5024
▁Runn	-12.5024
▁pedal	-12.5025
▁slot	-12.5025
▁pup	-12.5026
SD	-12.5027
secure	-12.5031
RS	-12.5034
▁bathe	-12.5036
test	-12.504
▁diffuse	-12.5041
▁infuse	-12.5043
▁bagg	-12.5045
esert	-12.5046
▁whiske	-12.5049
rt	-12.5049
▁Beyon	-12.5051
▁compost	-12.5053
▁dri	-12.5054
MM	-12.5055
▁Sever	-12.5056
▁sta	-12.5057
▁protecti	-12.5058
▁forage	-12.506
▁Full	-12.5061
you	-12.5061
▁39	-12.5061
▁horn	-12.5062
grown	-12.5065
▁handwrit	-12.5068
▁Basi	-12.5068
help	-12.5069
▁Tech	-12.5072
times	-12.5074
▁Hero	-12.5077
▁Eli	-12.5081
▁retrofitt	-12.5088
▁mediate	-12.5091
velt	-12.5091
zing	-12.5091
▁Stein	-12.5092
atops	-12.5092
▁blended	-12.5102
▁Gilli	-12.5106
▁bundle	-12.5119
▁roller	-12.512
▁Nu	-12.5124
▁poetic	-12.5125
▁alarming	-12.5126
met	-12.5129
▁160	-12.5129
▁consol	-12.5131
▁carve	-12.5131
rin	-12.5132
▁spy	-12.5136
▁Com	-12.514
▁40-	-12.5143
shame	-12.5146
▁separat	-12.5148
▁liberate	-12.5149
▁amuse	-12.515
▁finishe	-12.5151
▁heroin	-12.5156
▁Hous	-12.5157
▁Cel	-12.5166
▁bombers	-12.5167
ME	-12.5169
▁Midwest	-12.5172
▁wasp	-12.5194
▁canoe	-12.52
winn	-12.5204
▁Der	-12.5217
▁boyfriend	-12.5217
▁Osa	-12.522
▁Safe	-12.5221
▁Visual	-12.5233
ions	-12.5238
nuit	-12.5239
mber	-12.524
zel	-12.5243
▁Marsha	-12.5262
▁68	-12.5267
▁thriv	-12.5267
▁83	-12.527
▁prototyp	-12.5281
▁compose	-12.5292
▁TB	-12.5296
apes	-12.5306
▁dune	-12.5311
manda	-12.5311
▁individually	-12.5311
ran	-12.5315
▁vet	-12.5318
han	-12.5327
▁revers	-12.5328
nthia	-12.5335
ick	-12.5335
▁hu	-12.5339
nya	-12.535
▁del	-12.5351
▁por	-12.5352
MF	-12.5357
▁Coh	-12.5358
tma	-12.536
▁Fortun	-12.5361
▁conservatives	-12.5362
▁chatt	-12.5384
200	-12.5386
ali	-12.5395
▁Euro	-12.5396
▁vici	-12.5397
oc	-12.5398
▁Para	-12.54
ound	-12.5407
▁Rea	-12.5412
▁Dun	-12.5414
win	-12.5416
nan	-12.5419
▁Ban	-12.5422
25	-12.5428
▁Christoph	-12.5429
▁temper	-12.5429
val	-12.543
wa	-12.543
nish	-12.5444
▁slipp	-12.5445
▁viewers	-12.5447
pp	-12.5452
▁bands	-12.5454
▁humane	-12.5457
▁Laur	-12.5463
uc	-12.5471
▁proportional	-12.5484
litary	-12.5491
▁fled	-12.5494
▁complet	-12.5498
nois	-12.5498
▁186	-12.5499
tro	-12.5509
▁lin	-12.5513
▁Move	-12.5518
▁Hur	-12.553
▁Chap	-12.553
phobic	-12.5533
▁Burm	-12.5536
▁increment	-12.5538
sai	-12.5541
▁Run	-12.5546
▁semina	-12.5546
▁yog	-12.5546
IM	-12.5552
▁bra	-12.5552
▁Wire	-12.5555
part	-12.5555
golia	-12.5559
▁NI	-12.5569
▁Aust	-12.557
rne	-12.5573
▁succeeding	-12.5583
▁morph	-12.5588
▁plunge	-12.5594
list	-12.5603
▁perfume	-12.5604
▁Ear	-12.5611
ett	-12.5617
▁posting	-12.562
▁rever	-12.5625
▁Though	-12.5631
erra	-12.5636
ib	-12.5637
▁cliche	-12.564
▁anonym	-12.5644
roid	-12.5646
▁cru	-12.5647
▁Cart	-12.5647
▁economical	-12.5648
▁tickle	-12.5648
ris	-12.5649
▁fleet	-12.5649
▁Libya	-12.5652
▁invasive	-12.5653
scal	-12.5654
▁neo	-12.5659
▁Aid	-12.5659
violent	-12.5664
▁mob	-12.5668
▁swap	-12.5669
viation	-12.5671
uous	-12.5671
▁numer	-12.5675
agne	-12.5675
▁hoo	-12.5676
run	-12.5678
▁Tel	-12.568
▁asteroids	-12.5681
▁savanna	-12.5681
oul	-12.5681
▁dissect	-12.5681
▁unifi	-12.5682
▁invisib	-12.5682
▁waist	-12.5683
▁legitima	-12.5683
fensive	-12.5683
incidence	-12.5683
▁Secret	-12.5684
▁champ	-12.5684
▁Gapminder	-12.5684
▁Hirsh	-12.5684
▁Picasso	-12.5684
▁Tamiflu	-12.5684
▁gecko	-12.5684
▁misconception	-12.5684
▁primordial	-12.5684
▁reflex	-12.5684
▁republic	-12.5684
▁sediment	-12.5684
▁surrender	-12.5684
▁yogurt	-12.5684
▁detergent	-12.5684
▁fierce	-12.5684
▁troubling	-12.5684
▁compatib	-12.5684
▁heterosexual	-12.5684
▁railroad	-12.5684
▁surrogate	-12.5684
▁orthopedic	-12.5684
▁snapshot	-12.5684
▁palette	-12.5684
▁ballast	-12.5684
▁Record	-12.5684
▁automo	-12.5684
▁byproduct	-12.5684
▁webcam	-12.5684
▁teapot	-12.5684
▁Search	-12.5684
▁conform	-12.5684
▁hurricane	-12.5684
▁maze	-12.5684
▁scandal	-12.5684
▁Kiva	-12.5684
▁dissent	-12.5684
▁provision	-12.5684
▁venom	-12.5684
▁altruism	-12.5684
▁interference	-12.5684
▁Ottoman	-12.5684
▁asphalt	-12.5684
▁module	-12.5684
▁crunch	-12.5684
▁dashboard	-12.5684
▁grandmaster	-12.5684
▁engulf	-12.5685
▁masterpiece	-12.5685
▁feminism	-12.5685
▁gridlock	-12.5685
borough	-12.5685
▁metropolitan	-12.5685
venge	-12.5685
▁Further	-12.5685
▁statistician	-12.5685
▁womb	-12.5685
▁EEG	-12.5685
▁devotion	-12.5685
▁Brenda	-12.5685
▁niche	-12.5685
▁unsafe	-12.5685
▁inequit	-12.5685
▁blunt	-12.5685
▁Pool	-12.5685
▁sniff	-12.5685
▁billionaire	-12.5685
▁Huck	-12.5685
▁obey	-12.5685
▁Holland	-12.5686
▁foolish	-12.5686
▁potter	-12.5686
▁Moham	-12.5686
▁forehead	-12.5686
▁reception	-12.5686
▁preach	-12.5686
▁Galil	-12.5686
▁Mel	-12.5687
▁dysfunctional	-12.5687
▁Minne	-12.5687
▁Danny	-12.5687
▁shortcut	-12.5687
▁interconnection	-12.5687
▁packet	-12.5687
▁mason	-12.5687
▁Seventy	-12.5687
▁Town	-12.5687
▁Choice	-12.5687
▁89	-12.5687
▁speculation	-12.5688
▁Shah	-12.5688
▁droplet	-12.5688
▁Nano	-12.5688
▁underlie	-12.5688
▁misuse	-12.5689
▁shareholder	-12.5689
▁Cut	-12.5689
▁summon	-12.569
▁Rita	-12.569
▁empti	-12.569
▁Kins	-12.569
▁semen	-12.569
▁tipping	-12.5691
▁waterfall	-12.5691
▁announcement	-12.5691
▁Whale	-12.5691
▁Claus	-12.5692
▁Owen	-12.5693
▁tradeoff	-12.5693
▁anchor	-12.5694
xter	-12.5694
▁Mayor	-12.5694
▁stall	-12.5695
▁Fourth	-12.5695
▁astounding	-12.5695
▁renew	-12.5696
▁wetland	-12.5696
▁Jamaican	-12.5696
▁converge	-12.5697
▁Side	-12.5697
▁perpetual	-12.5698
▁slap	-12.5698
▁slash	-12.5699
▁gam	-12.5701
▁geological	-12.5702
▁dazzling	-12.5702
nnett	-12.5703
▁Heather	-12.5704
▁Born	-12.5705
▁carti	-12.5706
ollider	-12.5706
▁proton	-12.5707
▁Wales	-12.5707
▁mania	-12.5709
wana	-12.5711
real	-12.5712
▁Mind	-12.5713
▁Cy	-12.5714
▁plume	-12.5714
▁Farm	-12.5714
▁tire	-12.5715
▁therapeutic	-12.5717
▁parameter	-12.5717
▁offender	-12.5717
▁warrant	-12.5717
▁napkin	-12.5717
▁radiologist	-12.5717
▁bailout	-12.5717
▁Michel	-12.5718
▁cruise	-12.5718
▁grill	-12.5719
▁Turkish	-12.5719
ambia	-12.5721
▁IKE	-12.5722
▁Anne	-12.5722
▁confrontation	-12.5725
▁Understand	-12.5727
▁mum	-12.5729
▁Progress	-12.5731
▁firefl	-12.5733
▁Rena	-12.5734
▁Rat	-12.5735
▁McCa	-12.5736
▁1.4	-12.5736
▁Viking	-12.5738
▁Loca	-12.574
▁fitting	-12.5742
pping	-12.5745
▁pos	-12.5748
ena	-12.5749
▁pissed	-12.5751
▁steward	-12.5755
▁Dick	-12.5756
ef	-12.5758
▁McK	-12.5761
▁ruler	-12.5764
▁poly	-12.5766
▁hygien	-12.5769
▁Az	-12.577
▁transducer	-12.5773
▁inflate	-12.5774
▁analytical	-12.5778
▁compil	-12.578
▁Dat	-12.5783
▁escalat	-12.5791
rosion	-12.5792
▁enrich	-12.5792
▁rib	-12.5793
pork	-12.5795
▁Esse	-12.5795
▁Berg	-12.5797
▁Lion	-12.5798
▁conc	-12.5799
▁hol	-12.5807
▁digitiz	-12.5809
▁Bare	-12.581
▁whal	-12.5812
echanical	-12.5817
▁Bach	-12.5824
▁Lauren	-12.5834
icious	-12.5836
screen	-12.5837
border	-12.5838
portrait	-12.5838
natural	-12.5839
conventional	-12.5839
brand	-12.584
▁Mas	-12.584
▁wax	-12.584
finance	-12.5841
mouth	-12.5842
week	-12.5842
carbon	-12.5842
▁emulate	-12.5844
protect	-12.5846
lm	-12.5849
▁Pay	-12.585
medical	-12.585
burn	-12.585
performance	-12.5851
ries	-12.5851
▁advocat	-12.5854
tub	-12.5855
game	-12.5856
▁complaint	-12.5858
▁McG	-12.586
grain	-12.5862
▁bury	-12.5863
▁hurr	-12.5865
text	-12.5868
▁conceive	-12.5881
▁villager	-12.5881
▁Pant	-12.5882
▁generalize	-12.5882
▁preferr	-12.5882
wak	-12.5884
fee	-12.5888
▁evident	-12.5891
▁optimist	-12.5892
itis	-12.5898
ros	-12.59
▁recline	-12.5909
▁dim	-12.5913
▁Rad	-12.5917
▁Merc	-12.5917
▁plague	-12.5918
▁eradicati	-12.5921
IP	-12.5929
▁mandate	-12.5933
sha	-12.5934
▁Lis	-12.5936
▁racial	-12.594
▁debat	-12.5943
yo	-12.5957
bell	-12.5958
▁Donald	-12.5958
▁nurs	-12.596
ged	-12.5965
rand	-12.5975
▁tackl	-12.5978
za	-12.598
▁eu	-12.598
▁crashe	-12.5981
▁sprint	-12.5982
llen	-12.5987
▁Ki	-12.5991
▁pessimist	-12.5991
tting	-12.6004
▁Infinit	-12.6005
eague	-12.6031
▁SA	-12.6041
▁dogma	-12.6042
▁greener	-12.6043
▁dud	-12.6043
era	-12.6047
▁Ber	-12.6048
▁startup	-12.6052
▁modifie	-12.6068
▁thankful	-12.6073
▁welcom	-12.6074
▁ripple	-12.6074
▁Protect	-12.6077
▁dunes	-12.6079
ui	-12.6081
▁depressing	-12.6084
ltan	-12.6088
▁cel	-12.6088
▁Elv	-12.609
ify	-12.6091
▁auditori	-12.6093
▁algorithmic	-12.6094
▁rott	-12.6095
▁expo	-12.6101
▁focuse	-12.6102
▁symmetr	-12.6103
▁Cat	-12.6109
▁pollute	-12.611
▁Nazis	-12.6113
▁Pr	-12.6116
elling	-12.612
▁illustrat	-12.6129
▁taboo	-12.6131
▁beds	-12.6135
▁Kos	-12.6144
▁Lib	-12.6144
are	-12.615
▁advoca	-12.6156
▁Ni	-12.6156
▁fairy	-12.6161
cast	-12.6169
ode	-12.6173
city	-12.6175
atory	-12.6182
ron	-12.6191
wry	-12.6191
▁imitate	-12.6192
uba	-12.6196
cent	-12.6209
arm	-12.6216
▁void	-12.622
zman	-12.6221
▁conjure	-12.6227
ama	-12.6227
▁erase	-12.6227
▁rage	-12.6228
▁Jerem	-12.6237
▁Fish	-12.6237
▁lip	-12.6237
▁bombed	-12.6238
▁Robins	-12.624
▁Bett	-12.6243
▁Mira	-12.6244
alike	-12.6245
▁colonize	-12.6251
▁Seth	-12.6258
▁stockpile	-12.6259
pecial	-12.6262
▁prima	-12.6264
ima	-12.6272
▁scholars	-12.6273
otto	-12.6283
rma	-12.6287
▁presum	-12.6289
▁woo	-12.6303
▁competenc	-12.6308
▁corti	-12.6311
▁learner	-12.6314
hen	-12.6315
▁standardize	-12.6316
▁tenth	-12.6317
OS	-12.6317
▁conducti	-12.6323
▁Rama	-12.6331
▁ethnicit	-12.6333
dah	-12.6338
▁Band	-12.6339
nonymous	-12.6343
ascar	-12.6348
▁undermin	-12.6349
▁Eri	-12.635
▁tun	-12.6367
ci	-12.6368
▁biase	-12.6383
▁59	-12.6383
TO	-12.6393
▁ED	-12.6399
quo	-12.641
▁Patric	-12.6412
▁packing	-12.6417
▁Allen	-12.642
▁Medic	-12.6421
▁persuad	-12.6422
▁mash	-12.6423
amie	-12.6426
▁Build	-12.643
▁stunn	-12.643
▁prostitut	-12.6433
▁peel	-12.6436
ipped	-12.6437
▁Roa	-12.6438
▁believer	-12.644
▁charm	-12.6443
▁Cleve	-12.6443
▁Brain	-12.6453
▁doo	-12.6455
organiz	-12.6462
▁Constitu	-12.6474
▁Pen	-12.6477
▁brillian	-12.648
caust	-12.648
▁heck	-12.6482
▁Prison	-12.6489
ieu	-12.6492
ubtitle	-12.6492
▁atmospher	-12.6494
▁reproducti	-12.6495
▁hind	-12.6496
▁suicid	-12.6496
▁mar	-12.6501
▁desperat	-12.6501
clusion	-12.6502
▁disast	-12.6502
▁cogniti	-12.6502
▁prince	-12.6502
ranscript	-12.6509
thy	-12.6509
▁charg	-12.6509
18	-12.6509
▁Curi	-12.651
▁diminish	-12.6513
▁imperfect	-12.6514
CT	-12.6515
▁Develop	-12.6516
▁propell	-12.6516
▁versa	-12.6516
▁secretar	-12.6517
▁immigrat	-12.6517
▁unravel	-12.6517
Chryst	-12.6517
▁Challenge	-12.6517
▁Gabriel	-12.6517
▁Malaysia	-12.6517
▁Mushroom	-12.6517
▁capsule	-12.6517
▁crocodile	-12.6517
▁definitive	-12.6517
▁drastic	-12.6517
▁explosive	-12.6517
▁harass	-12.6517
▁immoral	-12.6517
▁intertwine	-12.6517
▁jealous	-12.6517
▁microprocessor	-12.6517
▁pajama	-12.6517
▁practitioner	-12.6517
▁precaution	-12.6517
▁prehistor	-12.6517
▁siege	-12.6517
▁strawberr	-12.6517
▁submersible	-12.6517
▁bonobo	-12.6517
▁cucumber	-12.6517
▁cyberattack	-12.6517
▁immunization	-12.6517
▁indefinite	-12.6517
▁Convention	-12.6517
parate	-12.6517
▁crease	-12.6517
▁psychotherap	-12.6517
▁smack	-12.6517
▁implicit	-12.6517
▁influenza	-12.6517
▁moisture	-12.6517
▁Harbor	-12.6517
▁cyborg	-12.6517
▁embryonic	-12.6517
▁detach	-12.6518
▁leash	-12.6518
▁bookstore	-12.6518
▁cowboy	-12.6518
▁fracture	-12.6518
▁fog	-12.6518
▁discrete	-12.6518
▁multimedia	-12.6518
▁wrist	-12.6518
▁defect	-12.6518
▁typewriter	-12.6518
▁LOL	-12.6518
▁admission	-12.6518
▁stunt	-12.6518
▁excessive	-12.6518
▁complication	-12.6518
▁imaginative	-12.6518
▁Hyde	-12.6518
▁coworker	-12.6518
▁NSA	-12.6518
▁Psychologist	-12.6518
▁precursor	-12.6518
▁lightbulb	-12.6518
▁nominate	-12.6518
▁Hotel	-12.6518
▁enact	-12.6518
▁ozone	-12.6518
▁bumblebee	-12.6518
▁gluten	-12.6518
▁rooftop	-12.6518
▁Wiki	-12.6518
▁guru	-12.6518
▁enlist	-12.6518
▁lava	-12.6518
▁Missou	-12.6518
▁Director	-12.6518
▁subset	-12.6518
▁Limb	-12.6518
▁costume	-12.6519
▁execution	-12.6519
▁fuck	-12.6519
▁soprano	-12.6519
▁curb	-12.6519
▁Sacr	-12.6519
▁batch	-12.6519
Monkey	-12.6519
▁dyslexi	-12.6519
▁Among	-12.6519
▁proliferation	-12.6519
▁advertisement	-12.6519
▁Judge	-12.6519
▁waterfront	-12.6519
▁Georgia	-12.6519
▁decreas	-12.652
▁hover	-12.652
▁abdomen	-12.652
▁claw	-12.652
▁Nicole	-12.652
▁poop	-12.652
▁bioluminescence	-12.652
▁clinician	-12.652
▁bombard	-12.6521
▁suburban	-12.6521
▁pupp	-12.6521
▁Pia	-12.6521
▁NO	-12.6521
▁counselor	-12.6521
▁Board	-12.6521
Lebanese	-12.6521
▁embarrassment	-12.6521
▁cramm	-12.6522
▁1940	-12.6522
▁merg	-12.6522
▁crest	-12.6522
▁microwave	-12.6522
▁formulation	-12.6523
▁recommendation	-12.6523
▁firms	-12.6523
▁Block	-12.6524
▁centi	-12.6524
▁classify	-12.6524
▁Knight	-12.6524
▁bloom	-12.6525
▁slamm	-12.6525
▁prosthes	-12.6525
▁segment	-12.6525
▁bald	-12.6525
▁beard	-12.6525
▁handsome	-12.6526
▁1982	-12.6526
▁castle	-12.6526
▁Rod	-12.6527
▁miscarri	-12.6527
venue	-12.6528
▁dataset	-12.6528
▁establishment	-12.6529
▁edition	-12.653
▁Farmer	-12.6531
▁cult	-12.6532
▁arrival	-12.6532
▁Tree	-12.6533
▁lexico	-12.6533
▁savor	-12.6533
▁prominen	-12.6534
▁Walter	-12.6534
▁Trini	-12.6535
▁diner	-12.6535
estial	-12.6535
▁Glad	-12.6537
▁stirring	-12.6537
▁propeller	-12.6538
▁tidy	-12.6539
▁asylum	-12.6542
vian	-12.6543
ori	-12.6544
▁Clark	-12.6544
▁butter	-12.6545
▁Bear	-12.6545
▁complian	-12.6547
▁Leave	-12.6549
▁Hamp	-12.6549
▁termite	-12.655
▁internationally	-12.6551
▁Robot	-12.6551
▁rupee	-12.6553
▁thrust	-12.6553
▁strangeness	-12.6554
▁101	-12.6555
▁examination	-12.6555
▁inappropriate	-12.6556
▁Whole	-12.6559
▁weave	-12.6559
▁prevalent	-12.6561
▁Sit	-12.6561
▁gum	-12.6561
▁Architectur	-12.6565
▁plow	-12.6566
▁swear	-12.6567
▁knit	-12.6567
▁Jaw	-12.6567
▁Ger	-12.6567
▁dropout	-12.6568
ickr	-12.657
productive	-12.657
teen	-12.6573
▁Harris	-12.6573
stella	-12.6576
vana	-12.6578
▁comprehensi	-12.6579
▁robber	-12.658
▁inference	-12.6586
▁restorati	-12.6587
trance	-12.6589
▁validate	-12.659
▁Lea	-12.6592
ssors	-12.6594
ius	-12.6596
tan	-12.66
ental	-12.6604
ata	-12.6606
▁visualiz	-12.6608
▁Bonn	-12.661
SF	-12.6611
▁Fat	-12.6612
▁flor	-12.6614
sek	-12.6614
▁ferment	-12.6614
▁gasp	-12.6614
▁efficac	-12.6615
▁intentionally	-12.6616
Ex	-12.6617
ps	-12.6628
asia	-12.6632
aker	-12.6633
▁intro	-12.6636
lick	-12.6638
▁Canal	-12.6651
▁uh	-12.6652
▁hike	-12.6654
cycle	-12.666
muddi	-12.667
pity	-12.6671
▁Woo	-12.6673
stop	-12.6676
▁compos	-12.6676
▁graft	-12.6678
▁Organ	-12.6678
▁cheek	-12.6678
▁euro	-12.6685
▁inquir	-12.6685
▁saint	-12.669
▁utiliz	-12.6692
▁Chen	-12.6697
▁pea	-12.6697
▁hustle	-12.67
▁Rebe	-12.6701
people	-12.6704
ska	-12.671
unders	-12.6716
▁assured	-12.6722
▁Tal	-12.6722
▁denie	-12.6722
sol	-12.6724
▁flush	-12.6725
▁accus	-12.6725
▁Kh	-12.6729
invasive	-12.6732
PO	-12.6736
▁utilize	-12.6738
ani	-12.674
thermal	-12.6742
Prince	-12.6742
animate	-12.6743
rv	-12.6743
▁Giv	-12.6744
click	-12.6747
square	-12.675
billion	-12.675
limited	-12.6751
belief	-12.6751
organism	-12.6753
awareness	-12.6755
phy	-12.6756
founder	-12.6758
letter	-12.6758
boat	-12.6758
iamond	-12.6759
▁cu	-12.6763
▁Tak	-12.6766
step	-12.6766
▁Bar	-12.6769
▁graves	-12.6782
▁nourish	-12.6791
▁Gu	-12.6792
agement	-12.6792
viv	-12.6793
data	-12.6796
▁Christophe	-12.6802
math	-12.681
▁hom	-12.6812
▁categorize	-12.6813
tenth	-12.6813
▁criticiz	-12.6826
▁unheal	-12.6831
▁Nin	-12.6832
▁divergen	-12.6836
▁concentrat	-12.6837
▁Mali	-12.6839
.6	-12.684
sale	-12.6844
▁Bas	-12.6855
▁Cloni	-12.6855
rail	-12.6865
aque	-12.6867
alaria	-12.6868
▁irritat	-12.687
▁replie	-12.687
▁Ste	-12.6873
▁qua	-12.6876
▁smuggl	-12.6876
▁mobilize	-12.6883
▁ze	-12.6894
▁fork	-12.6899
▁escap	-12.6901
▁Robin	-12.691
▁Jacobs	-12.6913
ken	-12.6916
▁cancel	-12.6922
marin	-12.6929
▁Shi	-12.6932
NT	-12.6933
▁Gri	-12.6936
gate	-12.6938
▁Ag	-12.6942
rat	-12.6944
▁starve	-12.6947
mination	-12.6955
▁wealthie	-12.6959
▁ap	-12.6962
raba	-12.6963
▁offend	-12.6965
▁Joy	-12.6967
▁compensate	-12.6967
▁adore	-12.6973
▁wrestl	-12.6977
▁Axi	-12.6978
▁screens	-12.6978
spective	-12.6981
heard	-12.6981
nside	-12.6985
bb	-12.6989
dale	-12.7002
provok	-12.7004
▁west	-12.7005
▁navigat	-12.7014
▁fingerprint	-12.702
nberg	-12.7021
offs	-12.7024
pped	-12.703
▁Fah	-12.703
pont	-12.7032
▁lesser	-12.7043
▁188	-12.7045
▁suite	-12.7051
▁dragon	-12.7055
▁Hus	-12.7065
▁spiritualit	-12.7065
▁accuse	-12.7071
▁artificially	-12.7079
▁rider	-12.7105
▁flowering	-12.7106
▁cooperat	-12.7107
▁temporari	-12.7109
▁fist	-12.7109
▁Comed	-12.7112
▁Sing	-12.7113
-3	-12.7118
▁Net	-12.7122
05	-12.7124
▁whistles	-12.7129
▁slid	-12.7131
dina	-12.714
▁Greg	-12.714
▁chok	-12.7141
▁Las	-12.7151
wall	-12.7155
▁launche	-12.7157
▁compensat	-12.7161
▁mist	-12.7168
bou	-12.7168
▁capaciti	-12.717
omorrow	-12.7178
SE	-12.7179
▁beg	-12.7181
▁191	-12.7191
mund	-12.7192
▁Ti	-12.7195
▁sampl	-12.7195
▁jams	-12.7199
ingdom	-12.7201
▁collide	-12.7203
rio	-12.7213
▁Tan	-12.7214
▁needles	-12.7214
▁Lind	-12.7228
▁Por	-12.7229
▁Perr	-12.723
▁rob	-12.7239
▁limbs	-12.7252
vis	-12.7255
aki	-12.7255
ub	-12.7263
vicini	-12.7267
spar	-12.7279
petition	-12.7282
▁unto	-12.7287
▁Nir	-12.7297
nim	-12.7299
▁lexicograph	-12.7308
scribe	-12.7317
mon	-12.732
▁reciproc	-12.7325
▁Fran	-12.7326
▁Plu	-12.7336
▁Made	-12.7337
▁measurabl	-12.7343
▁Dry	-12.7346
cum	-12.7348
▁brew	-12.737
▁Read	-12.7375
hoo	-12.7378
▁abusi	-12.7385
▁embodie	-12.7385
rill	-12.7389
▁bore	-12.7389
map	-12.739
▁incorrect	-12.7393
▁Lanka	-12.7395
elimina	-12.7395
▁Deb	-12.7397
▁soak	-12.7398
usk	-12.7399
▁Davi	-12.7399
nova	-12.7401
▁continual	-12.7401
▁trek	-12.7404
▁Leo	-12.7408
▁brows	-12.741
▁ripe	-12.7412
scape	-12.7412
▁ascend	-12.7414
esot	-12.7415
▁hung	-12.7418
▁fright	-12.7418
ogue	-12.742
▁crate	-12.7421
▁symbio	-12.7421
▁proxim	-12.7422
▁messag	-12.7423
▁frustrate	-12.7423
▁influen	-12.7423
▁deconstruct	-12.7423
▁situat	-12.7424
▁badge	-12.7426
▁Effect	-12.7426
▁advent	-12.7426
AC	-12.7426
▁catheter	-12.7427
▁Michoac	-12.7427
bimetal	-12.7427
▁Agricultur	-12.7427
▁Amazing	-12.7427
▁Embrac	-12.7427
▁Exxon	-12.7427
▁Federal	-12.7427
▁Hispanic	-12.7427
▁Magazine	-12.7427
▁Mozambi	-12.7427
▁Sinclair	-12.7427
▁adrenalin	-12.7427
▁aerodynamic	-12.7427
▁amygdala	-12.7427
▁carcass	-12.7427
▁caterpillar	-12.7427
▁excruciating	-12.7427
▁eyewitness	-12.7427
▁fatigue	-12.7427
▁fountain	-12.7427
▁ghetto	-12.7427
▁giraffe	-12.7427
▁jurisdiction	-12.7427
▁juxtaposition	-12.7427
▁latrine	-12.7427
▁manuscript	-12.7427
▁muffin	-12.7427
▁pianist	-12.7427
▁poignant	-12.7427
▁prophec	-12.7427
▁repositor	-12.7427
▁sausage	-12.7427
▁squirt	-12.7427
▁Commission	-12.7427
▁Senegal	-12.7427
▁cannibal	-12.7427
▁churn	-12.7427
▁frantic	-12.7427
▁gradient	-12.7427
▁hectare	-12.7427
▁plural	-12.7427
▁questionnaire	-12.7427
▁Simpson	-12.7427
▁ceramic	-12.7427
▁crayon	-12.7427
▁disparit	-12.7427
▁kettle	-12.7427
▁motorbike	-12.7427
▁utilitarian	-12.7427
▁whistleblower	-12.7427
▁chalk	-12.7427
▁ruling	-12.7427
▁instantaneous	-12.7427
▁Eames	-12.7427
▁Train	-12.7427
▁antidepressant	-12.7427
▁coherent	-12.7427
▁discharge	-12.7427
▁ecsta	-12.7427
▁messenger	-12.7427
NICE	-12.7427
▁Nikola	-12.7427
▁sequester	-12.7427
▁discount	-12.7427
▁patriarch	-12.7427
▁burial	-12.7427
▁proverb	-12.7427
▁embass	-12.7427
▁Belgi	-12.7427
▁LOLcat	-12.7427
▁buffalo	-12.7427
▁evolutionarily	-12.7427
▁Creative	-12.7427
▁reassuring	-12.7427
▁polish	-12.7427
▁Chair	-12.7427
▁marble	-12.7427
▁Parent	-12.7427
▁Living	-12.7427
▁benchmark	-12.7427
▁enroll	-12.7427
▁quantify	-12.7427
▁telecom	-12.7427
▁Nicola	-12.7427
▁Ferris	-12.7427
▁Hyper	-12.7427
uixot	-12.7427
▁seque	-12.7427
▁dissonance	-12.7427
▁frail	-12.7427
▁apathy	-12.7428
▁Vila	-12.7428
▁Morgan	-12.7428
▁Journalist	-12.7428
▁Marx	-12.7428
▁motive	-12.7428
▁Tiger	-12.7428
▁funnel	-12.7428
▁vocation	-12.7428
▁glamo	-12.7428
▁actress	-12.7428
▁editorial	-12.7428
▁CDC	-12.7429
▁Medit	-12.7429
▁prolong	-12.7429
▁predominant	-12.7429
▁Jarret	-12.7429
▁dreadful	-12.743
peror	-12.743
▁immersion	-12.743
▁Boom	-12.743
▁Smart	-12.7431
▁jamm	-12.7431
solate	-12.7431
▁lust	-12.7431
▁convers	-12.7431
▁Holo	-12.7431
▁Nino	-12.7432
▁spoofer	-12.7432
▁Ola	-12.7432
▁bandage	-12.7432
▁devour	-12.7432
▁soci	-12.7432
▁stance	-12.7433
▁cling	-12.7433
▁viewpoint	-12.7433
▁1920	-12.7433
ather	-12.7434
▁rhyme	-12.7434
shmi	-12.7434
▁Grey	-12.7435
▁Sixth	-12.7436
▁peck	-12.7436
▁hull	-12.7436
▁Kendal	-12.7436
▁panick	-12.7436
▁cens	-12.7437
▁impatien	-12.7437
▁encoder	-12.7437
▁pinch	-12.7437
▁volatile	-12.7438
▁preacher	-12.7438
consistenc	-12.7439
▁twenty	-12.7439
▁Electric	-12.7439
▁yawn	-12.7439
▁chatter	-12.7439
▁Prosper	-12.744
▁stark	-12.744
▁Oz	-12.744
▁novelist	-12.7441
▁landmark	-12.7442
▁thorn	-12.7442
▁dull	-12.7442
▁withdraw	-12.7442
▁recyclable	-12.7442
▁donkey	-12.7442
▁sorrow	-12.7444
▁hospi	-12.7444
sippi	-12.7446
▁segregat	-12.7447
▁Name	-12.7447
fell	-12.7447
▁pee	-12.7448
▁Dear	-12.7451
▁diver	-12.7451
▁intestine	-12.7452
▁breathtaking	-12.7453
RN	-12.7454
▁coward	-12.7455
tah	-12.7457
▁chopp	-12.7458
▁rod	-12.7458
▁synthesizer	-12.7459
fe	-12.7459
▁Golden	-12.746
▁Citi	-12.7464
▁reframe	-12.7464
ER	-12.7465
▁premi	-12.7465
▁Enlighten	-12.7466
▁affirm	-12.7466
▁briquette	-12.7466
▁fifty	-12.7466
▁immunize	-12.7466
▁Slow	-12.7466
▁Newcast	-12.7468
▁propulsi	-12.7473
▁Hama	-12.7474
▁glaze	-12.7474
▁Pray	-12.7475
▁Found	-12.7476
▁1.6	-12.748
▁0.1	-12.748
▁butcher	-12.7481
▁instill	-12.7482
▁summ	-12.7483
▁63	-12.7484
▁technolog	-12.7485
▁3-	-12.7487
Cash	-12.7488
utheast	-12.7489
▁noun	-12.7489
idi	-12.749
▁Hud	-12.7491
▁devoted	-12.7491
UV	-12.7493
▁Wind	-12.7493
▁plantation	-12.7494
▁Vel	-12.7495
▁flags	-12.7495
▁Lynn	-12.7495
▁massage	-12.7496
▁wandering	-12.7496
flyer	-12.7498
▁jets	-12.7501
▁fundamentalist	-12.7502
▁ba	-12.7504
▁daylight	-12.7504
▁Android	-12.7509
▁teammate	-12.751
▁Adria	-12.7516
▁chill	-12.7516
▁shooter	-12.7517
▁Paula	-12.7518
▁clap	-12.7519
gatherer	-12.7519
0-	-12.752
▁reliev	-12.7521
tel	-12.7521
▁Trac	-12.7523
▁femini	-12.7523
▁Bond	-12.7528
▁biodegrad	-12.753
▁Chim	-12.7531
▁disclosure	-12.7533
▁megawatt	-12.7533
▁gauge	-12.7533
▁qualify	-12.7533
▁Plant	-12.7534
▁cushion	-12.7534
▁copulat	-12.7535
▁grandma	-12.7536
▁formulate	-12.7536
▁Goal	-12.7537
▁assistan	-12.7538
▁Moral	-12.7539
▁aggressi	-12.7543
▁divert	-12.7545
▁200-	-12.7546
▁Easter	-12.7546
▁toleran	-12.7547
▁Pin	-12.7548
▁league	-12.7548
▁randomize	-12.7553
istine	-12.7553
iel	-12.7556
▁sleeve	-12.7556
▁grue	-12.7559
▁Hua	-12.7561
▁bidd	-12.7561
▁col	-12.7564
iki	-12.7566
ssini	-12.7568
tted	-12.7574
▁Preg	-12.7574
▁rub	-12.7582
▁Jung	-12.7586
▁pearl	-12.7592
fits	-12.7594
PL	-12.7596
▁aqua	-12.7597
▁tortur	-12.7603
tigation	-12.7603
▁ambi	-12.7603
▁Bam	-12.7608
raging	-12.7612
▁Bren	-12.7615
void	-12.7624
▁Soon	-12.7625
ear	-12.7626
▁lag	-12.7628
eautiful	-12.7629
aku	-12.7637
▁Lan	-12.7641
▁disappearing	-12.7644
udge	-12.7645
▁sovereignt	-12.7646
itz	-12.7649
84	-12.7651
eau	-12.7654
▁voyage	-12.7661
rock	-12.7661
skies	-12.7662
amara	-12.7669
▁cou	-12.7672
bout	-12.7674
racy	-12.7676
▁internalize	-12.7678
cela	-12.7679
blow	-12.7681
ounce	-12.7682
▁permit	-12.7685
▁56	-12.7687
▁displac	-12.7687
▁miner	-12.7689
▁Survey	-12.7689
centr	-12.7693
▁corresponding	-12.7693
▁cab	-12.7699
▁Vivi	-12.7701
touch	-12.7701
try	-12.7704
connected	-12.7707
thic	-12.772
▁serv	-12.7724
▁temperat	-12.7725
▁scent	-12.7727
put	-12.7731
▁Maker	-12.7732
HO	-12.7733
centimeter	-12.7739
flow	-12.7739
convenient	-12.774
Fi	-12.7741
▁scribble	-12.7742
▁emergen	-12.7743
burg	-12.7744
reactor	-12.7744
Lee	-12.7745
normal	-12.7748
threaten	-12.7749
worm	-12.7749
teacher	-12.7749
aux	-12.7752
speaking	-12.7754
▁infer	-12.7755
grid	-12.7757
▁Templ	-12.7757
▁scrambl	-12.7759
process	-12.7761
pilot	-12.7762
imply	-12.7763
▁Idea	-12.7765
player	-12.7766
then	-12.777
▁Bro	-12.7771
peer	-12.7773
link	-12.7776
vi	-12.778
assemble	-12.7784
tha	-12.7793
▁Land	-12.7794
▁Mag	-12.7794
TV	-12.7797
lever	-12.7798
▁uninten	-12.7806
▁attache	-12.7806
▁bro	-12.7816
▁NA	-12.782
ging	-12.7822
jo	-12.7827
▁sandwiche	-12.7829
living	-12.783
▁stab	-12.7837
▁fiddle	-12.784
▁Pac	-12.7842
▁sticker	-12.7845
▁Jose	-12.7845
rit	-12.7851
▁prescribe	-12.7853
realistic	-12.7856
▁Vo	-12.7859
▁interdependenc	-12.7866
▁ingest	-12.787
▁Gut	-12.7871
has	-12.7877
▁grower	-12.7881
rump	-12.7884
izz	-12.7887
▁notation	-12.7891
▁abnormal	-12.7891
ime	-12.7897
▁vest	-12.7903
▁Vent	-12.7903
nium	-12.7914
skill	-12.7915
▁dodge	-12.7915
29	-12.7916
junction	-12.792
▁sucked	-12.7922
terior	-12.7932
▁Kath	-12.7935
hat	-12.7942
▁intimidat	-12.7943
▁modifi	-12.7944
▁Mik	-12.7944
▁Luth	-12.7945
▁100-	-12.7947
▁thro	-12.7948
ack	-12.7961
▁bac	-12.7962
▁Kur	-12.7971
rque	-12.7988
▁6.	-12.7996
liv	-12.8009
ara	-12.8013
imi	-12.8018
imulator	-12.8021
nny	-12.8022
spot	-12.8022
▁Math	-12.8033
uestion	-12.8035
▁cas	-12.8037
▁62	-12.8037
eck	-12.8039
▁skyscraper	-12.804
▁mobiliz	-12.804
▁rela	-12.8043
▁liabilit	-12.8045
six	-12.8046
▁wond	-12.8048
IT	-12.8053
▁Conne	-12.8055
▁skinn	-12.8058
▁emission	-12.806
▁missionar	-12.8061
elig	-12.8062
acco	-12.8065
▁willful	-12.8066
owa	-12.8066
▁antibiotic	-12.8069
▁civiliz	-12.8071
▁Oliv	-12.8072
▁JE	-12.8081
▁pal	-12.8088
▁Ly	-12.8093
unset	-12.8099
▁loo	-12.8102
▁outlet	-12.8106
▁Chi	-12.8109
▁Goldi	-12.8129
bu	-12.8132
▁Tar	-12.8139
▁spi	-12.8143
▁rag	-12.8145
▁bid	-12.8145
▁predicti	-12.8148
working	-12.8148
enhanc	-12.8151
▁fu	-12.8159
wler	-12.8162
▁simulat	-12.8162
mat	-12.8168
▁poo	-12.8175
SA	-12.8177
plex	-12.8179
ometric	-12.8181
▁crie	-12.8181
▁Em	-12.8182
if	-12.8182
▁retrofit	-12.8185
comfort	-12.819
mba	-12.8192
ano	-12.8193
lure	-12.8193
achi	-12.8195
▁royal	-12.8197
▁tin	-12.8211
▁fad	-12.8212
matic	-12.8214
▁pric	-12.8215
▁comprise	-12.8217
▁Cro	-12.8223
▁Flo	-12.8225
oo	-12.8233
▁coordinati	-12.8237
▁Hu	-12.824
verly	-12.8246
▁exercis	-12.8251
▁dictators	-12.8256
▁4.	-12.8258
▁parasit	-12.8267
ome	-12.8272
▁Mid	-12.8272
▁empath	-12.8274
▁80-	-12.8276
▁energ	-12.8277
▁titan	-12.8289
uten	-12.8291
nie	-12.8294
▁Creat	-12.8297
▁Mada	-12.8298
fidel	-12.8309
▁bearing	-12.8313
idle	-12.8317
▁Marine	-12.8318
unny	-12.8328
var	-12.833
▁hood	-12.8331
▁secre	-12.8332
chan	-12.8334
▁accord	-12.8337
▁duplicate	-12.8337
▁interconnect	-12.8337
▁skirt	-12.8338
▁disgust	-12.8338
▁Kare	-12.8341
gence	-12.8347
▁Northwest	-12.8347
intend	-12.8348
orous	-12.8349
locks	-12.836
▁dip	-12.8362
▁piss	-12.8364
▁Cars	-12.8364
▁needless	-12.8367
mp	-12.8369
▁prostitute	-12.8371
▁prevalen	-12.8375
▁linguist	-12.8375
▁devote	-12.8379
▁killings	-12.838
▁spam	-12.8384
him	-12.8386
▁Bin	-12.8387
▁endure	-12.8388
▁pat	-12.8391
▁scrutin	-12.8391
oling	-12.8392
www	-12.8393
idden	-12.8396
▁Planet	-12.8396
▁skydiv	-12.8399
▁snapp	-12.8399
▁tack	-12.8403
▁dam	-12.8405
▁democratize	-12.8409
AM	-12.8411
▁liv	-12.8412
▁crosse	-12.8417
▁feat	-12.8418
▁66	-12.8419
▁Malawi	-12.8425
▁registr	-12.8425
seek	-12.8425
rocco	-12.8425
▁Ok	-12.8426
▁misunderst	-12.8426
urricane	-12.8426
bilitat	-12.8426
neurotransmitter	-12.8427
▁Ancient	-12.8427
▁Balkan	-12.8427
▁Buffet	-12.8427
▁Dictionar	-12.8427
▁Marriage	-12.8427
▁Viagra	-12.8427
▁administer	-12.8427
▁applaud	-12.8427
▁biochemical	-12.8427
▁circumcis	-12.8427
▁constituenc	-12.8427
▁contempt	-12.8427
▁contraceptive	-12.8427
▁delicac	-12.8427
▁expenditure	-12.8427
▁extremism	-12.8427
▁inadvertent	-12.8427
▁mafia	-12.8427
▁meteorite	-12.8427
▁multiplie	-12.8427
▁neutrino	-12.8427
▁picnic	-12.8427
▁restraint	-12.8427
▁sapien	-12.8427
▁snippet	-12.8427
▁spawn	-12.8427
▁superficial	-12.8427
▁surpass	-12.8427
▁swirl	-12.8427
▁synagogue	-12.8427
▁toothpaste	-12.8427
▁Dragon	-12.8427
▁aphid	-12.8427
▁hippie	-12.8427
▁interpersonal	-12.8427
▁multiplic	-12.8427
▁Beatle	-12.8427
▁Sophi	-12.8427
▁adversit	-12.8427
▁complement	-12.8427
▁fratern	-12.8427
▁omni	-12.8427
▁pellet	-12.8427
▁Major	-12.8427
▁cassette	-12.8427
▁Blackberr	-12.8427
▁amplify	-12.8427
▁bleep	-12.8427
▁Perfect	-12.8427
▁shield	-12.8427
▁toddler	-12.8427
▁whims	-12.8427
▁combusti	-12.8427
▁monarch	-12.8427
▁snack	-12.8427
vantage	-12.8427
▁Committe	-12.8427
▁cohesi	-12.8427
▁seductive	-12.8427
▁Knee	-12.8427
▁Saint	-12.8427
▁absent	-12.8427
▁Plastic	-12.8427
▁sunflower	-12.8427
nnica	-12.8427
▁pluripoten	-12.8427
▁nanometer	-12.8427
▁niece	-12.8427
▁roast	-12.8427
▁thirty	-12.8427
▁Network	-12.8427
▁garment	-12.8427
▁interval	-12.8427
▁subscribe	-12.8427
▁Drug	-12.8427
▁playwright	-12.8427
▁motel	-12.8427
▁Left	-12.8427
▁summit	-12.8427
▁cosmetic	-12.8427
▁scripture	-12.8427
▁offense	-12.8427
▁comparative	-12.8427
▁foreground	-12.8427
▁Babylonian	-12.8427
▁mistrust	-12.8427
▁detriment	-12.8427
agme	-12.8427
▁deput	-12.8427
▁Romantic	-12.8427
▁contingen	-12.8427
▁rumor	-12.8427
▁Galax	-12.8427
▁Standard	-12.8427
▁exert	-12.8428
vada	-12.8428
▁nugget	-12.8428
▁psychic	-12.8428
▁safeguard	-12.8428
▁appointment	-12.8428
▁geologist	-12.8428
▁Biologist	-12.8428
▁brigade	-12.8428
▁cobble	-12.8428
▁undoubt	-12.8428
▁carriage	-12.8428
▁Mommy	-12.8428
▁squirrel	-12.8428
▁humiliation	-12.8428
▁spreadsheet	-12.8428
elope	-12.8428
▁notorious	-12.8428
▁Denisovan	-12.8428
▁fringe	-12.8428
quake	-12.8429
▁redundan	-12.8429
iscons	-12.8429
▁unchange	-12.8429
▁imitation	-12.8429
▁reorganize	-12.8429
▁shutter	-12.8429
▁luna	-12.8429
▁Feel	-12.8429
▁demobiliz	-12.8429
▁Robotic	-12.843
artu	-12.843
disproportionate	-12.843
▁patern	-12.843
▁armpit	-12.843
▁utterance	-12.843
▁Gross	-12.843
▁schizophrenic	-12.843
▁squish	-12.843
▁Ow	-12.843
▁slang	-12.8431
▁dread	-12.8431
uza	-12.8431
▁decoration	-12.8431
▁Casa	-12.8431
▁prox	-12.8431
▁Bowl	-12.8432
▁gamble	-12.8432
▁ballet	-12.8432
▁symbiotic	-12.8432
▁grandson	-12.8433
▁Bagh	-12.8433
▁abor	-12.8433
▁ministr	-12.8433
▁PhD	-12.8433
▁Sixty	-12.8433
▁Alright	-12.8433
▁chore	-12.8433
▁buffer	-12.8435
▁nanotechnolog	-12.8435
▁bugg	-12.8435
▁investigator	-12.8435
▁swamp	-12.8435
ISA	-12.8435
▁excellence	-12.8436
▁Lago	-12.8436
▁kits	-12.8436
▁generalization	-12.8436
▁limitless	-12.8437
▁disappointment	-12.8437
▁pornograph	-12.8437
▁accelerometer	-12.8437
▁Electro	-12.8437
▁specialization	-12.8437
▁Month	-12.8439
▁breadwinner	-12.8439
▁chant	-12.844
▁caution	-12.844
afi	-12.844
▁photojournalist	-12.8441
▁outlier	-12.8442
▁Barbi	-12.8443
▁bunker	-12.8443
▁Fight	-12.8446
▁adviser	-12.8447
▁lous	-12.8448
▁ponder	-12.8449
▁beaver	-12.8449
Murdo	-12.845
▁Page	-12.8452
▁sack	-12.8452
▁interpla	-12.8452
▁plumb	-12.8454
▁encouragement	-12.8454
▁bioma	-12.8458
▁debut	-12.8459
▁geopolitic	-12.8461
▁alleviat	-12.8461
16	-12.8461
▁confess	-12.8464
▁Carro	-12.8466
▁Vie	-12.8466
▁Snowde	-12.8466
▁vial	-12.8468
▁dilute	-12.8469
▁shaft	-12.847
▁cascade	-12.847
▁Aboriginal	-12.847
▁plaza	-12.847
▁bloop	-12.8471
▁demolish	-12.8472
▁Rap	-12.8472
▁Market	-12.8474
▁Speci	-12.8474
▁Bandu	-12.8474
▁deadline	-12.8475
▁Tunisian	-12.8476
▁Gho	-12.8477
▁fuss	-12.8478
▁classmate	-12.8479
DR	-12.848
▁Burk	-12.8481
▁fixat	-12.8482
kar	-12.8483
▁hence	-12.8488
▁Explor	-12.849
ines	-12.8492
▁hatch	-12.8496
▁plugged	-12.8497
▁barbed	-12.8498
▁rally	-12.8498
▁weaken	-12.85
▁momentous	-12.8502
▁bureaucra	-12.8502
▁PET	-12.8503
▁1000	-12.8503
▁Sue	-12.8505
▁HC	-12.8508
hocke	-12.8509
▁eras	-12.8512
▁Veg	-12.8513
▁affection	-12.8513
▁classifi	-12.8513
▁Irish	-12.8515
EL	-12.8528
▁insecurit	-12.8528
▁Shin	-12.8531
▁Hy	-12.8532
▁Rocke	-12.8533
ilence	-12.8536
▁exchang	-12.8538
HD	-12.8545
▁underdog	-12.8546
▁diplomatic	-12.8546
▁Contra	-12.8547
▁Ready	-12.8548
uhan	-12.8551
▁Patt	-12.8557
▁aquari	-12.8557
Tun	-12.8559
▁Researcher	-12.856
▁Happi	-12.8562
▁objection	-12.8562
▁correctness	-12.8563
▁fellows	-12.857
▁automate	-12.8573
▁curled	-12.8574
▁lunches	-12.8579
▁hangers	-12.8583
▁chin	-12.8585
▁Sim	-12.8585
▁Fro	-12.8587
▁litter	-12.8587
▁Rica	-12.8593
▁breeder	-12.8596
sum	-12.8598
atitude	-12.8599
▁wip	-12.86
nough	-12.8603
▁weep	-12.8607
writing	-12.8607
▁bandw	-12.8609
lap	-12.8611
▁fertilize	-12.8619
▁enthrall	-12.8623
▁granddaughter	-12.8623
▁Guard	-12.8627
▁replication	-12.8627
▁drumm	-12.8627
dropping	-12.8628
▁insurgenc	-12.863
▁quotation	-12.863
enos	-12.8631
too	-12.8631
▁preconce	-12.8634
▁cone	-12.8636
▁tang	-12.8637
▁decorat	-12.8642
▁clicks	-12.8643
hu	-12.8646
▁avenue	-12.8649
iller	-12.8651
ilia	-12.8657
▁witnesse	-12.8659
▁smiley	-12.866
▁linger	-12.8661
nine	-12.8665
▁gripp	-12.867
▁curse	-12.8671
▁DH	-12.8672
zy	-12.8682
▁preventi	-12.8685
shed	-12.8685
tcom	-12.8688
▁wove	-12.8689
▁Bad	-12.8689
▁reconfigur	-12.8691
hole	-12.8694
▁Rum	-12.8695
▁barbaria	-12.87
▁Manc	-12.8701
ushi	-12.8703
▁Pur	-12.8703
▁groom	-12.8706
▁Incredible	-12.8709
▁Hany	-12.8715
▁Sina	-12.8717
▁seller	-12.8718
▁Jen	-12.8719
▁advise	-12.872
wal	-12.8722
tree	-12.8722
▁inward	-12.8725
los	-12.8725
lots	-12.8725
ates	-12.8728
building	-12.8735
irstream	-12.8738
▁academ	-12.8751
Gregor	-12.8753
defy	-12.8753
dium	-12.8758
angle	-12.8759
▁Ye	-12.8759
▁drip	-12.876
▁wicke	-12.8761
ncy	-12.8762
netary	-12.8763
▁privatiz	-12.877
inter	-12.8775
▁rebuil	-12.8777
wrestl	-12.8782
▁tenaci	-12.8786
woman	-12.8788
far	-12.879
beta	-12.8793
▁pur	-12.8794
▁Sony	-12.8802
▁fram	-12.8805
ragg	-12.8805
change	-12.8806
partisan	-12.881
▁acro	-12.881
▁rebellio	-12.8817
▁tease	-12.8818
▁leaning	-12.882
▁Beck	-12.8821
ransparency	-12.8825
▁ferr	-12.8825
consum	-12.883
▁ox	-12.883
offend	-12.8832
▁imitat	-12.8833
▁contaminate	-12.8835
▁outlets	-12.8837
▁88	-12.8838
▁seasonal	-12.884
plankton	-12.8843
pop	-12.8843
antha	-12.8844
first	-12.8845
SM	-12.8849
▁Cod	-12.8849
through	-12.885
layer	-12.8852
talk	-12.8853
important	-12.8853
deaf	-12.8854
mal	-12.8856
ethical	-12.8858
yard	-12.8858
04	-12.8859
consumption	-12.8861
population	-12.8861
Muslim	-12.8861
▁withstand	-12.8862
distance	-12.8862
dynamic	-12.8862
peace	-12.8862
organization	-12.8863
knowledge	-12.8866
fuel	-12.8866
reason	-12.8868
killer	-12.8868
guard	-12.8872
infect	-12.8872
shalt	-12.8877
tric	-12.889
▁reset	-12.8893
▁Kant	-12.8894
▁1,1	-12.8896
edited	-12.8898
iable	-12.8899
▁mitigate	-12.8901
▁Fi	-12.8901
-1	-12.8902
CR	-12.8902
▁jo	-12.8902
dough	-12.8906
ived	-12.8906
ria	-12.8916
▁deepen	-12.8923
▁wool	-12.8928
▁retir	-12.8941
amed	-12.8944
▁Kenn	-12.8946
▁Wit	-12.8949
▁hacked	-12.895
post	-12.8952
▁Beth	-12.8962
ggy	-12.8969
▁rot	-12.8969
etho	-12.8974
hold	-12.8984
▁Jeann	-12.899
▁13-	-12.8994
▁aut	-12.8996
xion	-12.9003
▁dub	-12.9004
logically	-12.901
▁interrogat	-12.9012
▁AD	-12.9019
erran	-12.9021
itch	-12.9024
cott	-12.9026
▁dissolv	-12.9038
▁torn	-12.9039
loid	-12.9043
od	-12.9055
ugu	-12.9057
SS	-12.9058
▁pragmati	-12.9058
▁chap	-12.9067
omin	-12.907
gur	-12.9074
▁v	-12.9075
▁repli	-12.9078
▁reviv	-12.9086
▁Tor	-12.9089
▁fisher	-12.9094
nman	-12.9103
▁fr	-12.9104
▁lense	-12.9106
get	-12.9107
▁alternate	-12.9111
▁Les	-12.9117
fat	-12.9122
▁cran	-12.9124
▁symmetric	-12.9128
▁Sufi	-12.9131
▁SM	-12.9132
gus	-12.914
die	-12.9141
▁Dys	-12.9151
▁Clo	-12.9155
ker	-12.9158
▁fli	-12.916
duk	-12.9166
ipur	-12.9168
▁animat	-12.918
▁para	-12.9187
▁Success	-12.9199
▁stumble	-12.9202
▁bomber	-12.9209
▁preferabl	-12.921
15	-12.9212
▁updat	-12.9225
▁Friends	-12.9228
▁prioriti	-12.9231
▁Bert	-12.9237
hell	-12.925
▁preced	-12.9251
▁Sadd	-12.9253
qui	-12.9259
ecto	-12.9263
pr	-12.9275
▁Rail	-12.9283
umn	-12.9291
▁Hear	-12.9291
▁Ch	-12.9296
▁Key	-12.93
py	-12.9305
ites	-12.9308
mark	-12.9313
▁bubbl	-12.9318
uardian	-12.9318
▁trac	-12.9319
action	-12.9323
etal	-12.9324
eh	-12.9324
ze	-12.9327
▁Mor	-12.9329
▁Pun	-12.9332
dage	-12.9333
ude	-12.9335
▁Tuc	-12.9338
▁Sty	-12.9339
arina	-12.934
19	-12.935
▁pleas	-12.935
▁illuminati	-12.9351
SP	-12.9355
▁bod	-12.9356
▁Sky	-12.9361
▁misse	-12.9363
▁battl	-12.9369
mus	-12.9374
▁Sting	-12.9376
nze	-12.939
▁Sug	-12.9393
▁Gor	-12.9393
▁dealer	-12.9395
MCA	-12.9396
▁ridge	-12.9398
▁attendan	-12.9404
pecific	-12.941
▁tinker	-12.9411
▁coache	-12.9415
▁Hai	-12.9416
Hub	-12.9416
▁boo	-12.943
▁Sur	-12.943
▁cadaver	-12.9431
rash	-12.9433
▁vulnerabilit	-12.9433
▁Walt	-12.9437
span	-12.9438
▁dent	-12.9441
range	-12.9443
▁Chang	-12.9445
fin	-12.9447
▁astonish	-12.9448
▁inflat	-12.9451
▁ub	-12.9454
▁sculptur	-12.9455
ndi	-12.9457
▁robb	-12.9457
▁credi	-12.9462
▁biblical	-12.9467
▁etern	-12.9468
▁25-	-12.947
▁Tea	-12.9474
▁crowds	-12.9475
ulate	-12.9476
rap	-12.948
pos	-12.9481
▁sculpt	-12.9484
▁elegan	-12.9487
▁delu	-12.9488
elation	-12.9488
deli	-12.9489
▁gelatin	-12.9492
▁Vill	-12.9492
▁vapor	-12.9495
▁hype	-12.9498
eign	-12.9505
▁Iron	-12.9506
▁oppressi	-12.9509
AL	-12.9511
ymphon	-12.9514
▁dadd	-12.952
▁fragil	-12.9522
loa	-12.9523
▁Independen	-12.9523
▁volcan	-12.9529
▁intersect	-12.9533
▁tur	-12.9534
▁trivia	-12.9534
rchestra	-12.9535
▁Isa	-12.9536
ijuana	-12.9536
rilliant	-12.9536
ccasional	-12.9537
▁depart	-12.9537
▁Victor	-12.9537
sophist	-12.9537
ninsula	-12.9538
▁Yugoslav	-12.9538
munition	-12.9538
▁Answer	-12.9538
▁Behavior	-12.9538
▁Bitcoin	-12.9538
▁District	-12.9538
▁Glacier	-12.9538
▁Hoffman	-12.9538
▁Instagram	-12.9538
▁MOOC	-12.9538
▁Neuroscientist	-12.9538
▁Pioneer	-12.9538
▁Randolph	-12.9538
▁TNC	-12.9538
▁Tinker	-12.9538
▁agnostic	-12.9538
▁annihilat	-12.9538
▁bankrupt	-12.9538
▁blossom	-12.9538
▁caffein	-12.9538
▁camouflage	-12.9538
▁comrade	-12.9538
▁dessert	-12.9538
▁disguise	-12.9538
▁dismantle	-12.9538
▁evoke	-12.9538
▁judicia	-12.9538
▁legitimize	-12.9538
▁lobbie	-12.9538
▁mismatch	-12.9538
▁nostalgi	-12.9538
▁portfolio	-12.9538
▁relentless	-12.9538
▁remorse	-12.9538
▁repetitive	-12.9538
▁skyrocket	-12.9538
▁succumb	-12.9538
▁synesthe	-12.9538
▁tentacle	-12.9538
▁terawatt	-12.9538
▁tremor	-12.9538
▁ulcer	-12.9538
▁umbrella	-12.9538
▁vigorous	-12.9538
▁Elliot	-12.9538
▁Impossib	-12.9538
▁Model	-12.9538
▁Sisyph	-12.9538
▁Torosaurus	-12.9538
▁biochemistr	-12.9538
▁coconut	-12.9538
▁eleven	-12.9538
▁granular	-12.9538
▁lollipop	-12.9538
▁remake	-12.9538
▁Moderat	-12.9538
▁boast	-12.9538
▁fractal	-12.9538
▁kangaroo	-12.9538
▁utopia	-12.9538
▁Schwartz	-12.9538
▁Skid	-12.9538
▁lattice	-12.9538
▁aristocra	-12.9538
▁tornado	-12.9538
▁Clean	-12.9538
▁frown	-12.9538
▁unacceptabl	-12.9538
▁consolidat	-12.9538
▁fission	-12.9538
▁mitochondria	-12.9538
▁Bureau	-12.9538
▁orchid	-12.9538
▁phant	-12.9538
▁bilingual	-12.9538
▁clutch	-12.9538
▁cunning	-12.9538
▁wavelength	-12.9538
▁plausib	-12.9538
▁surreal	-12.9538
▁harp	-12.9538
▁wingsuit	-12.9538
▁biofuel	-12.9538
▁Legend	-12.9538
▁revisit	-12.9538
▁bliss	-12.9538
▁lord	-12.9538
▁diaper	-12.9538
▁Crime	-12.9538
▁puppeteer	-12.9538
▁rug	-12.9538
▁neurologist	-12.9538
frost	-12.9538
▁cervi	-12.9538
▁Excellen	-12.9538
▁virulen	-12.9538
tigr	-12.9538
argass	-12.9538
▁maim	-12.9538
▁bleach	-12.9538
▁occurrence	-12.9538
▁rehearsal	-12.9538
▁coauthor	-12.9538
orthodox	-12.9538
▁Isabel	-12.9538
▁jelly	-12.9538
▁cough	-12.9538
▁thirst	-12.9538
▁campfire	-12.9538
cursor	-12.9539
▁McL	-12.9539
▁deathbed	-12.9539
▁stereotypical	-12.9539
▁Glenn	-12.9539
▁Wealth	-12.9539
▁Costa	-12.9539
▁Correction	-12.9539
▁inoculat	-12.9539
▁Grandma	-12.9539
▁filing	-12.9539
▁noninvasive	-12.9539
▁persistence	-12.9539
▁Ridge	-12.9539
▁Frederic	-12.9539
▁revolt	-12.9539
▁OMG	-12.9539
▁incorporat	-12.9539
▁Titan	-12.9539
▁prosecutor	-12.9539
▁Utopia	-12.9539
▁Tijuana	-12.9539
▁Bernard	-12.9539
▁reign	-12.9539
▁roam	-12.954
▁adverse	-12.954
▁milestone	-12.954
eanor	-12.954
▁tomb	-12.954
libi	-12.954
▁font	-12.954
▁coffeehouse	-12.954
▁Titanic	-12.954
▁neurosurgeon	-12.954
▁Horse	-12.954
▁untouch	-12.954
▁uterus	-12.954
▁prestig	-12.9541
▁soundtrack	-12.9541
▁parabola	-12.9541
▁Astro	-12.9541
▁unnatural	-12.9541
▁ballistic	-12.9541
▁equate	-12.9541
▁brute	-12.9541
▁Hawaiian	-12.9541
▁Silver	-12.9541
▁doorstep	-12.9542
▁kitten	-12.9542
▁Barry	-12.9542
▁angst	-12.9542
▁pub	-12.9542
▁Bridge	-12.9542
▁paraphras	-12.9542
▁lobbyist	-12.9543
▁uplift	-12.9543
▁rude	-12.9543
▁Summer	-12.9543
▁reassemble	-12.9543
▁salut	-12.9543
▁rodeo	-12.9544
▁troublemaker	-12.9544
▁payback	-12.9544
▁rebound	-12.9544
▁puff	-12.9544
ky	-12.9545
▁Image	-12.9545
▁Seventh	-12.9545
▁almond	-12.9545
▁husk	-12.9546
▁Ground	-12.9546
▁Gaga	-12.9547
▁parade	-12.9548
upta	-12.9548
▁Nak	-12.9548
▁Curiosit	-12.9549
▁Hacker	-12.9549
▁fitted	-12.9549
onig	-12.955
▁abolish	-12.955
▁banal	-12.955
▁transcript	-12.955
▁Matth	-12.955
▁Singer	-12.9551
▁riddle	-12.9552
bama	-12.9552
lvet	-12.9553
▁telegraph	-12.9553
weil	-12.9553
▁poise	-12.9553
▁interruption	-12.9554
▁thickness	-12.9554
▁Pres	-12.9554
▁sailor	-12.9554
▁rotation	-12.9554
▁hurd	-12.9555
▁Chao	-12.9555
▁thigh	-12.9555
▁eater	-12.9555
▁Reader	-12.9556
▁turm	-12.9556
▁contributor	-12.9558
▁firefighter	-12.956
▁staple	-12.9562
▁perish	-12.9562
polis	-12.9563
▁doorway	-12.9564
▁archetype	-12.9565
▁fallac	-12.9565
bright	-12.9565
▁embed	-12.9571
▁overfish	-12.9572
▁stub	-12.9573
▁newborn	-12.9574
▁forager	-12.9575
▁Lock	-12.9576
▁crapp	-12.9577
▁reel	-12.9577
▁paradoxical	-12.9577
▁modalit	-12.9579
▁undo	-12.9579
▁clearance	-12.958
FC	-12.9581
ury	-12.9582
49	-12.9582
monia	-12.9583
koko	-12.9583
▁Jur	-12.9583
▁alleged	-12.9585
▁Sach	-12.9585
▁nephew	-12.9586
▁critique	-12.9586
▁seizure	-12.9586
▁Mino	-12.9587
▁Shack	-12.9587
▁Protest	-12.9587
▁tub	-12.9588
▁UC	-12.9589
▁Feminist	-12.9591
▁numerical	-12.9593
▁tacti	-12.9594
▁pi	-12.9596
▁Leg	-12.9597
▁outlaw	-12.9598
▁Khad	-12.9598
▁truce	-12.9599
▁transplantation	-12.96
▁restless	-12.96
▁Brent	-12.9603
▁dweller	-12.9603
▁torch	-12.9606
▁tether	-12.9606
▁Bac	-12.9606
▁fable	-12.9607
▁exceeding	-12.9608
▁swelling	-12.9608
▁rusty	-12.9609
▁urin	-12.9611
▁whipp	-12.9611
▁sparkl	-12.9611
▁Eco	-12.9613
▁Parad	-12.9613
▁hedge	-12.9614
▁retailer	-12.9614
▁sneaker	-12.9614
ichu	-12.9616
▁Twin	-12.9618
lix	-12.9618
▁Cu	-12.9619
chai	-12.9619
dnes	-12.962
nuck	-12.962
▁corona	-12.9621
ease	-12.9622
upp	-12.9624
▁auro	-12.9624
▁funk	-12.9629
▁Cambodian	-12.9633
▁Gram	-12.964
▁endow	-12.9642
ilton	-12.9643
▁heighten	-12.9646
▁synthesiz	-12.9646
▁gyre	-12.9648
▁rejuvenat	-12.9648
▁eagle	-12.965
▁Hazle	-12.9651
▁communis	-12.9651
▁Grave	-12.9655
▁Vote	-12.9656
▁Haa	-12.9656
▁hassle	-12.9658
▁wh	-12.9659
▁bunk	-12.966
▁Rac	-12.9662
▁broaden	-12.9663
▁Daily	-12.9664
▁Joan	-12.9665
400	-12.9667
tale	-12.9667
▁Wild	-12.9667
▁revert	-12.9669
▁Colon	-12.967
▁Stick	-12.9671
▁proclaim	-12.9671
bart	-12.9672
▁barbecue	-12.9672
▁bolt	-12.9672
▁Tah	-12.9675
▁cavit	-12.9675
▁inconsistenc	-12.9675
▁pharmacolog	-12.9677
▁Fai	-12.9679
▁McKe	-12.9679
▁entitle	-12.968
▁downside	-12.9682
ache	-12.9688
bre	-12.97
▁moth	-12.9702
▁auction	-12.9704
▁mono	-12.9705
machine	-12.9707
iger	-12.9716
▁revolv	-12.9722
▁squatt	-12.9723
Be	-12.9727
▁inertia	-12.9727
▁orchestrate	-12.9729
▁marginaliz	-12.973
▁bounc	-12.9731
▁perpetuate	-12.9732
death	-12.9732
▁cont	-12.9733
▁unions	-12.9736
▁Moi	-12.9738
▁sour	-12.9738
▁Sho	-12.9739
▁halt	-12.974
gger	-12.974
▁Bio	-12.9743
▁IPC	-12.9743
▁Dust	-12.9749
▁spat	-12.975
▁wid	-12.9755
▁tyrann	-12.9759
windows	-12.976
▁Jeh	-12.9765
▁Nia	-12.9768
▁solu	-12.9771
▁pave	-12.9772
▁Jar	-12.9773
▁archiv	-12.9774
▁punctuat	-12.9778
dro	-12.9779
▁arguer	-12.978
▁compris	-12.9781
luck	-12.9784
vin	-12.9786
▁gem	-12.979
▁Table	-12.979
▁Sp	-12.9793
shell	-12.9795
come	-12.9797
▁fabricate	-12.9797
▁manic	-12.9798
▁mul	-12.98
▁Abd	-12.98
dam	-12.9801
▁illuminate	-12.9808
holder	-12.981
chim	-12.981
▁Va	-12.981
▁Cl	-12.9811
▁bo	-12.9815
▁amen	-12.982
▁tr	-12.9822
▁undertake	-12.9826
Card	-12.9826
▁gymn	-12.9828
ould	-12.9828
▁gli	-12.9841
▁traveler	-12.9842
heads	-12.9843
ox	-12.9844
▁anthrop	-12.9847
▁Bon	-12.9855
▁PR	-12.9862
▁circulati	-12.9865
.3	-12.9868
▁Ata	-12.9871
▁infringe	-12.9871
tine	-12.9871
▁handshak	-12.9873
▁45-	-12.9873
oli	-12.9877
▁Chan	-12.9879
▁repulsi	-12.9881
spen	-12.9882
▁Toy	-12.9887
▁relieve	-12.9888
▁Um	-12.9892
▁memoriz	-12.9893
▁Chev	-12.9898
▁muse	-12.9899
rk	-12.9899
ural	-12.9904
ifi	-12.9904
▁8.	-12.9906
▁Hal	-12.9916
dside	-12.9921
utter	-12.9922
▁laborer	-12.9926
argon	-12.9927
▁outsider	-12.993
▁touche	-12.993
ipping	-12.9931
▁synchron	-12.9931
▁Match	-12.9933
▁outsource	-12.9938
direct	-12.9945
▁coating	-12.9948
ene	-12.9949
▁Suzan	-12.9957
▁Bai	-12.9957
Sens	-12.9959
▁Cre	-12.9963
▁vanish	-12.9967
western	-12.9967
▁Harve	-12.9968
▁indulge	-12.9968
ional	-12.9969
▁demoralize	-12.9976
▁deform	-12.9983
code	-12.9984
securit	-12.9984
▁Yan	-12.9987
▁skyscrapers	-12.9988
▁junkie	-12.999
▁Winn	-12.9992
▁evolves	-12.9995
▁alternat	-12.9998
ada	-13
aya	-13.0006
▁recap	-13.0009
98	-13.0011
urek	-13.0012
ego	-13.0013
▁Engel	-13.0016
▁nun	-13.0018
lips	-13.0019
▁supporter	-13.002
▁hairs	-13.0025
▁carv	-13.0026
lab	-13.003
▁waiter	-13.0036
dol	-13.0038
tention	-13.0039
ffy	-13.0041
▁robe	-13.0041
▁squeez	-13.0044
▁menstrua	-13.0044
▁ranking	-13.0048
▁dire	-13.005
▁cite	-13.005
fiction	-13.005
iffe	-13.005
▁remed	-13.0057
▁Gr	-13.0059
▁Mulli	-13.0059
lam	-13.006
author	-13.0061
axe	-13.0063
wheel	-13.0064
AO	-13.0071
▁Wor	-13.0075
▁kisse	-13.0075
▁lumber	-13.0075
▁hone	-13.0078
▁taboos	-13.0085
ID	-13.0086
perform	-13.0086
endo	-13.0087
▁Laure	-13.009
▁var	-13.009
TB	-13.0092
different	-13.0095
visual	-13.0095
▁Imagin	-13.0096
roth	-13.0098
issue	-13.0103
catch	-13.0103
induce	-13.0103
tooth	-13.0103
EP	-13.0103
bie	-13.0107
brain	-13.0108
fulfill	-13.0109
large	-13.0109
condition	-13.0111
narrative	-13.0111
benefit	-13.0111
blood	-13.0111
▁videotape	-13.0112
capacity	-13.0112
virus	-13.0112
species	-13.0112
dense	-13.0113
kwa	-13.0113
yourself	-13.0113
DD	-13.0113
moment	-13.0117
growth	-13.0118
▁uter	-13.0119
seven	-13.012
▁Poll	-13.0122
▁hal	-13.0126
▁valu	-13.0126
definition	-13.0126
▁nap	-13.0129
▁optimiz	-13.0131
stopp	-13.0135
▁exacerbate	-13.0137
cap	-13.0137
▁Sally	-13.014
▁reshape	-13.014
exist	-13.0146
driving	-13.0151
direction	-13.0151
▁subsid	-13.0158
▁Lead	-13.0161
▁pollut	-13.0164
doc	-13.0177
65	-13.0178
spect	-13.0182
sonic	-13.0182
City	-13.0185
II	-13.0188
ifer	-13.0193
mel	-13.0193
hol	-13.0198
▁divin	-13.0201
▁sch	-13.0203
▁irregular	-13.0204
▁meditate	-13.0214
ardo	-13.0219
tari	-13.022
▁operational	-13.022
roll	-13.0223
anti	-13.0224
opt	-13.0224
▁Rott	-13.023
▁steadi	-13.023
icha	-13.0235
review	-13.0242
hadow	-13.0243
setting	-13.0245
▁accompanie	-13.0251
▁Ice	-13.0254
osh	-13.0257
▁apt	-13.0258
▁sa	-13.0258
▁cla	-13.026
▁Song	-13.0262
bble	-13.0278
▁reconsider	-13.0279
▁sociolog	-13.0279
▁Til	-13.0279
▁Chee	-13.0281
▁epi	-13.0286
lie	-13.029
▁Olde	-13.0297
▁contemplate	-13.0298
robot	-13.0298
▁synchroniz	-13.03
▁char	-13.0301
mite	-13.031
▁flashe	-13.0311
gon	-13.0312
▁ash	-13.0313
▁varie	-13.0316
▁IT	-13.0317
gras	-13.0317
▁Brun	-13.0318
▁contextual	-13.0318
▁partisan	-13.0323
dez	-13.0324
▁Warn	-13.0327
▁crazi	-13.0337
▁Atten	-13.0339
▁profitabl	-13.0339
uz	-13.0343
▁matur	-13.0346
ulli	-13.0347
▁entr	-13.0362
▁blinding	-13.0364
og	-13.0382
▁Rhode	-13.0389
eller	-13.0394
▁stigmatiz	-13.0395
▁ounce	-13.0412
▁advertise	-13.0418
▁Swe	-13.0422
lus	-13.0423
▁crumbl	-13.0426
misunderstanding	-13.0434
▁nam	-13.0441
▁desalinati	-13.0456
▁barbari	-13.0459
ethan	-13.0464
ku	-13.0464
▁premier	-13.0471
▁Spla	-13.0472
▁centraliz	-13.0489
ortic	-13.049
center	-13.0494
▁11-	-13.0501
▁verifi	-13.0502
ami	-13.0507
ash	-13.0508
▁Kno	-13.0512
uction	-13.0516
ue	-13.0518
▁rescu	-13.0529
lew	-13.0532
▁Cris	-13.0533
▁outsourc	-13.0551
entric	-13.0559
▁60-	-13.056
▁Br	-13.056
bach	-13.0566
▁Biolog	-13.0569
chel	-13.0576
▁sacrific	-13.058
▁Tho	-13.058
epression	-13.0583
▁champions	-13.0585
▁conversational	-13.0587
▁relat	-13.0589
bling	-13.059
▁Lak	-13.0597
▁Ob	-13.0599
fed	-13.0606
▁Par	-13.0606
ibu	-13.0608
▁Fed	-13.0612
reativity	-13.0613
▁featur	-13.0614
▁saturat	-13.062
ela	-13.0623
rrow	-13.0626
▁populate	-13.063
▁chi	-13.0633
▁Jordans	-13.0636
feld	-13.064
▁repel	-13.0648
▁sonic	-13.065
mount	-13.0653
gli	-13.0656
▁Suga	-13.0657
avi	-13.066
▁adventur	-13.066
vald	-13.0662
ix	-13.0663
▁TM	-13.0665
ES	-13.0668
kut	-13.0674
▁quadr	-13.0676
lash	-13.0682
▁celebrit	-13.0683
▁Rain	-13.0684
▁Pain	-13.0684
▁barb	-13.0686
▁commercializ	-13.0686
▁Sala	-13.069
enable	-13.069
▁recurr	-13.0691
▁visi	-13.0691
plin	-13.0693
▁electro	-13.0695
electrif	-13.0698
▁insulat	-13.0699
▁Vik	-13.0701
print	-13.0703
▁spong	-13.0713
▁meritocrat	-13.0717
▁Ker	-13.072
▁plugg	-13.0721
▁disengage	-13.0727
▁nurser	-13.0727
marks	-13.0729
pt	-13.073
▁plutocra	-13.0732
▁turbulen	-13.0734
▁pleasur	-13.0736
▁innocen	-13.0737
▁Ethe	-13.074
DT	-13.074
▁spur	-13.074
trenche	-13.0743
auce	-13.0747
▁whil	-13.075
Pes	-13.0752
glob	-13.0752
▁trawl	-13.0753
▁Joa	-13.0759
tosh	-13.0759
emic	-13.0759
LP	-13.0762
▁Gol	-13.0765
heim	-13.0765
▁Bl	-13.0766
▁launder	-13.0768
▁App	-13.0768
▁ranch	-13.0769
▁Nep	-13.077
▁Scra	-13.0772
spiration	-13.0773
ritage	-13.0773
▁Metaphor	-13.0775
▁biologic	-13.0779
▁kidnappe	-13.0785
rift	-13.0785
▁proliferat	-13.0785
▁advert	-13.0785
▁suspicio	-13.0786
haracter	-13.0787
▁schema	-13.0787
▁scour	-13.0788
▁tempo	-13.0788
▁spiderweb	-13.0788
Baptist	-13.0788
curricula	-13.0788
▁Adventist	-13.0788
▁AlloSphere	-13.0788
▁Festival	-13.0788
▁Hippocrat	-13.0788
▁Imperial	-13.0788
▁Kuznet	-13.0788
▁Malthus	-13.0788
▁Turbo	-13.0788
▁Whirlwind	-13.0788
▁alligator	-13.0788
▁amplification	-13.0788
▁amputation	-13.0788
▁anesthetize	-13.0788
▁arthriti	-13.0788
▁chirp	-13.0788
▁commemorat	-13.0788
▁consecutive	-13.0788
▁constituent	-13.0788
▁coyote	-13.0788
▁culprit	-13.0788
▁daydream	-13.0788
▁decipher	-13.0788
▁dwarf	-13.0788
▁egalitarian	-13.0788
▁ephemeral	-13.0788
▁gourmet	-13.0788
▁impoverish	-13.0788
▁incompatib	-13.0788
▁involuntar	-13.0788
▁kilowatt	-13.0788
▁monolith	-13.0788
▁murmur	-13.0788
▁narcissis	-13.0788
▁neutron	-13.0788
▁nozzle	-13.0788
▁oblige	-13.0788
▁pendulum	-13.0788
▁persecut	-13.0788
▁pilgrim	-13.0788
▁prairie	-13.0788
▁pronunciation	-13.0788
▁protagonist	-13.0788
▁qualification	-13.0788
▁reinterpret	-13.0788
▁ruthless	-13.0788
▁sensibilit	-13.0788
▁tadpole	-13.0788
▁terrestrial	-13.0788
▁urchin	-13.0788
supervise	-13.0788
▁Toxo	-13.0788
▁exhum	-13.0788
▁incongru	-13.0788
▁megafauna	-13.0788
▁relegate	-13.0788
▁Kuwait	-13.0788
▁atrocit	-13.0788
▁burrow	-13.0788
▁capillar	-13.0788
▁headwind	-13.0788
▁modification	-13.0788
▁preconception	-13.0788
▁snowflake	-13.0788
▁Disease	-13.0788
▁Frankenstein	-13.0788
▁elbow	-13.0788
▁Draw	-13.0788
▁Griffi	-13.0788
▁decay	-13.0788
▁discern	-13.0788
▁decree	-13.0788
trophy	-13.0788
▁99.9	-13.0788
▁ATM	-13.0788
▁derivative	-13.0788
▁agonizing	-13.0788
▁peasant	-13.0788
26	-13.0788
▁Volta	-13.0788
▁Wrong	-13.0788
▁epilep	-13.0788
▁gatekeeper	-13.0788
buttock	-13.0788
▁Chief	-13.0788
▁subvert	-13.0788
▁irresponsib	-13.0788
▁Complet	-13.0788
Family	-13.0788
▁Krishna	-13.0788
▁sparse	-13.0788
▁Cesar	-13.0788
▁airstrip	-13.0788
▁Honest	-13.0788
▁inundat	-13.0788
▁memoir	-13.0788
▁Discover	-13.0788
▁pervert	-13.0788
▁Chamber	-13.0788
▁Igbo	-13.0788
▁assertive	-13.0788
▁Debora	-13.0788
▁unanswer	-13.0788
▁shopkeeper	-13.0788
▁affectionate	-13.0788
▁biennial	-13.0788
▁ivory	-13.0788
▁Schul	-13.0788
▁presumption	-13.0788
▁Barric	-13.0788
▁Tulle	-13.0788
▁stutter	-13.0788
▁pediatrician	-13.0788
▁mush	-13.0788
▁bluegrass	-13.0788
▁synonymous	-13.0788
▁Socrat	-13.0788
▁insecticide	-13.0788
▁jig	-13.0788
tiba	-13.0788
▁snail	-13.0788
▁Bionicle	-13.0788
▁sledge	-13.0788
▁pupil	-13.0788
▁wizard	-13.0788
ickli	-13.0788
▁perimeter	-13.0788
▁uncommon	-13.0788
▁Invest	-13.0788
▁Population	-13.0788
▁Blind	-13.0788
▁Governor	-13.0788
▁Pimp	-13.0788
▁Corporation	-13.0788
▁Blood	-13.0788
▁floss	-13.0788
▁perpetrator	-13.0788
▁Monster	-13.0788
▁disorient	-13.0788
▁1,800	-13.0788
▁superorganism	-13.0788
▁Blank	-13.0788
▁Easy	-13.0788
▁Curt	-13.0789
▁Check	-13.0789
▁petrol	-13.0789
▁Hatz	-13.0789
▁scout	-13.0789
ntelligence	-13.0789
▁marsh	-13.0789
razo	-13.0789
▁serendipit	-13.0789
▁shaman	-13.0789
▁addictive	-13.0789
constru	-13.0789
▁traumatiz	-13.0789
▁theorist	-13.0789
ndustry	-13.0789
▁spearhead	-13.0789
▁Bubble	-13.0789
▁Bike	-13.0789
▁griev	-13.0789
▁foam	-13.0789
▁rewild	-13.0789
▁uninhabit	-13.0789
▁handcuff	-13.0789
▁Print	-13.0789
▁tractor	-13.0789
▁Kirk	-13.0789
▁narrator	-13.079
▁Natal	-13.079
▁entail	-13.079
▁Confuci	-13.079
▁Religion	-13.079
▁cutaway	-13.079
▁loft	-13.079
▁Orange	-13.079
▁burger	-13.079
▁pavement	-13.079
▁magnify	-13.079
▁tireless	-13.079
▁Production	-13.079
▁0.2	-13.079
▁blindfold	-13.079
▁NY	-13.079
▁Wilkins	-13.079
▁demoli	-13.079
▁mound	-13.079
▁meditator	-13.0791
▁imam	-13.0791
▁poach	-13.0791
▁stroll	-13.0791
▁Operation	-13.0791
▁shoreline	-13.0791
▁Place	-13.0791
▁chorus	-13.0791
▁wack	-13.0791
▁mammalian	-13.0791
▁Senator	-13.0791
ncyclopedia	-13.0791
▁cocoon	-13.0791
▁gorilla	-13.0792
▁ginger	-13.0792
▁unpack	-13.0792
▁Atkins	-13.0792
▁taint	-13.0792
▁librarian	-13.0792
▁dissatisf	-13.0792
▁hyperbol	-13.0792
▁Damas	-13.0792
▁FE	-13.0793
▁deem	-13.0793
▁Buck	-13.0793
▁imperfection	-13.0793
▁Ragu	-13.0794
▁eeri	-13.0794
rosoc	-13.0794
▁cosmologist	-13.0794
same	-13.0795
▁philanthropist	-13.0795
ocular	-13.0795
▁erode	-13.0795
Script	-13.0795
▁grassland	-13.0796
▁vendor	-13.0797
▁accelerator	-13.0797
▁Flight	-13.0797
▁servant	-13.0797
▁setback	-13.0798
▁Emba	-13.0798
▁whiteboard	-13.0798
▁Maz	-13.0799
▁Chip	-13.0799
▁Verme	-13.0799
▁jogg	-13.08
▁motivator	-13.0801
▁skyline	-13.0801
▁Father	-13.0801
▁sniper	-13.0801
▁trump	-13.0801
▁eyeball	-13.0801
▁commonalit	-13.0801
▁Met	-13.0801
▁Hono	-13.0801
▁allegiance	-13.0802
▁Fact	-13.0803
ML	-13.0803
▁Genetic	-13.0803
▁diabetic	-13.0804
▁dash	-13.0804
franchise	-13.0805
▁sprinter	-13.0805
▁quarrie	-13.0806
▁Increasing	-13.0806
▁Gell	-13.0807
▁papercutting	-13.0807
▁Member	-13.0808
▁incentivize	-13.0808
▁cargo	-13.0808
▁parody	-13.081
▁seams	-13.081
▁archer	-13.0811
erba	-13.0812
▁portal	-13.0812
▁Torajan	-13.0812
▁Join	-13.0812
▁Gorge	-13.0814
▁brass	-13.0814
▁slab	-13.0815
▁stove	-13.0815
▁1500	-13.0815
▁synerg	-13.0816
▁Victoria	-13.0816
▁CB	-13.0816
▁Myster	-13.0817
▁Kamen	-13.0817
dus	-13.0818
▁Mart	-13.0818
eclaration	-13.0819
▁Prat	-13.0819
▁Capit	-13.0819
▁Arno	-13.082
▁noodle	-13.0821
▁Porter	-13.0822
▁Earle	-13.0822
▁weightless	-13.0823
▁hardship	-13.0824
▁subsidiar	-13.0825
congratulation	-13.0827
clamation	-13.0828
eastern	-13.0828
idan	-13.0828
entagon	-13.0829
▁blender	-13.0831
▁contractor	-13.0832
worker	-13.0832
▁agitat	-13.0833
▁clot	-13.0833
▁commoditi	-13.0835
▁Smithson	-13.0836
▁Hung	-13.084
▁trickle	-13.084
▁clutter	-13.0841
▁oas	-13.0842
▁Seng	-13.0843
▁evangeli	-13.0843
▁Nixon	-13.0843
▁joking	-13.0844
▁crown	-13.0846
▁yearning	-13.0846
▁malle	-13.0846
▁cath	-13.0847
shy	-13.0848
▁Body	-13.085
▁Fres	-13.0851
09	-13.0854
▁permeate	-13.0854
▁biopsy	-13.0854
▁communicator	-13.086
▁Mine	-13.0861
▁millenni	-13.0865
▁SK	-13.0866
Bath	-13.0866
▁Gravit	-13.0867
▁disclos	-13.0869
▁Harri	-13.0871
▁resourceful	-13.0872
racor	-13.0872
▁Pack	-13.0874
OL	-13.0874
▁customize	-13.0875
▁bash	-13.0876
▁energiz	-13.0877
▁Erin	-13.0878
▁reptile	-13.0882
▁thousandth	-13.0885
▁Ster	-13.0886
apest	-13.0887
▁Siri	-13.0889
▁Inter	-13.0892
▁Tse	-13.0894
▁synchronize	-13.0894
▁Horn	-13.0897
gro	-13.0897
odd	-13.0898
▁coz	-13.0901
LB	-13.0903
ange	-13.0909
uber	-13.0917
dney	-13.0918
▁persona	-13.0925
atal	-13.0926
llusion	-13.093
▁mindless	-13.0931
hall	-13.0932
▁courts	-13.0934
▁Cave	-13.0934
▁stagnat	-13.0937
▁shortcoming	-13.0938
▁streak	-13.0939
▁Mob	-13.094
▁brainwaves	-13.0943
▁inflammat	-13.0944
▁tendon	-13.0944
▁protector	-13.0944
▁fleeting	-13.0948
▁refin	-13.095
▁dice	-13.0956
▁pledge	-13.0958
PT	-13.0961
95	-13.0962
pot	-13.0963
▁spac	-13.0965
▁Gam	-13.0973
▁inert	-13.0973
deprive	-13.0975
▁tier	-13.098
▁justifie	-13.098
▁Express	-13.098
▁slic	-13.099
▁barricade	-13.0997
▁discourage	-13.0999
sustain	-13.0999
▁Luri	-13.1006
opper	-13.1009
zo	-13.1013
▁locomot	-13.1014
material	-13.1014
▁Bol	-13.1017
▁Dhara	-13.1018
▁Hart	-13.1018
but	-13.1018
▁ignite	-13.1024
ania	-13.1024
▁wobbl	-13.1027
▁immersi	-13.1029
▁populat	-13.1029
ollock	-13.1042
▁Mai	-13.1044
▁degradati	-13.1048
MT	-13.1054
▁Finn	-13.1055
▁Kwa	-13.1056
▁sled	-13.1057
ulite	-13.1057
▁Lip	-13.1065
▁CH	-13.1066
▁Form	-13.1067
icide	-13.1076
▁candid	-13.1079
▁marche	-13.1079
quer	-13.1089
▁Atala	-13.109
▁Var	-13.1091
▁ecologically	-13.1093
freaking	-13.1097
▁insure	-13.1098
▁Authorit	-13.1099
rman	-13.1101
▁herb	-13.1101
▁circl	-13.1101
▁pointer	-13.1106
▁gee	-13.1111
00,000	-13.1115
▁DD	-13.1116
▁BC	-13.1118
▁goose	-13.1123
▁Edd	-13.1127
▁Willi	-13.113
▁Rid	-13.1131
▁Hat	-13.1132
-10	-13.1132
custome	-13.1142
leg	-13.1146
▁TH	-13.1146
create	-13.115
▁scor	-13.1153
zed	-13.1155
ception	-13.1155
▁ripp	-13.1157
▁regenerat	-13.1159
▁posts	-13.1163
▁dependency	-13.1164
▁Aus	-13.1168
aca	-13.1168
▁outstanding	-13.1172
▁Antoni	-13.1173
ivers	-13.1173
▁Mal	-13.1175
▁sentenc	-13.1177
▁prohibit	-13.1198
▁fibro	-13.1205
▁juic	-13.1209
▁Friend	-13.121
▁remedi	-13.1214
illi	-13.1215
changer	-13.1217
▁lapse	-13.1219
mont	-13.1229
onald	-13.123
▁choke	-13.1231
MS	-13.1235
▁Argentine	-13.1239
80	-13.1241
▁diverge	-13.1242
tti	-13.1244
▁Fisher	-13.1245
▁circulate	-13.1255
agile	-13.1256
▁artful	-13.1257
▁pals	-13.1258
▁informati	-13.1267
▁resonat	-13.127
▁ensur	-13.1272
▁policem	-13.1277
▁disco	-13.1279
hreddi	-13.128
reek	-13.1291
▁Tomb	-13.1294
ulling	-13.1297
▁localize	-13.1299
▁Urban	-13.1301
▁Mobil	-13.1303
dine	-13.1303
otic	-13.1307
▁Pha	-13.1316
ud	-13.1322
▁wholly	-13.133
undi	-13.1351
▁haul	-13.1353
▁fossilize	-13.1358
▁comparabl	-13.136
▁Carlo	-13.1369
ancy	-13.137
sala	-13.137
▁IP	-13.1371
▁cor	-13.1377
▁Sens	-13.138
ator	-13.1383
arch	-13.1383
▁Hug	-13.1393
▁Rup	-13.1397
mate	-13.1404
▁Liz	-13.1405
thesis	-13.1408
▁deteriorate	-13.1418
elle	-13.142
aria	-13.1422
turn	-13.1423
correct	-13.1424
▁DAR	-13.1429
▁ration	-13.1431
erald	-13.1439
▁Cow	-13.144
urg	-13.144
lings	-13.144
handler	-13.1445
▁bead	-13.1447
unity	-13.1447
▁trainer	-13.1452
▁resembl	-13.1453
och	-13.1461
upper	-13.1467
meaning	-13.147
▁swin	-13.147
Vo	-13.1473
▁Mathematic	-13.1481
melon	-13.1481
njunction	-13.1481
▁merc	-13.1484
▁Wool	-13.1484
▁Total	-13.1484
treat	-13.1487
percussion	-13.1487
icular	-13.1488
front	-13.1488
irming	-13.1492
▁subversi	-13.1494
▁Grab	-13.1495
▁interven	-13.1497
technology	-13.1498
▁Fr	-13.1499
violence	-13.15
▁betray	-13.15
control	-13.1501
▁Bye	-13.1511
Aid	-13.1515
▁spokes	-13.1516
ucker	-13.1517
patient	-13.1519
▁understate	-13.1523
▁duct	-13.1523
▁Christin	-13.1524
heated	-13.1527
Tri	-13.1528
▁Bass	-13.1531
competitive	-13.1533
millimeter	-13.1534
intuitive	-13.1535
project	-13.1535
business	-13.1537
purpose	-13.1538
color	-13.154
▁pastor	-13.154
degree	-13.1541
bread	-13.1541
aunt	-13.1541
intention	-13.1542
negative	-13.1542
left	-13.1544
linear	-13.1544
Day	-13.1544
glow	-13.1545
market	-13.1545
cliff	-13.1546
▁commut	-13.1546
▁Hamm	-13.1546
▁Holi	-13.1547
utilize	-13.1548
illion	-13.1548
support	-13.155
torn	-13.1552
cl	-13.1554
▁Clar	-13.1557
nne	-13.1564
vant	-13.1567
▁postpone	-13.1569
▁municipal	-13.157
▁Memor	-13.1571
reported	-13.1574
▁Carri	-13.1585
act	-13.1589
▁dual	-13.159
▁ob	-13.1591
nspired	-13.1593
TA	-13.1609
▁resonan	-13.1611
▁beta	-13.1611
ura	-13.1616
▁Hands	-13.1616
▁attribut	-13.1617
derive	-13.1618
▁mentors	-13.162
▁Foot	-13.1632
▁rehearse	-13.1634
controller	-13.1634
arko	-13.1641
emeral	-13.1645
▁anticipati	-13.1656
etter	-13.1658
▁stifle	-13.1666
▁Barne	-13.1667
withstand	-13.1673
hov	-13.1673
▁Mmm	-13.1679
▁tast	-13.168
pad	-13.1687
▁fis	-13.169
thi	-13.17
ike	-13.1704
Me	-13.1704
otta	-13.1716
▁incarcerati	-13.1721
invent	-13.1729
▁sine	-13.1737
▁academi	-13.1741
urdy	-13.1746
▁Generati	-13.1746
nette	-13.1748
▁Kerr	-13.1748
▁deed	-13.1751
▁splitt	-13.1751
▁redistribut	-13.1762
▁innovat	-13.1763
BO	-13.1765
quin	-13.1766
▁scramble	-13.1766
hem	-13.1767
▁siz	-13.1768
▁Nint	-13.177
▁Shell	-13.1773
bat	-13.1775
▁reintroduce	-13.1776
▁fertiliz	-13.1779
bab	-13.1786
intelligent	-13.1787
▁sol	-13.1787
lbert	-13.1788
chi	-13.1791
▁Madd	-13.1792
▁recreat	-13.1799
ption	-13.1813
▁supervisi	-13.1813
mov	-13.1814
arcelo	-13.1815
▁cartel	-13.1816
▁650	-13.1821
99	-13.1824
Sh	-13.1827
cientific	-13.1827
cus	-13.1832
▁leverag	-13.184
▁counteract	-13.1841
nesian	-13.1847
▁teas	-13.1849
got	-13.185
▁gym	-13.1859
▁magne	-13.1862
▁arteri	-13.1864
imming	-13.187
ference	-13.187
kel	-13.1871
▁Rest	-13.1873
▁Pari	-13.1881
buds	-13.1893
▁subtl	-13.1898
▁mu	-13.1901
hr	-13.1909
due	-13.1912
34	-13.1917
scientific	-13.1918
▁humanize	-13.1918
osa	-13.1924
zone	-13.1935
lumber	-13.195
▁Arr	-13.195
▁ignit	-13.1951
▁Lou	-13.196
▁thug	-13.1961
▁Ras	-13.1968
scot	-13.1976
▁veg	-13.1977
▁Hunting	-13.1982
▁Watt	-13.1984
▁calibrate	-13.1986
▁Locke	-13.1987
iev	-13.1992
▁BA	-13.1994
▁Nar	-13.1996
▁unrel	-13.1999
▁initiat	-13.1999
bath	-13.1999
onica	-13.2001
▁mot	-13.2004
▁farthe	-13.2007
▁margin	-13.2009
▁stud	-13.2014
▁marit	-13.2015
hore	-13.202
▁kinder	-13.2023
▁rearrange	-13.2024
▁spik	-13.2025
▁flex	-13.2026
▁Terr	-13.2027
▁predic	-13.2037
name	-13.2037
▁refuge	-13.2037
abba	-13.2038
koff	-13.204
▁lick	-13.204
▁Ideal	-13.2046
▁Manage	-13.2047
▁lenti	-13.205
leton	-13.2051
che	-13.2051
▁Spi	-13.2054
▁brib	-13.2055
equi	-13.2056
eb	-13.2057
rative	-13.206
▁Mun	-13.2067
▁speculate	-13.2075
▁marginal	-13.2077
▁Brea	-13.2077
ei	-13.2079
▁geometric	-13.208
stakes	-13.208
▁AB	-13.2081
▁Auto	-13.2082
▁Shephe	-13.2095
happiness	-13.2095
dden	-13.2097
▁dialect	-13.2098
▁Wak	-13.21
▁insula	-13.2102
03	-13.2103
spora	-13.2105
▁tracker	-13.2106
▁standardiz	-13.2107
▁FI	-13.2108
them	-13.2109
▁Glas	-13.2109
zu	-13.2112
▁falli	-13.2113
ignment	-13.2114
La	-13.212
▁dwell	-13.2121
▁exceed	-13.2125
3,000	-13.2127
▁conserv	-13.2128
imb	-13.213
▁Beij	-13.2132
▁zin	-13.2135
▁Usa	-13.2139
cense	-13.2143
▁Eye	-13.2143
▁Architect	-13.2144
cially	-13.2147
pparent	-13.2147
▁Nell	-13.2151
▁nutritio	-13.2164
▁Juli	-13.2165
▁brak	-13.2175
▁circu	-13.2178
▁moons	-13.2178
▁microblogg	-13.2181
▁medic	-13.2182
▁underpin	-13.2183
▁squea	-13.2184
▁DU	-13.2184
▁gambl	-13.2185
▁firefight	-13.2187
SC	-13.2187
▁Toraja	-13.2188
▁Improv	-13.2189
▁Program	-13.2192
ynthetic	-13.2192
▁Doc	-13.2193
enior	-13.2194
ieber	-13.2194
cker	-13.2195
▁radiat	-13.2195
tasking	-13.2196
▁pseudo	-13.2196
▁tripl	-13.2196
ides	-13.2198
▁approximat	-13.22
▁precipi	-13.2201
rarian	-13.2202
▁choreograph	-13.2205
▁glu	-13.2205
▁infinit	-13.2205
cuba	-13.2205
▁instruct	-13.2207
▁proto	-13.2207
▁memo	-13.221
▁fantasi	-13.2211
▁flips	-13.2211
▁dysfunction	-13.2212
▁sanct	-13.2212
▁subtract	-13.2213
diac	-13.2215
▁rehab	-13.2215
▁Daw	-13.2215
gulf	-13.2215
▁Babb	-13.2216
▁pediatric	-13.2216
,800	-13.2216
▁metasta	-13.2216
▁cybercrim	-13.2216
▁Ambassador	-13.2216
▁Bolivia	-13.2216
▁Ecuador	-13.2216
▁Entrepreneurs	-13.2216
▁Experiment	-13.2216
▁Federation	-13.2216
▁LGBT	-13.2216
▁Maasai	-13.2216
▁Meggendorfer	-13.2216
▁NRK	-13.2216
▁Namibia	-13.2216
▁Opportunity	-13.2216
▁PostSecret	-13.2216
▁Scandinavia	-13.2216
▁Tamil	-13.2216
▁Volvo	-13.2216
▁affluen	-13.2216
[...]
