{
  "src_word2id": {
    "<pad>": 0,
    "<s>": 1,
    "</s>": 2,
    "<unk>": 3,
    "\u2581,": 4,
    "\u2581.": 5,
    "\u2581l\u00e0": 6,
    "\u2581t\u00f4i": 7,
    "\u2581v\u00e0": 8,
    "\u2581m\u1ed9t": 9,
    "\u2581c\u00f3": 10,
    "\u2581nh\u1eefng": 11,
    "\u2581ch\u00fang": 12,
    "\u2581c\u1ee7a": 13,
    "\u2581": 14,
    "\u2581kh\u00f4ng": 15,
    "\u2581ta": 16,
    "\u2581\u0111\u00f3": 17,
    "\u2581ng\u01b0\u1eddi": 18,
    "\u2581b\u1ea1n": 19,
    "\u2581trong": 20,
    "\u2581th\u1ec3": 21,
    "\u2581n\u00e0y": 22,
    "\u2581\u0111\u00e3": 23,
    "\u2581c\u00e1c": 24,
    "\u2581\u0111\u01b0\u1ee3c": 25,
    ";": 26,
    "i": 27,
    "\u2581&": 28,
    "\u2581v\u1edbi": 29,
    "quot": 30,
    "\u2581cho": 31,
    "\u2581V\u00e0": 32,
    "ng": 33,
    "\u2581s\u1ef1": 34,
    "\u2581ra": 35,
    "\u2581l\u00e0m": 36,
    "\u2581n\u00f3": 37,
    "\u2581\u1edf": 38,
    "\u2581m\u00e0": 39,
    "\u2581\u0111\u1ec3": 40,
    "\u2581v\u1ec1": 41,
    "\u2581nh\u01b0": 42,
    "\u2581s\u1ebd": 43,
    "t": 44,
    "\u2581\u0111i\u1ec1u": 45,
    "\u2581th\u1ebf": 46,
    "\u2581khi": 47,
    "\u2581h\u1ecd": 48,
    "\u2581T\u00f4i": 49,
    "n": 50,
    "\u2581n\u00f3i": 51,
    "y": 52,
    "\u2581\u0111\u1ebfn": 53,
    "\u2581?": 54,
    "\u2581ph\u1ea3i": 55,
    "\u2581r\u1eb1ng": 56,
    "\u2581g\u00ec": 57,
    "\u2581\u0111ang": 58,
    "\u2581v\u00e0o": 59,
    "\u2581t\u1eeb": 60,
    "\u2581vi\u1ec7c": 61,
    "\u2581l\u1ea1i": 62,
    "\u2581th\u1ea5y": 63,
    "\u2581c\u00e1ch": 64,
    "\u2581h\u01a1n": 65,
    "\u2581c\u1ea3": 66,
    "\u2581nhi\u1ec1u": 67,
    "m": 68,
    "\u2581th\u1ef1c": 69,
    "\u2581\u0111\u1ea7u": 70,
    "\u2581\u0111\u00e2y": 71,
    "\u2581h\u1ecdc": 72,
    "\u2581con": 73,
    "\u2581kh\u00e1c": 74,
    "\u2581tr\u00ean": 75,
    "\u2581c\u00f4ng": 76,
    "\u2581c\u00e1i": 77,
    "\u2581v\u00ec": 78,
    "\u2581n\u00e0o": 79,
    "\u2581ch\u1ec9": 80,
    "\u2581bi\u1ebft": 81,
    "\u2581Ch\u00fang": 82,
    "\u2581r\u1ea5": 83,
    "\u2581n\u0103m": 84,
    "\u2581b": 85,
    "\u2581\u0111i": 86,
    "\u2581ngh\u0129": 87,
    "\u2581th\u1ee9": 88,
    "\u2581th\u00e0nh": 89,
    "\u2581:": 90,
    "\u2581--": 91,
    "\u2581t": 92,
    "\u2581c\u0169ng": 93,
    "\u2581nh\u00e0": 94,
    "\u2581s\u1ed1": 95,
    "\u2581b\u1ecb": 96,
    "\u2581Nh\u01b0": 97,
    "\u2581quan": 98,
    "\u2581mu\u1ed1n": 99,
    "u": 100,
    "\u2581\u0110": 101,
    "\u2581m\u00ecnh": 102,
    "\u00e2y": 103,
    "\u2581nh\u1ea5t": 104,
    "\u2581nh\u01b0ng": 105,
    "\u2581t\u1ea1o": 106,
    "\u2581\u0111\u1ed9ng": 107,
    "\u2581gi\u1edbi": 108,
    "\u2581ch\u00ednh": 109,
    "\u1ea5t": 110,
    "\u25811": 111,
    "\u2581n\u00ean": 112,
    "\u2581v\u1eady": 113,
    "\u2581c": 114,
    "\u2581\u0111": 115,
    "\u2581h\u00ecnh": 116,
    "a": 117,
    "\u2581gi\u1edd": 118,
    "\u2581hi\u1ec7n": 119,
    "\u2581s\u1ed1ng": 120,
    "\u2581t\u1ea1i": 121,
    "\u2581n\u1ebfu": 122,
    "\u2581nh\u1eadn": 123,
    "\u2581m": 124,
    "\u2581N": 125,
    "\u2581cu\u1ed9c": 126,
    "\u2581c\u1ea7n": 127,
    "\u2581hay": 128,
    "\u2581t\u1ef1": 129,
    "\u2581th\u00ec": 130,
    "\u2581\u0111\u1ec1": 131,
    "\u2581t\u1ea5t": 132,
    "\u2581b\u1edfi": 133,
    "\u2581\u1ea5y": 134,
    "\u2581t\u1edbi": 135,
    "\u2581T": 136,
    "\u2581theo": 137,
    "\u2581b\u1eaft": 138,
    "\u2581c\u00f2n": 139,
    "\u2581\u00f4ng": 140,
    "\u2581nh\u00ecn": 141,
    "\u2581l\u1edbn": 142,
    "\u2581c\u00f9ng": 143,
    "\u2581n": 144,
    "\u2581b\u1eb1ng": 145,
    "\u2581\u00fd": 146,
    "\u2581c\u01a1": 147,
    "\u2581c\u1ea3m": 148,
    "\u2581t\u1ebf": 149,
    "\u2581sau": 150,
    "\u2581d\u1ee5ng": 151,
    "\u2581th\u1eadt": 152,
    "\u2581l\u00ean": 153,
    "\u2581gia": 154,
    "\u2581b\u1ea3n": 155,
    "\u2581c\u00e2u": 156,
    "\u2581anh": 157,
    "\u2581tin": 158,
    "\u2581qua": 159,
    "\u2581b\u1ed9": 160,
    "\u2581sao": 161,
    "\u2581th\u1eddi": 162,
    "\u2581chuy\u1ec7n": 163,
    "\u2581tr\u1edf": 164,
    "\u2581ng\u00e0y": 165,
    "\u2581nh\u00e2n": 166,
    "\u2581ch": 167,
    "\u2581sinh": 168,
    "\u2581m\u1ecd": 169,
    "c": 170,
    "\u2581n\u0103ng": 171,
    "\u2581tr\u01b0\u1edbc": 172,
    "\u2581n\u01b0\u1edbc": 173,
    "\u2581ph\u00e1t": 174,
    "\u2581\u0111\u1ed5i": 175,
    "\u2581N\u00f3": 176,
    "\u2581to\u00e0n": 177,
    "\u2581ph\u1ea7n": 178,
    "\u2581n\u01a1i": 179,
    "\u2581th\u00f4ng": 180,
    "\u2581nhau": 181,
    "\u2581t\u00ecm": 182,
    "\u2581m\u1edbi": 183,
    "\u2581thay": 184,
    "\u2581v\u1ea5n": 185,
    "\u2581\u0111\u1ecbnh": 186,
    "\u2581h\u1ec7": 187,
    "\u2581tr\u01b0\u1eddng": 188,
    "\u2581s\u1eed": 189,
    "\u2581nhi\u00ean": 190,
    "\u2581t\u00ednh": 191,
    "\u2581tr\u00ecnh": 192,
    "\u2581t\u1ed1t": 193,
    "\u2581t\u01b0\u1edfng": 194,
    "\u2581k\u1ebft": 195,
    "\u2581C": 196,
    "\u2581v\u1eadt": 197,
    "\u2581l\u00fd": 198,
    "\u2581h\u00e0ng": 199,
    "\u2581h\u1ecfi": 200,
    "\u2581B\u1ea1n": 201,
    "\u2581m\u00e1y": 202,
    "\u2581\u1ea3nh": 203,
    "\u2581h\u1ee3p": 204,
    "\u2581v": 205,
    "\u2581\u0110\u00f3": 206,
    "\u2581m\u1eb7t": 207,
    "\u2581l": 208,
    "\u2581ti\u1ebfp": 209,
    "\u2581h\u00e0nh": 210,
    "\u2581n\u1eefa": 211,
    "\u2581kinh": 212,
    "\u2581tr": 213,
    "\u2581r": 214,
    "\u2581h\u1ed9i": 215,
    "\u2581th\u1ee9c": 216,
    "\u2581gian": 217,
    "\u2581thi\u1ebft": 218,
    "\u2581r\u1ed3i": 219,
    "\u2581xem": 220,
    "\u2581c\u00f4": 221,
    "\u2581li\u1ec7u": 222,
    "\u2581v\u1ecb": 223,
    "\u2581tr\u1ecdng": 224,
    "\u2581ho\u00e1": 225,
    "\u2581th\u00edch": 226,
    "h": 227,
    "\u2581\u0111\u1ed3ng": 228,
    "\u2581gi\u1ea3i": 229,
    "\u2581\u0111\u1ed9": 230,
    "\u2581tr\u1ebb": 231,
    "\u2581l\u01b0\u1ee3ng": 232,
    "\u2581hai": 233,
    "\u2581kh": 234,
    "\u2581th\u01b0\u1eddng": 235,
    "\u2581ai": 236,
    "\u2581\u0111\u1ec1u": 237,
    "\u2581qu\u00e1": 238,
    "\u2581M\u1ed9t": 239,
    "\u2581ti\u00ean": 240,
    "\u2581s\u00e1ng": 241,
    "\u2581\u0111\u1ed1i": 242,
    "\u2581do": 243,
    "\u2581hi\u1ec3u": 244,
    "\u2581B": 245,
    "\u2581t\u00e2m": 246,
    "\u2581nay": 247,
    "\u2581qu\u1ea3": 248,
    "\u2581lo\u1ea1i": 249,
    "\u2581gi\u1ed1ng": 250,
    "\u2581l\u1ea7n": 251,
    "\u2581V\u00ec": 252,
    "\u2581c\u1ee9u": 253,
    "-": 254,
    "\u2581b\u1ec7nh": 255,
    "\u2581bao": 256,
    "\u2581th\u1ed1ng": 257,
    "\u2581vi\u00ean": 258,
    "\u2581th": 259,
    "\u2581ngh\u1ec7": 260,
    "\u2581\u0111i\u1ec3m": 261,
    "\u2581g\u1ecdi": 262,
    "\u2581C\u00f3": 263,
    "\u2581ngh\u0129a": 264,
    "\u2581nh\u1ecf": 265,
    "\u2581ho\u00e0n": 266,
    "nh": 267,
    "\u2581H\u1ecd": 268,
    "\u2581\u0111\u01b0a": 269,
    "\u2581nghi\u1ec7m": 270,
    "\u2581t\u00e1c": 271,
    "\u2581\u0111\u01b0\u1eddng": 272,
    "o": 273,
    "\u2581V": 274,
    "\u2581thu\u1eadt": 275,
    "\u2581b\u00ean": 276,
    "\u2581bi\u1ec7t": 277,
    "\u2581d\u00f9ng": 278,
    "\u2581gi\u00e1": 279,
    "\u2581ng": 280,
    "\u2581d\u00e2n": 281,
    "\u2581ho\u1eb7c": 282,
    "\u2581\u0111\u1ea1i": 283,
    "\u2581c\u1ed1": 284,
    "\u2581x": 285,
    "\u2581d\u1ef1": 286,
    "\u2581tri\u1ec3n": 287,
    "\u2581l\u00fac": 288,
    "\u2581chuy\u1ec3n": 289,
    "\u2581di\u1ec5n": 290,
    ".": 291,
    "\u2581t\u1eebng": 292,
    "\u2581tr\u1ecb": 293,
    "\u2581quy\u1ebft": 294,
    "\u2581nghe": 295,
    "\u2581cao": 296,
    "\u2581tuy\u1ec7t": 297,
    "\u2581m\u1ed7i": 298,
    "\u2581c\u1ea7u": 299,
    "\u2581\u0103n": 300,
    "\u2581k\u1ebf": 301,
    "\u2581x\u1ea3": 302,
    "\u2581l\u1ef1c": 303,
    "\u2581ph\u1ee5": 304,
    "\u2581v\u1eab": 305,
    "\u2581ch\u1ea5t": 306,
    "g": 307,
    "\u2581m\u00f4": 308,
    "\u2581l\u1eddi": 309,
    "\u2581gi\u00e1o": 310,
    "\u2581gi\u00fap": 311,
    "\u2581kh\u00e1": 312,
    "\u2581\u0111\u1ea5t": 313,
    "\u2581V\u1ead": 314,
    "\u2581trung": 315,
    "\u2581b\u1ea3o": 316,
    "\u2581n\u1eef": 317,
    "\u2581c\u00e1": 318,
    "\u2581\u01a1n": 319,
    "\u2581nghi\u00ean": 320,
    "\u2581ti\u1ebfn": 321,
    "\u2581h\u1ebft": 322,
    "\u2581ph\u00f2ng": 323,
    "\u2581ch\u01b0a": 324,
    "\u2581t\u00ecnh": 325,
    "\u2581xe": 326,
    "\u2581li\u00ean": 327,
    "\u2581M": 328,
    "\u2581xu\u1ea5t": 329,
    "\u2581kh\u1ea3": 330,
    "\u2581ph\u00e2n": 331,
    "\u00f4ng": 332,
    "\u2581Anh": 333,
    "\u2581tranh": 334,
    "\u2581\u0111\u01a1n": 335,
    "\u2581n\u00e3o": 336,
    "\u2581b\u00e0i": 337,
    "\u2581truy\u1ec1n": 338,
    "\u2581em": 339,
    "\u2581t\u1eadp": 340,
    "\u2581tu\u1ed5i": 341,
    "\u2581\u0111\u00fang": 342,
    "\u2581ph\u01b0\u01a1ng": 343,
    "\u2581khoa": 344,
    "h\u1eefng": 345,
    "\u2581\u0111i\u1ec7n": 346,
    "\u2581b\u00ecnh": 347,
    "\u00f4i": 348,
    "\u2581s\u1ea3n": 349,
    "\u2581\u0111\u1eb7t": 350,
    "t\u01b0\u01a1ng": 351,
    "\u2581t\u01b0\u1ee3ng": 352,
    "\u2581Khi": 353,
    "\u2581bi\u1ebfn": 354,
    "\u2581ti\u1ec1n": 355,
    "\u2581C\u00e1c": 356,
    "\u2581y\u00eau": 357,
    "\u2581gi\u1eefa": 358,
    "\u2581ti\u1ebfng": 359,
    "\u2581thu": 360,
    "\u2581tr\u1ea3": 361,
    "p": 362,
    "\u2581ngay": 363,
    "\u25812": 364,
    "\u2581Kh\u00f4ng": 365,
    "\u2581th\u00fa": 366,
    "\u2581tay": 367,
    "\u2581l\u1ea5y": 368,
    "\u2581x\u00e3": 369,
    "\u2581g\u1ea7n": 370,
    "\u2581b\u1ecf": 371,
    "\u2581d": 372,
    "s": 373,
    "\u2581ho\u1ea1t": 374,
    "\u2581chi\u1ebfn": 375,
    "\u2581s\u00e1ch": 376,
    "\u2581\u0111\u00e1ng": 377,
    "\u2581ph\u1ea9m": 378,
    "\u2581c\u1ee9": 379,
    "\u2581ph\u00e1p": 380,
    "\u2581th\u00e2n": 381,
    "\u2581kh\u00f3": 382,
    "\u2581cu\u1ed1i": 383,
    "\u2581hi\u1ec7u": 384,
    "\u2581d\u1ee5": 385,
    "\u2581\u0111\u1eddi": 386,
    "\u2581ch\u1ee7": 387,
    "i\u1ec1u": 388,
    "\u2581ch\u01a1i": 389,
    "mang": 390,
    "\u2581s\u1ee9c": 391,
    "\u2581minh": 392,
    "\u2581k\u1ec3": 393,
    "\u2581tr\u00ed": 394,
    "\u2581m\u1ea5t": 395,
    "\u2581kho\u1ea3": 396,
    "\u2581M\u1ef9": 397,
    "\u2581H": 398,
    "\u1ecdi": 399,
    "\u2581\u0111\u1ed3": 400,
    "\u2581m\u1ea1nh": 401,
    "\u2581S": 402,
    "\u2581b\u00e9": 403,
    "\u2581k": 404,
    "\u2581nghi\u1ec7p": 405,
    "\u2581ngo\u00e0i": 406,
    "\u2581ch\u00ed": 407,
    "\u2581d\u1eabn": 408,
    "\u2581\u00edt": 409,
    "\u2581kh\u00ed": 410,
    "\u2581l\u1eadp": 411,
    "\u2581\u0111\u1ea5y": 412,
    "\u2581t\u00e0i": 413,
    "\u2581\u0110\u00e2": 414,
    "\u2581-": 415,
    "\u2581lo\u00e0i": 416,
    "\u2581k\u1ef3": 417,
    "\u2581b\u1ee9c": 418,
    "\u2581lu\u00f4n": 419,
    "\u2581tinh": 420,
    "\u2581v\u00f4": 421,
    "\u2581d\u1ef1ng": 422,
    "\u2581ti\u00eau": 423,
    "\u01b0\u01a1ng": 424,
    "\u2581v\u0103n": 425,
    "\u2581c\u1ed9ng": 426,
    "\u2581h": 427,
    "\u2581t\u00ean": 428,
    "\u2581ch\u1ee9ng": 429,
    "\u2581t\u1eed": 430,
    "\u2581\u00e2m": 431,
    "\u2581vi": 432,
    "\u25813": 433,
    "\u2581ph\u1ed1": 434,
    "\u2581h\u01b0\u1edbng": 435,
    "\u2581nh\u1ea1c": 436,
    "\u2581gi\u1ea3": 437,
    "\u2581h\u1ea1n": 438,
    "\u2581th\u1eed": 439,
    "\u2581vi\u1ebft": 440,
    "\u2581\u0111\u00e2u": 441,
    "\u2581di": 442,
    "\u2581ki\u1ebfn": 443,
    "\u2581nguy\u00ean": 444,
    "\u2581ch\u1ee9c": 445,
    "\u2581qu\u1ed1c": 446,
    "\u2581chi\u1ebf": 447,
    "\u2581N\u1ebf": 448,
    "\u2581b\u00e0": 449,
    "\u2581v\u1eddi": 450,
    "\u2581t\u01b0": 451,
    "\u2581ch\u1ecdn": 452,
    "\u2581ch\u1ebf": 453,
    "\u2581\u1ee9ng": 454,
    "\u2581quy\u1ec1n": 455,
    "\u2581ba": 456,
    "\u2581gi\u1ea3n": 457,
    "\u2581\u0111\u1eb7c": 458,
    "\u2581th\u1ecb": 459,
    "\u2581L": 460,
    "\u2581ph": 461,
    "\u00e1nh": 462,
    "\u2581ph\u00e1": 463,
    "\u2581ch\u1ebft": 464,
    "\u2581b\u00e0o": 465,
    "\u2581m\u1ea1ng": 466,
    "\u2581c\u1ea5p": 467,
    "\u2581suy": 468,
    "\u2581khu": 469,
    "\u2581tri\u1ec7u": 470,
    "\u2581t\u0103ng": 471,
    "\u2581th\u1ea7n": 472,
    "\u2581\u0111\u1ea1o": 473,
    "\u2581l\u1ebd": 474,
    "\u2581s\u0129": 475,
    "\u00e2n": 476,
    "\u2581h\u00e3": 477,
    "\u1eafc": 478,
    "\u2581v\u1ee5": 479,
    "\u2581m\u1eb9": 480,
    "\u2581\u0111\u00e1nh": 481,
    "\u2581s": 482,
    "\u2581g\u1eb7p": 483,
    "\u2581th\u00e1ng": 484,
    "\u2581Th\u1ebf": 485,
    "\u2581d\u01b0\u1edbi": 486,
    "\u2581m\u00e0u": 487,
    "\u2581c\u1ee5": 488,
    "\u2581xu\u1ed1ng": 489,
    "\u2581ch\u00fat": 490,
    "\u2581x\u00e1c": 491,
    "\u2581g\u1eafng": 492,
    "\u2581ph\u00e9p": 493,
    "\u2581nh\u00f3m": 494,
    "\u2581\u00e1n": 495,
    "\u2581d\u1ecbch": 496,
    "\u2581m\u1edf": 497,
    "\u2581xu": 498,
    "\u2581v\u1ef1c": 499,
    "\u2581quanh": 500,
    "\u2581d\u1eef": 501,
    "\u2581%": 502,
    "\u2581tr\u00f2": 503,
    "\u2581chia": 504,
    "\u2581th\u00eam": 505,
    "\u2581bay": 506,
    "\u2581\u0111\u00e0n": 507,
    "\u2581thuy\u1ebft": 508,
    "\u2581t\u1ed5": 509,
    "\u2581m\u1ee9c": 510,
    "\u2581nhanh": 511,
    "\u2581H\u00e3": 512,
    "\u1ed1i": 513,
    "\u2581d\u1ea1ng": 514,
    "\u2581r\u00f5": 515,
    "\u2581c\u1ef1c": 516,
    "\u2581g\u00e2y": 517,
    "\u2581quay": 518,
    "\u2581v\u1ecdng": 519,
    "\u2581ngu\u1ed3n": 520,
    "\u2581xa": 521,
    "\u2581d\u00f9": 522,
    "\u2581v\u00f9ng": 523,
    "\u2581duy": 524,
    "\u2581\u0111\u1eb9p": 525,
    "\u2581b\u00e1o": 526,
    "\u2581c\u1ea3nh": 527,
    "\u2581t\u1ee5c": 528,
    "\u258110": 529,
    "\u2581gi\u00e1c": 530,
    "\u2581s\u00e1t": 531,
    "\u2581d\u1ec5": 532,
    "\u2581c\u00e0ng": 533,
    "\u2581\u0111\u1ee7": 534,
    "\u2581v\u00ed": 535,
    "\u2581nh\u1edb": 536,
    "\u2581ph\u00eda": 537,
    "\u2581v\u0169": 538,
    "\u2581phim": 539,
    "\u2581trang": 540,
    "\u2581s\u1ee3": 541,
    "\u1eafp": 542,
    "\u2581h\u01b0\u1edfng": 543,
    "\u2581c\u00e2y": 544,
    "\u2581\u0111o\u1ea1n": 545,
    "\u00ean": 546,
    "\u2581ch\u00fa": 547,
    "h\u00f4m": 548,
    "\u2581...": 549,
    "\u2581ki\u1ec3m": 550,
    "\u2581tr\u00e1i": 551,
    "tham": 552,
    "\u2581Qu\u1ed1c": 553,
    "\u2581th\u01b0\u01a1ng": 554,
    "\u2581k\u00ec": 555,
    "\u2581\u00d4ng": 556,
    "\u2581d\u00e0i": 557,
    "\u2581Nh": 558,
    "\u2581v\u00f2ng": 559,
    "\u2581th\u01b0": 560,
    "\u2581ng\u1eef": 561,
    "\u2581lu\u1eadn": 562,
    "\u2581ph\u1ea3n": 563,
    "\u2581Trung": 564,
    "\u2581so": 565,
    "\u2581\u0111\u1ea7y": 566,
    "\u2581\u0111\u00f4i": 567,
    "\u00e3y": 568,
    "\u2581d\u1ee5c": 569,
    "\u2581l\u1ee3i": 570,
    "\u2581kia": 571,
    "\u2581gi\u1ea3m": 572,
    "\u2581Tro": 573,
    "hi\u1ebfc": 574,
    "\u2581thu\u1ed1c": 575,
    "\u2581ki\u1ebfm": 576,
    "\u2581ch\u00e2n": 577,
    "\u2581g": 578,
    "\u2581t\u00edch": 579,
    "\u2581tr\u0103m": 580,
    "\u2581b\u1ed1": 581,
    "\u2581th\u00f4i": 582,
    "\u2581\u0111\u00ecnh": 583,
    "\u1ea7m": 584,
    "\u2581b\u01b0\u1edbc": 585,
    "ong": 586,
    "\u2581giao": 587,
    "\u2581Ng\u01b0\u1eddi": 588,
    "\u2581lai": 589,
    "\u2581s\u00e2u": 590,
    "\u2581\u0110i\u1ec1": 591,
    "\u2581\u0111\u00e1": 592,
    "\u2581to\u00e1n": 593,
    "\u2581tr\u1eddi": 594,
    "\u2581t\u1ed3n": 595,
    "\u2581di\u1ec7n": 596,
    "\u2581s\u01b0": 597,
    "\u2581tr\u1ea3i": 598,
    "\u2581gi\u1eef": 599,
    "\u2581r\u1ed9ng": 600,
    "\u2581quy": 601,
    "\u2581ph\u1ee5c": 602,
    "\u2581thanh": 603,
    "\u2581tr\u1ee5": 604,
    "i\u1ec3u": 605,
    "\u2581\u0111\u1ecba": 606,
    "\u2581\u0111o\u00e1n": 607,
    "\u1ec1n": 608,
    "\u2581n\u1ed1i": 609,
    "\u2581nh": 610,
    "\u1eb1m": 611,
    "\u2581l\u00f2ng": 612,
    "\u2581ty": 613,
    "\u2581kho\u1ea3n": 614,
    "\u2581\u0111\u00f4": 615,
    "\u2581thu\u1ed9c": 616,
    "\u2581ri\u00eang": 617,
    "\u2581t\u1ea1p": 618,
    "\u2581v\u1ec7": 619,
    "\u2581kh\u1ecf": 620,
    "\u2581!": 621,
    "\u2581m\u1eaft": 622,
    "\u2581m\u1ee5c": 623,
    "\u2581ph\u1ee7": 624,
    "\u2581d\u1ea1y": 625,
    "\u2581\u0111\u1ee9ng": 626,
    "\u2581n\u1ed5i": 627,
    "\u2581th\u00ed": 628,
    "\u2581v\u1ebb": 629,
    "pos": 630,
    "\u2581\u0111\u1ea1t": 631,
    "\u2581sai": 632,
    "\u2581k\u1ef9": 633,
    "\u2581lu\u1eadt": 634,
    "\u2581c\u0103n": 635,
    "\u2581th\u00fac": 636,
    "\u2581l\u1ec7": 637,
    "\u2581chi": 638,
    "\u2581s\u1ebb": 639,
    "\u2581m\u1eabu": 640,
    "\u2581Tr": 641,
    "\u2581l\u1ecbch": 642,
    "\u2581t\u1ed1i": 643,
    "\u258120": 644,
    "\u2581b\u00e0n": 645,
    "\u1ee9a": 646,
    "\u2581\u0111\u1ecdc": 647,
    "\u2581l\u1edbp": 648,
    "\u2581k\u1ef7": 649,
    "\u2581y\u1ebfu": 650,
    "\u00e1i": 651,
    "\u2581Th": 652,
    "\u2581vui": 653,
    "\u2581B\u1edf": 654,
    "\u2581kho\u1ebb": 655,
    "\u2581tra": 656,
    "\u2581ng\u1ed3i": 657,
    "\u2581ch\u1ea1y": 658,
    "\u2581ch\u01b0\u01a1ng": 659,
    "\u2581ti\u1ebft": 660,
    "\u2581g\u00e1i": 661,
    "\u2581ph\u00fat": 662,
    "\u2581c\u1eadu": 663,
    "\u0103m": 664,
    "\u2581cu\u1ed1n": 665,
    "\u2581tr\u1ee3": 666,
    "\u1ebfu": 667,
    "\u2581C\u00e1": 668,
    "\u2581ph\u00ed": 669,
    "\u2581m\u1ed1i": 670,
    "\u1eadn": 671,
    "\u2581bu\u1ed5i": 672,
    "\u2581s\u1eafc": 673,
    "\u2581ch\u1eafn": 674,
    "\u2581h\u1ea7u": 675,
    "\u2581su\u1ed1t": 676,
    "\u2581Phi": 677,
    "\u2581C\u1ea3": 678,
    "\u2581ki\u1ec7n": 679,
    "--": 680,
    "\u2581tr\u00fac": 681,
    "\u1ea7u": 682,
    "\u2581bi\u1ec3n": 683,
    "\u25815": 684,
    "\u2581ng\u00f4n": 685,
    "\u2581chung": 686,
    "e": 687,
    "\u2581mua": 688,
    "\u2581doanh": 689,
    "\u2581la": 690,
    "\u2581ki\u1ec3u": 691,
    "\u2581ho\u00e0": 692,
    "\u2581V\u00e2ng": 693,
    "\u25814": 694,
    "\u2581t\u1ec9": 695,
    "\u00e0o": 696,
    "\u2581ng\u1ea1c": 697,
    "\u2581c\u1eeda": 698,
    "\u2581s\u1edf": 699,
    "\u2581L\u00e0": 700,
    "\u2581thi\u00ean": 701,
    "\u2581x\u00fac": 702,
    "\u2581x\u00e9t": 703,
    "\u2581kh\u00e1m": 704,
    "\u2581c\u00e1nh": 705,
    "\u2581b\u00e1n": 706,
    "\u2581R": 707,
    "\u2581r\u00e0ng": 708,
    "\u2581l\u00e2u": 709,
    "\u2581tho\u1ea1i": 710,
    "\u2581tu\u1ea7n": 711,
    "\u2581hi\u1ec3m": 712,
    "\u2581h\u1ed3i": 713,
    "\u2581D": 714,
    "\u2581Sau": 715,
    "\u2581l\u1ea1": 716,
    "\u2581c\u1ea5u": 717,
    "\u2581nhi\u1ec7m": 718,
    "\u2581t\u1ed1": 719,
    "\u2581ph\u1ee9c": 720,
    "\u2581k\u00edch": 721,
    "\u1ee5c": 722,
    "\u1ec3": 723,
    "h\u1eb3ng": 724,
    "\u2581ch\u1ee5p": 725,
    "\u2581cung": 726,
    "\u2581chuy\u00ean": 727,
    "\u2581nh\u1eadp": 728,
    "\u1ede": 729,
    "\u2581b\u00f3ng": 730,
    "\u2581k\u1ebb": 731,
    "ung": 732,
    "\u2581c\u1ea1nh": 733,
    "\u2581n\u1ec1": 734,
    "\u2581th\u00e1i": 735,
    "\u1ed1c": 736,
    "\u2581TED": 737,
    "\u2581ch\u1ee9": 738,
    "\u2581vi\u1ec7n": 739,
    "\u2581h\u1eefu": 740,
    "\u2581\u0111\u1ed9c": 741,
    "\u2581b\u0103ng": 742,
    "\u2581ch\u1ed7": 743,
    "\u2581ng\u00e0nh": 744,
    "\u2581ghi": 745,
    "\u2581tr\u01b0\u1edfng": 746,
    "\u2581\u0111a": 747,
    "\u2581da": 748,
    "\u2581ho\u1ea1": 749,
    "\u2581kh\u1ee7ng": 750,
    "\u2581v\u1ebd": 751,
    "\u1eady": 752,
    "\u1ef1": 753,
    "\u2581phi": 754,
    "\u2581xin": 755,
    "\u2581chu\u1ea9n": 756,
    "\u1eadp": 757,
    "\u2581C\u00f4": 758,
    "\u2581qu\u00fd": 759,
    "\u2581ph\u00fac": 760,
    "\u2581b\u00e1c": 761,
    "\u2581thi\u1ebfu": 762,
    "\u2581ch\u1ecbu": 763,
    "\u2581kh\u0103n": 764,
    "\u2581K": 765,
    "\u2581\u00edch": 766,
    "\u00f9ng": 767,
    "i\u1ec5n": 768,
    "\u2581l\u1eafng": 769,
    "\u2581Xi": 770,
    "\u2581h\u1ec1": 771,
    "\u2581xanh": 772,
    "\u2581khi\u1ebf": 773,
    "\u2581s\u1eb5n": 774,
    "\u2581t\u1ea5m": 775,
    "\u0103n": 776,
    "\u2581ni\u1ec7m": 777,
    "\u2581ph\u1ea1m": 778,
    "\u2581t\u1ec7": 779,
    "\u2581nhi\u00eau": 780,
    "h\u1eafc": 781,
    "\u2581t\u1ee9c": 782,
    "\u2581hoa": 783,
    "\u2581\u0111\u1ee9": 784,
    "\u2581to": 785,
    "\u0129": 786,
    "\u2581\u0110\u1ed9": 787,
    "\u2581T\u1ea1": 788,
    "\u2581\u0111au": 789,
    "\u2581s\u1eafp": 790,
    "\u01a1i": 791,
    "\u2581trai": 792,
    "\u2581Gi\u1edd": 793,
    "\u2581h\u01a1i": 794,
    "\u2581b\u1ea5": 795,
    "\u2581Th\u1ef1c": 796,
    "\u2581dung": 797,
    "\u2581m\u1eb7c": 798,
    "\u2581l\u1ea1c": 799,
    "\u2581ch\u1ed1ng": 800,
    "\u2581Th\u1ead": 801,
    "\u2581\u00e1p": 802,
    "\u2581x\u1eed": 803,
    "\u2581ch\u00e2u": 804,
    "\u2581cha": 805,
    "\u2581Ch": 806,
    "\u2581lo": 807,
    "\u2581th\u1ea5t": 808,
    "\u2581l\u1ef1a": 809,
    "\u2581tr\u1ef1c": 810,
    "\u2581k\u00e9": 811,
    "1": 812,
    "\u2581h\u1eadu": 813,
    "\u2581ban": 814,
    "\u2581l\u00ed": 815,
    "\u1eebng": 816,
    "\u2581h\u1ed9": 817,
    "\u2581d\u00e0n": 818,
    "\u2581b\u00e1nh": 819,
    "\u2581an": 820,
    "\u2581n\u1ed9i": 821,
    "\u2581t\u1ed5ng": 822,
    "\u1eafm": 823,
    "\u2581kh\u1eafc": 824,
    "\u2581m\u1eadt": 825,
    "\u2581x\u1ea5u": 826,
    "\u2581to\u00e0": 827,
    "\u2581t\u1ef7": 828,
    "\u2581\u0111\u1ed9i": 829,
    "\u2581g\u1eed": 830,
    "\u2581d\u1ea7n": 831,
    "\u2581c\u1ed5": 832,
    "\u258130": 833,
    "\u2581nguy": 834,
    "\u1eeba": 835,
    "\u2581v\u1ead": 836,
    "\u2581thi\u1ec7n": 837,
    "\u2581h\u1ee9ng": 838,
    "ao": 839,
    "\u2581h\u1ea1t": 840,
    "\u00e2u": 841,
    "\u2581\u1ea9n": 842,
    "\u2581qu": 843,
    "\u2581tim": 844,
    "\u1ebfn": 845,
    "\u2581kh\u1ed5": 846,
    "\u2581l\u01b0u": 847,
    "\u2581tr\u1ea1": 848,
    "\u2581danh": 849,
    "\u2581th\u1ead": 850,
    "\u2581nhi\u1ec7t": 851,
    "\u2581chi\u1ec1u": 852,
    "\u2581ca": 853,
    "\u1ea5u": 854,
    "\u2581d\u1ea7u": 855,
    "\u2581ni\u1ec1": 856,
    "\u2581h\u1ea1": 857,
    "\u2581l\u00e3": 858,
    "\u2581ngh\u00e8o": 859,
    "\u2581t\u1ed9i": 860,
    "\u1ea3y": 861,
    "\u2581ngo\u1ea1i": 862,
    "\u2581n\u1ea1n": 863,
    "\u2581c\u1eadn": 864,
    "\u2581d\u00f2": 865,
    "\u2581k\u00ednh": 866,
    "\u2581ch\u1eefa": 867,
    "h\u1eadm": 868,
    "\u2581Ch\u00e2u": 869,
    "\u2581d\u1ea5u": 870,
    "\u2581\u0111\u1ea5u": 871,
    "\u2581Do": 872,
    "\u2581nghi": 873,
    "\u1ea7n": 874,
    "ch": 875,
    "\u1ea1i": 876,
    "\u2581n\u1ed7i": 877,
    "\u2581New": 878,
    "\u0103ng": 879,
    "\u1ea5y": 880,
    "\u2581th\u1ee7": 881,
    "\u2581may": 882,
    "\u2581th\u00e1ch": 883,
    "\u00e0": 884,
    "\u258150": 885,
    "\u2581\u0111en": 886,
    "\u1eaft": 887,
    "\u2581h\u00e1t": 888,
    "\u2581gi\u1ea5y": 889,
    "\u2581ng\u01b0\u1ee3c": 890,
    "\u2581t\u1eafc": 891,
    "\u2581nu\u00f4i": 892,
    "\u2581x\u00e2": 893,
    "\u2581ch\u1eef": 894,
    "\u2581qu\u1ea3n": 895,
    "\u2581100": 896,
    "\u2581kh\u00e1ch": 897,
    "\u2581so\u00e1t": 898,
    "\u2581v\u01b0\u1ee3": 899,
    "\u2581b\u1ea1i": 900,
    "\u2581hy": 901,
    "\u25816": 902,
    "\u2581k\u00ea": 903,
    "\u2581l\u0129nh": 904,
    "\u2581n\u1eeda": 905,
    "\u2581l\u1ed7i": 906,
    "\u2581t\u1ea3": 907,
    "\u2581ng\u1ee7": 908,
    "\u2581T\u00e2y": 909,
    "\u2581ho\u1ea1ch": 910,
    "\u2581ti\u1ec7n": 911,
    "\u2581m\u01a1": 912,
    "\u2581Con": 913,
    "\u2581g\u1ed3m": 914,
    "\u2581nhi\u1ec5m": 915,
    "\u2581ngh\u1ecb": 916,
    "\u1edfi": 917,
    "\u2581d\u01b0\u01a1ng": 918,
    "\u2581c\u01b0": 919,
    "\u2581khi\u1ec3n": 920,
    "\u2581s\u00f3c": 921,
    "\u2581c\u1eaft": 922,
    "\u2581gi\u1ebft": 923,
    "\u2581gi": 924,
    "\u2581quen": 925,
    "\u2581h\u1ea1i": 926,
    "\u2581gi\u00e0": 927,
    "\u2581\u0111\u00f3ng": 928,
    "\u2581qu\u00e2n": 929,
    "\u2581th\u1eb3ng": 930,
    "\u2581c\u1eed": 931,
    "\u2581G": 932,
    "\u2581t\u00e0u": 933,
    "\u2581ng\u1edd": 934,
    "\u2581\u01b0\u1edbc": 935,
    "\u2581d\u00e2y": 936,
    "\u2581v\u1eeb": 937,
    "\u2581l\u01b0\u1edbi": 938,
    "\u2581\u0111\u00edch": 939,
    "\u2581b\u00e0y": 940,
    "\u2581nh\u1edd": 941,
    "\u2581Ch\u1ec9": 942,
    "\u2581chi\u1ebfu": 943,
    "\u2581;": 944,
    "\u2581\u0111\u1ee9c": 945,
    "\u2581m\u00e3": 946,
    "\u2581th\u1ea5p": 947,
    "\u2581m\u00ea": 948,
    "\u2581tr\u1eeb": 949,
    "\u2581Ph": 950,
    "\u2581\u0111\u1ed5": 951,
    "\u2581\u0111\u00eam": 952,
    "\u2581c\u01b0\u1eddi": 953,
    "\u1ea9y": 954,
    "\u2581ni\u00ean": 955,
    "\u2581l\u00e1i": 956,
    "\u2581ph\u00f3ng": 957,
    "\u1ea5n": 958,
    "\u00e0nh": 959,
    "\u2581khai": 960,
    "\u2581s\u00e0ng": 961,
    "\u2581d\u00e0ng": 962,
    "\u2581x\u1ebfp": 963,
    "\u2581ng\u1eafn": 964,
    "\u00fang": 965,
    "\u1ed7i": 966,
    "\u2581g\u1ed1c": 967,
    "\u2581r\u1ed1i": 968,
    "\u2581\u0111\u00f4ng": 969,
    "\u2581thi": 970,
    "\u2581k\u1ec9": 971,
    "\u2581g\u1ea5p": 972,
    "\u2581kho\u00e1": 973,
    "\u2581phong": 974,
    "\u2581\u0111em": 975,
    "\u2581\u0111\u1ee1": 976,
    "\u2581m\u00f9": 977,
    "\u2581h\u1ed3": 978,
    "\u1eb1ng": 979,
    "\u2581b\u1ea1o": 980,
    "\u2581l\u1eafm": 981,
    "\u2581gi\u00e2y": 982,
    "\u00ed": 983,
    "\u2581tr\u00e1ch": 984,
    "\u2581g\u1eafn": 985,
    "\u2581vai": 986,
    "\u2581\u00f4": 987,
    "\u2581c\u00e1o": 988,
    "\u2581ng\u00e0n": 989,
    "\u2581b\u1ed1n": 990,
    "\u2581\u0111\u1ee3i": 991,
    "\u2581th\u1ee5": 992,
    "\u2581\u0111o": 993,
    "\u2581R\u1ed3": 994,
    "\u2581b\u00ed": 995,
    "\u2581xuy\u00ean": 996,
    "\u2581h\u00e0i": 997,
    "\u2581ch\u1ecb": 998,
    "\u2581nh\u1ea3y": 999,
    "\u01b0\u1eddng": 1000,
    "\u01b0\u1edbc": 1001,
    "\u2581chuy\u1ebfn": 1002,
    "rong": 1003,
    "\u2581si\u00eau": 1004,
    "\u2581d\u1eebng": 1005,
    "\u2581&#9": 1006,
    "\u2581t\u00f4n": 1007,
    "\u00e2m": 1008,
    "\u2581tho\u1ea3": 1009,
    "\u2581m\u00f3n": 1010,
    "\u2581&#93;": 1011,
    "\u2581k\u00fd": 1012,
    "\u2581B\u00e0": 1013,
    "\u2581lao": 1014,
    "\u2581t\u1ea7ng": 1015,
    "\u258115": 1016,
    "\u2581\u0111\u1ea3m": 1017,
    "\u2581sa": 1018,
    "\u2581t\u00f9": 1019,
    "\u2581chim": 1020,
    "\u1ea5p": 1021,
    "\u2581ph\u1ed5": 1022,
    "\u2581video": 1023,
    "\u2581Tuy": 1024,
    "\u2581t\u1ea3i": 1025,
    "ang": 1026,
    "V\u1edbi": 1027,
    "\u01b0a": 1028,
    "\u2581h\u1ea5p": 1029,
    "inh": 1030,
    "\u2581r\u1eebng": 1031,
    "\u2581nh\u1eafc": 1032,
    "i\u1ebfc": 1033,
    "\u00f2n": 1034,
    "\u2581Nam": 1035,
    "\u1ea9n": 1036,
    "\u2581nghi\u00ea": 1037,
    "\u2581X": 1038,
    "\u2581l\u00e1": 1039,
    "\u2581g\u00f3c": 1040,
    "\u2581Internet": 1041,
    "\u2581l\u1ed9": 1042,
    "\u2581Ai": 1043,
    "\u2581\u1ea3o": 1044,
    "\u2581t\u00e1": 1045,
    "\u1eabu": 1046,
    "\u2581l\u1ed3": 1047,
    "\u2581th\u1ea3i": 1048,
    "\u2581ch\u1ec9nh": 1049,
    "\u2581h\u1ed9p": 1050,
    "\u2581\u0111\u1ed1": 1051,
    "\u2581h\u00fat": 1052,
    "\u2581luy\u1ec7n": 1053,
    "\u00f9": 1054,
    "\u2581\u0110\u01b0\u1ee3c": 1055,
    "\u2581gen": 1056,
    "\u2581khu\u00f4n": 1057,
    "\u2581nam": 1058,
    "\u2581th\u01a1": 1059,
    "\u1ea3i": 1060,
    "\u2581\u1ed5n": 1061,
    "\u2581Hi\u1ec7": 1062,
    "\u2581t\u00edn": 1063,
    "\u2581gi\u00e0u": 1064,
    "\u2581chu\u1ed9t": 1065,
    "\u2581ma": 1066,
    "\u2581Ta": 1067,
    "\u1ed1ng": 1068,
    "\u2581c\u1eadp": 1069,
    "\u2581li\u1ec7t": 1070,
    "\u2581\u0111\u1ecf": 1071,
    "\u2581coi": 1072,
    "\u2581Cho": 1073,
    "on": 1074,
    "\u2581Hoa": 1075,
    "\u2581ph\u1eadn": 1076,
    "\u2581tuy\u1ebfn": 1077,
    "r\u1eddi": 1078,
    "\u2581th\u1eafng": 1079,
    "\u00e1m": 1080,
    "\u2581ch\u1eb3": 1081,
    "\u2581t\u1ea5n": 1082,
    "\u1eabn": 1083,
    "\u1ea3o": 1084,
    "\u2581l\u00e3n": 1085,
    "i\u00eau": 1086,
    "\u2581Ch\u00faa": 1087,
    "\u2581y": 1088,
    "\u2581n\u1eb7ng": 1089,
    "\u2581\u0111\u1ea3o": 1090,
    "\u2581bu\u1ed3n": 1091,
    "\u2581m\u1ec1m": 1092,
    "\u2581d\u1eady": 1093,
    "\u1ec1": 1094,
    "\u2581h\u1eb3n": 1095,
    "\u2581York": 1096,
    "\u2581ch\u1ee9a": 1097,
    "\u2581v\u00e2n": 1098,
    "\u2581hu\u1ef7": 1099,
    "\u2581T\u1eeb": 1100,
    "\u2581B\u1eafc": 1101,
    "\u1ea3nh": 1102,
    "\u2581m\u1ea5y": 1103,
    "\u2581m\u1ea1ch": 1104,
    "\u2581quy\u1ec3n": 1105,
    "\u1eefng": 1106,
    "\u2581m\u00f4n": 1107,
    "\u2581ch\u00f3ng": 1108,
    "\u2581m\u1ebd": 1109,
    "\u2581bu\u1ed9c": 1110,
    "\u2581\u0111i\u1ec3n": 1111,
    "\u2581d\u01b0\u1ee1ng": 1112,
    "\u2581s\u00f3ng": 1113,
    "\u2581m\u00e1u": 1114,
    "\u2581c\u0169": 1115,
    "\u2581s\u01a1": 1116,
    "\u2581linh": 1117,
    "\u2581C\u00f4ng": 1118,
    "\u2581nhu": 1119,
    "\u2581kh\u00e1n": 1120,
    "\u1ebb": 1121,
    "\u2581d\u00f5i": 1122,
    "r": 1123,
    "\u2581h\u00e3i": 1124,
    "\u2581v\u0129": 1125,
    "\u2581K\u1ef3": 1126,
    "\u2581robot": 1127,
    "\u1eadt": 1128,
    "\u2581200": 1129,
    "\u2581lo\u1ea1n": 1130,
    "\u2581ch\u1edd": 1131,
    "\u00ednh": 1132,
    "uy\u00ean": 1133,
    "\u2581t\u1ed3i": 1134,
    "\u25817": 1135,
    "\u2581t\u1ea3ng": 1136,
    "\u2581l\u1ea7m": 1137,
    "\u2581Th\u1ee9": 1138,
    "\u2581u\u1ed1ng": 1139,
    "\u2581ch\u1ee7ng": 1140,
    "\u2581\u0111i\u00ean": 1141,
    "\u2581v\u1eefng": 1142,
    "\u2581m\u1eafn": 1143,
    "\u00e9o": 1144,
    "\u2581g\u00f3p": 1145,
    "\u2581lan": 1146,
    "\u2581th\u01b0\u1edfng": 1147,
    "\u2581m\u00e0n": 1148,
    "eo": 1149,
    "\u1ebft": 1150,
    "\u1eb7t": 1151,
    "\u25818": 1152,
    "\u258140": 1153,
    "\u2581s\u1eeda": 1154,
    "\u1eefa": 1155,
    "\u2581t\u01b0\u1eddng": 1156,
    "\u00e1p": 1157,
    "\u2581\u0111\u00e8n": 1158,
    "\u258112": 1159,
    "\u2581l\u1ea1nh": 1160,
    "\u2581A": 1161,
    "i\u1ebft": 1162,
    "\u25819": 1163,
    "\u2581tr\u1eafng": 1164,
    "\u2581\u1ee7ng": 1165,
    "\u2581t\u1ed9c": 1166,
    "\u2581m\u00e1i": 1167,
    "\u00e3": 1168,
    "\u2581l\u1eabn": 1169,
    "an": 1170,
    "\u2581t\u1ed5n": 1171,
    "\u2581\u0111\u1ec9nh": 1172,
    "\u2581Ng": 1173,
    "\u2581di\u1ec7u": 1174,
    "\u2581n\u00fai": 1175,
    "\u2581du": 1176,
    "\u1edf": 1177,
    "\u2581web": 1178,
    "\u2581b\u1ea3ng": 1179,
    "\u2581t\u1edd": 1180,
    "i\u1ebfn": 1181,
    "\u1ed1n": 1182,
    "\u2581tr\u00ec": 1183,
    "\u2581\u0110\u00f4ng": 1184,
    "\u2581gi\u1ecdng": 1185,
    "\u2581ti\u1ec3u": 1186,
    "\u2581tr\u1eadn": 1187,
    "\u2581b\u1ec1": 1188,
    "\u2581tr\u1ed3ng": 1189,
    "\u2581gi\u1ecfi": 1190,
    "\u2581qu\u00ean": 1191,
    "\u1ea5m": 1192,
    "\u1eddi": 1193,
    "\u2581H\u1ed3i": 1194,
    "\u2581\u1ed1ng": 1195,
    "\u2581ch\u1ea1m": 1196,
    "\u2581t\u1ed1n": 1197,
    "h\u1eadp": 1198,
    "\u2581m\u00e3i": 1199,
    "\u2581h\u1ea3o": 1200,
    "\u2581kim": 1201,
    "\u2581c\u1ee1": 1202,
    "\u2581khu\u1ea9n": 1203,
    "u\u1ed5i": 1204,
    "\u2581ch\u00f3": 1205,
    "\u2581c\u1ea7m": 1206,
    "\u2581b\u1ec1n": 1207,
    "\u2581b\u1eadt": 1208,
    "\u2581in": 1209,
    "\u2581ph\u1ea5n": 1210,
    "\u1ee9c": 1211,
    "\u2581\u00e1o": 1212,
    "\u2581s\u00e1nh": 1213,
    "\u2581ph\u1eab": 1214,
    "\u2581bi\u1ec3": 1215,
    "\u2581ngh\u1ec9": 1216,
    "\u2581nh\u00e9": 1217,
    "h\u1ea5p": 1218,
    "\u2581ch\u1ea5m": 1219,
    "\u1ecfng": 1220,
    "\u2581\u0110\u1ea1i": 1221,
    "i\u00ean": 1222,
    "\u2581v\u1ee3": 1223,
    "\u2581ti\u1ec1": 1224,
    "\u2581kh\u00edch": 1225,
    "\u0169ng": 1226,
    "\u2581qu\u1ea7n": 1227,
    "\u2581m\u1eddi": 1228,
    "\u2581l\u1eeda": 1229,
    "\u2581v\u1ee1": 1230,
    "k": 1231,
    "\u2581gh\u1ebf": 1232,
    "\u2581bang": 1233,
    "\u1ebd": 1234,
    "\u2581\u0111i\u1ec7u": 1235,
    "\u2581h\u1ed7": 1236,
    "\u2581h\u00e0o": 1237,
    "\u2581x\u01b0\u01a1ng": 1238,
    "l": 1239,
    "\u2581Tr\u00e1": 1240,
    "\u2581n\u1ed5": 1241,
    "\u2581\u0111\u1eebng": 1242,
    "\u2581d\u01b0\u1eddng": 1243,
    "\u2581t\u00f4": 1244,
    "\u2581\u1ea5n": 1245,
    "\u2581kh\u1ea9u": 1246,
    "\u2581k\u1ecbch": 1247,
    "\u2581th\u1ecbt": 1248,
    "h\u00ecn": 1249,
    "\u2581r\u00fat": 1250,
    "\u2581ph\u1ed1i": 1251,
    "\u2581s\u00f3t": 1252,
    "\u2581ch\u1ea3y": 1253,
    "\u2581gi\u00f3": 1254,
    "\u2581bi\u00ean": 1255,
    "\u2581t\u00e1ch": 1256,
    "\u2581s\u1edbm": 1257,
    "\u1ecfi": 1258,
    "\u2581P": 1259,
    "\u1ea3m": 1260,
    "\u2581ho\u1ea3ng": 1261,
    "\u2581tho\u00e1t": 1262,
    "\u2581lo\u1ea1t": 1263,
    "\u2581b\u00e8": 1264,
    "\u2581Qu": 1265,
    "\u2581ch\u1ed3ng": 1266,
    "\u1ec5": 1267,
    "\u2581kh\u1ee9": 1268,
    "\u2581h\u1ed5": 1269,
    "\u2581d\u0129": 1270,
    "\u2581ch\u1eadm": 1271,
    "\u2581s\u1ea1ch": 1272,
    "in": 1273,
    "i\u1ebfng": 1274,
    "\u00e0ng": 1275,
    "\u2581M\u00e0": 1276,
    "\u2581c\u00e0": 1277,
    "hi\u1ebfn": 1278,
    "\u2581gi\u1ea5c": 1279,
    "\u00e1y": 1280,
    "\u2581chu": 1281,
    "\u01a1n": 1282,
    "\u2581Ba": 1283,
    "\u2581t\u00e0n": 1284,
    "\u2581t\u1eaft": 1285,
    "\u2581l\u1eb7p": 1286,
    "\u2581Nga": 1287,
    "\u2581su\u1ea5t": 1288,
    "\u1eb3ng": 1289,
    "i\u1ec7u": 1290,
    "\u2581qu\u1ef9": 1291,
    "\u2581n\u00f3ng": 1292,
    "\u00fd": 1293,
    "\u2581l\u1ed7": 1294,
    "\u00eau": 1295,
    "\u258118": 1296,
    "\u258125": 1297,
    "\u2581ph\u00ea": 1298,
    "\u2581tr\u01b0ng": 1299,
    "\u2581t\u00fai": 1300,
    "\u1ed1t": 1301,
    "\u2581ng\u1ea1i": 1302,
    "\u2581Google": 1303,
    "\u1ec7t": 1304,
    "u\u1ed7i": 1305,
    "\u2581tr\u1eef": 1306,
    "\u258180": 1307,
    "ia": 1308,
    "\u2581h\u00f4n": 1309,
    "\u2581nguy\u1ec7n": 1310,
    "\u2581s\u00f4ng": 1311,
    "\u2581d\u1eb7m": 1312,
    "en": 1313,
    "\u2581tr\u1ea1i": 1314,
    "\u2581ch\u00e1": 1315,
    "\u2581ki\u1ec7m": 1316,
    "\u2581Vi\u1ec7": 1317,
    "\u00e9p": 1318,
    "\u2581t\u00e1n": 1319,
    "\u2581th\u01b0\u1edbc": 1320,
    "\u2581Hay": 1321,
    "\u00e1u": 1322,
    "\u2581s\u1ef9": 1323,
    "\u2581hi": 1324,
    "\u2581c\u1edd": 1325,
    "\u2581nh\u1eb9": 1326,
    "\u2581nh\u1eafn": 1327,
    "\u2581b\u01a1i": 1328,
    "\u2581v\u1ecf": 1329,
    "\u258111": 1330,
    "\u2581th\u00f9": 1331,
    "\u2581gh\u00e9p": 1332,
    "\u00e1c": 1333,
    "\u1ed9t": 1334,
    "\u00f5": 1335,
    "\u2581nh\u1ecb": 1336,
    "\u258160": 1337,
    "2": 1338,
    "\u2581Thu": 1339,
    "\u2581th\u0103m": 1340,
    "\u2581Gi": 1341,
    "\u2581b\u1edd": 1342,
    "\u2581th\u1edf": 1343,
    "\u2581\u0111e": 1344,
    "\u1ed3ng": 1345,
    "\u2581th\u1ea3m": 1346,
    "\u2581n\u1ed7": 1347,
    "\u2581l\u1eb7ng": 1348,
    "\u2581bi": 1349,
    "\u1eb7c": 1350,
    "i\u1ec7p": 1351,
    "\u2581b\u1ecdn": 1352,
    "\u2581nh\u1eadt": 1353,
    "\u2581I": 1354,
    "\u1ee3": 1355,
    "\u2581s\u00e1u": 1356,
    "\u2581t\u00e0ng": 1357,
    "\u2581Hai": 1358,
    "\u2581r\u1ebb": 1359,
    "\u2581m\u1ecf": 1360,
    "\u2581l\u1ecdc": 1361,
    "\u2581Nh\u1eadt": 1362,
    "\u2581B\u1ea3n": 1363,
    "\u2581E": 1364,
    "\u2581J": 1365,
    "\u1ebfp": 1366,
    "xoay": 1367,
    "\u2581tr\u1ed1ng": 1368,
    "\u2581h\u00f9ng": 1369,
    "hi\u1ec3n": 1370,
    "\u1ef1c": 1371,
    "h\u1ecfi": 1372,
    "\u2581b\u00f2": 1373,
    "\u2581\u0110\u1ea5t": 1374,
    "i\u1ec7n": 1375,
    "\u2581g\u1ee3": 1376,
    "\u2581tr\u00f2n": 1377,
    "er": 1378,
    "\u2581\u0111\u1eb3ng": 1379,
    "\u2581voi": 1380,
    "\u2581do\u1ea1": 1381,
    "\u2581Li\u1ec7": 1382,
    "\u2581B\u1ed9": 1383,
    "\u2581m\u00f9i": 1384,
    "\u1ecbch": 1385,
    "\u2581\u01b0u": 1386,
    "\u00f3i": 1387,
    "ay": 1388,
    "sang": 1389,
    "\u2581s\u00e2": 1390,
    "\u2581h\u00e0": 1391,
    "\u2581\u0111am": 1392,
    "\u2581ch\u1eb7n": 1393,
    "\u2581\u0111\u1ef1ng": 1394,
    "\u2581r\u00e1c": 1395,
    "\u2581gh\u00e9": 1396,
    "\u2581th\u1eeba": 1397,
    "d": 1398,
    "\u01b0\u1ee3c": 1399,
    "\u2581t\u1ee5": 1400,
    "\u2581th\u1ea3": 1401,
    "\u1edbi": 1402,
    "\u2581th\u00e1c": 1403,
    "\u00edch": 1404,
    "\u2581\u0111o\u00e0n": 1405,
    "\u2581HIV": 1406,
    "anh": 1407,
    "\u2581Theo": 1408,
    "\u2581n\u00e9": 1409,
    "\u01b0\u1ee3ng": 1410,
    "\u0169": 1411,
    "ua": 1412,
    "\u2581nhu\u1eadn": 1413,
    "\u2581M\u1eb7": 1414,
    "\u1ea1o": 1415,
    "\u2581\u0111\u1ea1p": 1416,
    "\u2581ch\u1eaf": 1417,
    "\u258119": 1418,
    "\u2581\u0110\u1ee9c": 1419,
    "\u2581d\u1ecb": 1420,
    "\u2581l\u01b0\u1ee3c": 1421,
    "\u2581nh\u1ef1a": 1422,
    "h\u01b0ng": 1423,
    "\u2581c\u00e3i": 1424,
    "\u2581N\u00e0o": 1425,
    "ai": 1426,
    "\u2581D\u00f9": 1427,
    "\u2581\u0111\u1ebf": 1428,
    "\u2581tai": 1429,
    "\u2581kh\u1ea5u": 1430,
    "A": 1431,
    "\u2581thang": 1432,
    "\u2581m\u1ed9": 1433,
    "\u258190": 1434,
    "\u2581s\u1ed1t": 1435,
    "\u2581\u0111\u00f2": 1436,
    "\u00ecnh": 1437,
    "\u1eb7p": 1438,
    "\u2581ngo\u00e1i": 1439,
    "\u2581can": 1440,
    "\u2581Cu\u1ed1": 1441,
    "hi\u1ec7u": 1442,
    "\u2581h\u00e8": 1443,
    "\u00e9t": 1444,
    "h\u1ea3o": 1445,
    "\u2581Em": 1446,
    "\u2581t\u1eadt": 1447,
    "\u2581m\u1eebng": 1448,
    "\u0110\u1ea7u": 1449,
    "\u2581tr\u00e0n": 1450,
    "\u2581di\u1ec7t": 1451,
    "\u2581d\u00e0": 1452,
    "\u2581ngang": 1453,
    "\u2581v\u00fa": 1454,
    "\u2581xo\u00e1": 1455,
    "\u00e1ch": 1456,
    "\u2581thao": 1457,
    "\u2581s\u1ed5": 1458,
    "\u00f9a": 1459,
    "\u2581gi\u1ea3ng": 1460,
    "\u2581quang": 1461,
    "\u2581ngh": 1462,
    "\u258170": 1463,
    "\u2581ch\u00e9p": 1464,
    "\u2581thai": 1465,
    "\u2581y\u00ean": 1466,
    "\u2581\u0111\u00f9a": 1467,
    "\u2581m\u1ea1i": 1468,
    "ra": 1469,
    "\u2581N\u00ea": 1470,
    "\u2581tri": 1471,
    "\u2581t\u1ecf": 1472,
    "\u2581vong": 1473,
    "\u2581th\u1eadn": 1474,
    "\u2581tr\u00f9": 1475,
    "\u00f2ng": 1476,
    "\u2581bom": 1477,
    "\u2581m\u1eadp": 1478,
    "\u2581m\u1ef1c": 1479,
    "\u2581Ho": 1480,
    "\u2581\u0111\u00f3i": 1481,
    "\u2581ADN": 1482,
    "\u2581s\u00fang": 1483,
    "\u2581ko": 1484,
    "\u1ea9m": 1485,
    "\u2581ch\u00e1n": 1486,
    "\u2581b\u1eafn": 1487,
    "i\u1ec7t": 1488,
    "\u2581ti\u00eam": 1489,
    "\u2581tr\u00e0o": 1490,
    "u\u1ed9c": 1491,
    "\u2581Tron": 1492,
    "\u2581ng\u1ecdn": 1493,
    "\u2581M\u1eb9": 1494,
    "\u2581m\u00e2y": 1495,
    "\u2581m\u00f3c": 1496,
    "\u2581hi\u1ebfm": 1497,
    "\u2581k\u00ed": 1498,
    "\u00f4": 1499,
    "\u2581l\u1eeba": 1500,
    "\u2581Ph\u00e1p": 1501,
    "\u2581li\u1ec1n": 1502,
    "\u2581B\u1eb1ng": 1503,
    "\u2581h\u01b0\u01a1ng": 1504,
    "\u2581g\u1ed7": 1505,
    "\u2581d\u1ed1i": 1506,
    "\u2581khuy\u1ebf": 1507,
    "\u2581c\u1ee9ng": 1508,
    "\u2581cam": 1509,
    "\u2581t\u01b0\u01a1": 1510,
    "\u2581th\u1edd": 1511,
    "\u1ed3i": 1512,
    "\u2581\u0111ua": 1513,
    "\u1ee1": 1514,
    "\u2581b\u00e9o": 1515,
    "\u00ea": 1516,
    "\u1ed9i": 1517,
    "\u2581th\u1ea7y": 1518,
    "\u00e0i": 1519,
    "u\u1ef3": 1520,
    "r\u01b0\u1edbc": 1521,
    "\u2581b\u1eadc": 1522,
    "\u2581m\u1ea1c": 1523,
    "\u2581l\u0169": 1524,
    "\u2581Th\u00e1i": 1525,
    "h\u00e0ng": 1526,
    "\u2581ng\u01b0\u1ee1ng": 1527,
    "\u2581\u00f3c": 1528,
    ",000": 1529,
    "\u2581khung": 1530,
    "\u2581ngu": 1531,
    "o\u1eb7c": 1532,
    "\u2581r\u01b0\u1ee3u": 1533,
    "\u2581c\u0103ng": 1534,
    "\u2581ho\u00e0ng": 1535,
    "\u2581John": 1536,
    "\u2581thuy\u1ec1n": 1537,
    "\u2581H\u00e0": 1538,
    "hay": 1539,
    "\u2581\u00e1m": 1540,
    "D": 1541,
    "\u2581t\u00e1o": 1542,
    "ta": 1543,
    "\u258116": 1544,
    "\u2581nh\u0169ng": 1545,
    "\u00f3m": 1546,
    "\u2581m\u00e9t": 1547,
    "\u2581che": 1548,
    "\u2581h\u1ed7n": 1549,
    "\u2581v\u00e2ng": 1550,
    "\u2581L\u00fa": 1551,
    "\u2581h\u1ed1i": 1552,
    "\u00e0y": 1553,
    "\u2581m\u00ec": 1554,
    "\u2581c\u00f4n": 1555,
    "son": 1556,
    "\u2581c\u1ecf": 1557,
    "\u2581ng\u00f3n": 1558,
    "\u2581Iran": 1559,
    "\u2581kh\u00f4": 1560,
    "hu\u1ef7": 1561,
    "\u1ee5p": 1562,
    "\u2581c\u00e1t": 1563,
    "\u2581Ph\u1ea3": 1564,
    "\u2581n\u00fat": 1565,
    "\u2581t\u1ec9nh": 1566,
    "\u2581b\u00f3": 1567,
    "\u2581Afghanistan": 1568,
    "\u2581Al": 1569,
    "\u2581truy": 1570,
    "\u2581ong": 1571,
    "la": 1572,
    "\u2581d\u00e3": 1573,
    "\u2581David": 1574,
    "\u2581\u0111\u1eafn": 1575,
    "\u2581h\u1ed3n": 1576,
    "\u2581x\u1ee9": 1577,
    "\u2581m\u1ea1o": 1578,
    "\u2581h\u1eafn": 1579,
    "\u2581ki\u00ean": 1580,
    "\u2581c\u1ea3n": 1581,
    "\u2581ng\u1eeb": 1582,
    "\u2581kh\u1edf": 1583,
    "\u2581g\u1ecdn": 1584,
    "\u2581protein": 1585,
    "\u2581t\u00f2": 1586,
    "\u2581m\u0169i": 1587,
    "\u2581t\u00fac": 1588,
    "\u2581m\u00f2": 1589,
    "\u2581song": 1590,
    "\u2581d\u01b0": 1591,
    "\u2581c\u1ed7": 1592,
    "\u2581gi\u1eadn": 1593,
    "\u2581thi\u1ec3u": 1594,
    "\u2581tr\u1ee9ng": 1595,
    "\u00fac": 1596,
    "\u2581p": 1597,
    "\u2581th\u1ea1ch": 1598,
    "\u2581th\u1ecd": 1599,
    "u\u1ea5n": 1600,
    "us": 1601,
    "\u2581khi\u1ebfp": 1602,
    "\u2581h\u00f4": 1603,
    "\u2581thi\u1ec7p": 1604,
    "\u2581tha": 1605,
    "\u2581d\u00e0y": 1606,
    "te": 1607,
    "\u2581l\u1ed9n": 1608,
    "\u2581Ng\u00e0": 1609,
    "\u2581xong": 1610,
    "u\u1ef7": 1611,
    "\u2581c\u1ee5t": 1612,
    "\u2581TV": 1613,
    "\u2581ph\u00e1n": 1614,
    "\u2581ph\u00f3": 1615,
    "\u2581truy\u1ec7n": 1616,
    "\u2581h\u01b0\u1edbc": 1617,
    "\u2581th\u00e1nh": 1618,
    "\u2581t\u00f3c": 1619,
    "\u1ef1a": 1620,
    "\u2581r\u1ee7": 1621,
    "\u01b0\u1edfng": 1622,
    "\u2581nh\u1ea5": 1623,
    "\u2581x\u01b0a": 1624,
    "\u258121": 1625,
    "\u2581mai": 1626,
    "\u2581ng\u00f4": 1627,
    "\u2581d\u1ecdc": 1628,
    "\u00e0m": 1629,
    "\u2581r\u0103ng": 1630,
    "\u258114": 1631,
    "\u2581r\u01b0\u1ee1i": 1632,
    "\u2581m\u00e1t": 1633,
    "\u2581\u0111\u00e0i": 1634,
    "\u2581n\u01a1": 1635,
    ".000": 1636,
    "\u2581mi\u1ec1n": 1637,
    "\u00e2ng": 1638,
    "\u2581b\u1ea1c": 1639,
    "\u2581\u0111\u0129a": 1640,
    "\u2581t\u1eb7ng": 1641,
    "\u2581C\u01a1": 1642,
    "\u1ecdc": 1643,
    "\u2581Sa": 1644,
    "\u2581c\u1ed9t": 1645,
    "\u2581g\u01b0\u01a1ng": 1646,
    "\u2581Y": 1647,
    "\u01b0\u1eddi": 1648,
    "\u2581v\u01b0\u1eddn": 1649,
    "\u2581huy\u1ebft": 1650,
    "\u2581x\u1ea1": 1651,
    "\u2581r\u1ed3": 1652,
    "\u2581nh\u1ec9": 1653,
    "\u2581W": 1654,
    "\u2581tr\u1ed9n": 1655,
    "\u2581qu\u00ea": 1656,
    "\u2581ng\u00e0i": 1657,
    "\u2581m\u00e3n": 1658,
    "\u2581Israel": 1659,
    "\u2581c\u00fa": 1660,
    "\u258117": 1661,
    "\u2581ti": 1662,
    "\u2581kh\u1ed1": 1663,
    "\u2581Lan": 1664,
    "\u2581d\u00ednh": 1665,
    "\u2581kh\u00f3c": 1666,
    "\u2581mi\u1ec7ng": 1667,
    "ho\u1ea3ng": 1668,
    "\u2581\u0111\u1edbn": 1669,
    "\u2581l\u1ebb": 1670,
    "es": 1671,
    "\u2581tu\u1ec7": 1672,
    "\u2581kho": 1673,
    "\u2581g\u00e0": 1674,
    "\u2581than": 1675,
    "ron": 1676,
    "\u2581\u0111\u1ea9": 1677,
    "\u2581h\u1eb9n": 1678,
    "\u2581l\u00e0nh": 1679,
    "\u2581Gi\u00e1o": 1680,
    "\u2581l\u1ecfng": 1681,
    "\u2581huy": 1682,
    "\u2581ng\u1ea7m": 1683,
    "\u2581game": 1684,
    "\u2581Facebook": 1685,
    "\u2581b\u1eafc": 1686,
    "\u2581b\u1ecd": 1687,
    "\u2581vu\u00f4ng": 1688,
    "\u1eadm": 1689,
    "\u2581\u0111\u1eadu": 1690,
    "\u1ea9u": 1691,
    "\u2581ph\u1ed5i": 1692,
    "\u2581thu\u1ead": 1693,
    "\u2581l\u00e3o": 1694,
    "\u2581b\u1ea1ch": 1695,
    "\u258113": 1696,
    "\u2581Ban": 1697,
    "\u2581ro": 1698,
    "\u2581kh\u1eaf": 1699,
    "\u2581H\u00f4": 1700,
    "\u2581\u1ea5m": 1701,
    "\u2581C\u1ef1c": 1702,
    "\u1eadu": 1703,
    "\u2581California": 1704,
    "\u2581b\u1ed5": 1705,
    "\u2581M\u0129": 1706,
    "\u2581DNA": 1707,
    "\u2581pin": 1708,
    "\u2581c\u01b0\u1eddng": 1709,
    "\u2581c\u1ed1c": 1710,
    "g\u00e0y": 1711,
    "hi\u1ec7p": 1712,
    "\u258124": 1713,
    "\u2581h\u1eb1ng": 1714,
    "\u2581500": 1715,
    "\u2581tho\u1ea3ng": 1716,
    "\u2581The": 1717,
    "\u2581leo": 1718,
    "\u2581n\u01b0\u1edbng": 1719,
    "u\u00e2n": 1720,
    "\u2581h\u1ee9a": 1721,
    "\u2581ng\u00e3": 1722,
    "\u1ea1ng": 1723,
    "\u2581su": 1724,
    "\u2581\u0111\u1ea3ng": 1725,
    "\u1ef7": 1726,
    "\u2581h\u1ea1ng": 1727,
    "\u2581tuy": 1728,
    "\u2581gi\u00e0y": 1729,
    "r\u00ean": 1730,
    "\u2581Kinh": 1731,
    "\u2581g\u00e3": 1732,
    "\u2581bu\u00f4n": 1733,
    "\u2581n\u00e9t": 1734,
    "\u2581Gia": 1735,
    "\u2581OK": 1736,
    "\u2581\u1ed5": 1737,
    "\u00eam": 1738,
    "\u2581ch\u0103ng": 1739,
    "\u2581Kh\u00e1n": 1740,
    "\u2581ho\u1ea1i": 1741,
    "\u2581\u1ee9c": 1742,
    "\u2581l\u01b0ng": 1743,
    "\u2581b\u1ed9t": 1744,
    "\u2581r\u00f4": 1745,
    "\u2581tuy\u1ebft": 1746,
    "\u2581m\u1ebb": 1747,
    "\u2581Chris": 1748,
    "\u2581t\u0129nh": 1749,
    "man": 1750,
    "\u2581B\u1ed1": 1751,
    "uy\u1ec3n": 1752,
    "\u2581v\u1eafc": 1753,
    "\u1ea3ng": 1754,
    "\u2581m\u00e8o": 1755,
    "\u1ee5": 1756,
    "\u2581k\u00e8m": 1757,
    "\u2581qu\u00e0": 1758,
    "\u2581x\u00ed": 1759,
    "el": 1760,
    "hi\u1ebfp": 1761,
    "\u2581t\u00ed": 1762,
    "\u2581Nh\u00e2n": 1763,
    "\u2581d\u00e1n": 1764,
    "\u2581Gi\u00e1": 1765,
    "\u2581b\u1ee5ng": 1766,
    "\u2581tr\u0103ng": 1767,
    "\u2581g\u00f3i": 1768,
    "\u2581r\u01a1": 1769,
    "h\u0103m": 1770,
    "v": 1771,
    "\u01b0\u1ee3t": 1772,
    "h\u1eadt": 1773,
    "\u2581San": 1774,
    "\u2581Mexico": 1775,
    "\u2581blog": 1776,
    "\u2581l\u0103n": 1777,
    "\u2581tu": 1778,
    "\u2581K\u1ebf": 1779,
    "\u1ee3i": 1780,
    "\u2581email": 1781,
    "\u2581gi\u1ea5u": 1782,
    "\u1edd": 1783,
    "\u2581t\u00e1m": 1784,
    "\u2581O": 1785,
    "\u25812000": 1786,
    "\u2581tr\u1ea7n": 1787,
    "\u2581th\u1ed5": 1788,
    "huy\u1ec7n": 1789,
    "\u2581m\u1edd": 1790,
    "\u2581va": 1791,
    "\u2581d\u1ee9t": 1792,
    "\u2581Canada": 1793,
    "\u2581C\u1ead": 1794,
    "\u2581ti\u1ec7c": 1795,
    "\u2581Bill": 1796,
    "\u2581qu\u00e1n": 1797,
    "\u1ed7": 1798,
    "C": 1799,
    "\u2581qu\u00e1i": 1800,
    "\u2581l\u1ec7nh": 1801,
    "\u2581phi\u1ec1n": 1802,
    "ton": 1803,
    "\u2581ch\u00ecm": 1804,
    "\u2581tr\u1ed1n": 1805,
    "\u00f3c": 1806,
    "\u2581l\u1eb7n": 1807,
    "\u2581h\u1ed1": 1808,
    "\u2581Brazil": 1809,
    "\u2581h\u1ecfng": 1810,
    "\u2581b\u00e3o": 1811,
    "\u2581s\u00e0n": 1812,
    "\u2581c\u1ef1": 1813,
    "\u2581san": 1814,
    "\u2581T\u1ed5": 1815,
    "\u2581ng\u1ecdt": 1816,
    "\u2581ngon": 1817,
    "\u2581c\u1ee5m": 1818,
    "\u2581gi\u01a1": 1819,
    "\u2581AIDS": 1820,
    "\u2581Kenya": 1821,
    "\u2581m\u1ed3": 1822,
    "\u2581b\u1ee5": 1823,
    "h\u1ea3i": 1824,
    "\u2581b\u00e3": 1825,
    "\u2581m\u1ec7nh": 1826,
    "\u2581qu\u00ed": 1827,
    "\u2581virus": 1828,
    "\u2581\u0110i\u1ec3n": 1829,
    "\u2581S\u1ed1": 1830,
    "quang": 1831,
    "\u00f4m": 1832,
    "\u2581th\u1ea5": 1833,
    "\u2581Tr\u01b0\u1eddng": 1834,
    "9": 1835,
    "\u2581c\u00fam": 1836,
    "\u2581F": 1837,
    "\u2581Paul": 1838,
    "\u2581thu\u1ebf": 1839,
    "\u2581v\u00f2": 1840,
    "\u2581t\u1ecb": 1841,
    "\u2581hu\u1ed1": 1842,
    "\u2581ph\u00ec": 1843,
    "\u2581C\u1ee9": 1844,
    "\u2581D\u1ef1": 1845,
    "h\u1ec9nh": 1846,
    "\u2581h\u01b0": 1847,
    "\u2581ch\u1ee3": 1848,
    "\u2581and": 1849,
    "\u2581tr\u01b0a": 1850,
    "\u2581London": 1851,
    "\u1ea1m": 1852,
    "\u1ea1ch": 1853,
    "\u2581s\u1eefa": 1854,
    "\u2581d\u00e1ng": 1855,
    "\u2581Kh": 1856,
    "\u2581300": 1857,
    "\u2581h\u00e0m": 1858,
    "\u2581t\u1ea1": 1859,
    "\u2581R\u1eadp": 1860,
    "S": 1861,
    "\u2581pha": 1862,
    "\u2581ch\u1ed1": 1863,
    "\u2581tu\u00fd": 1864,
    "\u2581heo": 1865,
    "\u2581kh\u1ec9": 1866,
    "\u2581hang": 1867,
    "\u2581Ti\u1ebfp": 1868,
    "\u2581r\u00e9t": 1869,
    "\u2581Gi\u1ea3": 1870,
    "\u2581tung": 1871,
    "\u2581ng\u1eafm": 1872,
    "\u2581k\u1ecb": 1873,
    "\u2581c\u1ea5m": 1874,
    "h\u1ea9m": 1875,
    "\u2581khoan": 1876,
    "\u2581Hy": 1877,
    "\u2581La": 1878,
    "i\u00eam": 1879,
    "\u2581mu\u1ed7i": 1880,
    "ley": 1881,
    "\u2581c\u01b0\u1edbi": 1882,
    "\u2581Iraq": 1883,
    "\u2581Ch\u1ee7": 1884,
    "\u2581l\u01b0\u1edbt": 1885,
    "\u2581r\u00e3i": 1886,
    "\u01b0\u1edbng": 1887,
    "\u2581tr\u00e0": 1888,
    "\u1eafn": 1889,
    "\u2581CO": 1890,
    "\u2581kh\u00f4n": 1891,
    "\u2581George": 1892,
    "\u2581th\u00e1p": 1893,
    "\u2581tr\u01b0\u1ee3t": 1894,
    "\u00e1o": 1895,
    "\u2581nh\u1eabn": 1896,
    "3": 1897,
    "i\u1ec7c": 1898,
    "\u2581ph\u00fa": 1899,
    "\u1ec1u": 1900,
    "\u2581s\u1ee9": 1901,
    "\u2581Thi\u00ean": 1902,
    "\u2581ng\u1ed1c": 1903,
    "\u2581k\u00edn": 1904,
    "\u2581feet": 1905,
    "\u2581H\u00e0n": 1906,
    "\u2581ng\u1eadp": 1907,
    "\u2581s\u01a1n": 1908,
    "\u2581th\u00e1m": 1909,
    "h\u00e0nh": 1910,
    "\u00e1t": 1911,
    "\u2581say": 1912,
    "x": 1913,
    "\u2581cu\u1ed9": 1914,
    ",": 1915,
    "\u2581t\u01b0\u1edbng": 1916,
    "\u2581GDP": 1917,
    "h\u00ednh": 1918,
    "\u2581im": 1919,
    "\u2581x\u00f3m": 1920,
    "\u2581ch\u00e2m": 1921,
    "\u2581nh\u00e3n": 1922,
    "\u2581ly": 1923,
    "\u2581ch\u1ea5": 1924,
    "\u2581n\u1ed1t": 1925,
    "\u2581l\u00f2": 1926,
    "apo": 1927,
    "\u2581Bao": 1928,
    "\u2581Twitter": 1929,
    "\u2581kh\u1edbp": 1930,
    "\u2581\u0111\u00e0": 1931,
    "\u2581gi\u00e1n": 1932,
    "\u1ed9ng": 1933,
    "ore": 1934,
    "\u2581m\u1eaf": 1935,
    "\u1ee7": 1936,
    "\u2581co": 1937,
    "\u2581t\u1ee7": 1938,
    "\u2581Ch\u00edn": 1939,
    "\u2581n\u1eafng": 1940,
    "\u2581n\u1edf": 1941,
    "\u2581ch\u00faa": 1942,
    "\u1ea1p": 1943,
    "\u2581H\u1ec7": 1944,
    "\u2581ph\u1ea1t": 1945,
    "\u2581to\u1ea3": 1946,
    "\u2581th\u00e1o": 1947,
    "\u2581ng\u01b0": 1948,
    "\u2581Ok": 1949,
    "\u2581sung": 1950,
    "\u2581th\u00ednh": 1951,
    "M": 1952,
    "\u01b0ng": 1953,
    "\u2581tr\u00fa": 1954,
    "\u2581thua": 1955,
    "\u1ee9ng": 1956,
    "ham": 1957,
    "\u2581m\u1ea1n": 1958,
    "\u2581tr\u00e1n": 1959,
    "\u1edbt": 1960,
    "\u2581m\u0169": 1961,
    "\u2581\u0111u\u00f4i": 1962,
    "\u2581Khoa": 1963,
    "\u2581t\u00e2n": 1964,
    "amp": 1965,
    "\u2581\u00d4i": 1966,
    "gh\u1ec7": 1967,
    "\u1ea7y": 1968,
    "0,000": 1969,
    "\u2581n\u00e2": 1970,
    "\u2581th\u00f4": 1971,
    "\u2581n\u1ecd": 1972,
    "\u2581Li\u00ea": 1973,
    "\u2581Cha": 1974,
    "\u2581qu\u00e1t": 1975,
    "by": 1976,
    "\u2581b\u1ed1t": 1977,
    "mera": 1978,
    "\u2581B\u00ecnh": 1979,
    "\u2581h\u1ea7m": 1980,
    "\u2581t\u00e2y": 1981,
    "\u2581nho": 1982,
    "\u2581n\u00e0ng": 1983,
    "\u2581Th\u00f4ng": 1984,
    "\u2581slide": 1985,
    "\u2581Einstein": 1986,
    "huy\u1ec1n": 1987,
    "\u2581ngh\u00ec": 1988,
    "em": 1989,
    "\u2581thu\u1eabn": 1990,
    "\u2581k\u1eb9": 1991,
    "\u2581v\u1edf": 1992,
    "\u2581Ti\u1ebfn": 1993,
    "\u2581T\u1ef1": 1994,
    "am": 1995,
    "o\u1ea3ng": 1996,
    "\u2581mu\u1ed9n": 1997,
    "\u00e1": 1998,
    "\u2581D\u01b0\u01a1ng": 1999,
    "\u2581nh\u1edf": 2000,
    "\u00edt": 2001,
    "\u2581150": 2002,
    "\u2581l\u00e1t": 2003,
    "u\u1ed1ng": 2004,
    "\u1eed": 2005,
    "\u2581400": 2006,
    "\u2581ho": 2007,
    "\u2581c\u00e2": 2008,
    "\u2581m\u1ef9": 2009,
    "\u2581l\u00f5": 2010,
    "\u2581H\u1ed9": 2011,
    "\u2581\u1ea1": 2012,
    "\u2581Ng\u00e0i": 2013,
    "\u2581Ph\u1ee5": 2014,
    "u\u1ed1t": 2015,
    "\u2581Ho\u1ea3": 2016,
    "\u2581tho\u00e1": 2017,
    "\u2581Tin": 2018,
    "\u2581b\u00fat": 2019,
    "\u2581ph\u1eb3ng": 2020,
    "\u2581ho\u1ea3": 2021,
    "\u2581Dan": 2022,
    "K": 2023,
    "\u2581ng\u1ef1c": 2024,
    "\u2581Ma": 2025,
    "\u2581Washington": 2026,
    "\u2581m\u00faa": 2027,
    "\u1ed5i": 2028,
    "\u2581carbon": 2029,
    "\u2581giam": 2030,
    "\u2581Qu\u00e1": 2031,
    "\u2581kh\u00fac": 2032,
    "\u2581Quan": 2033,
    "\u2581l\u00f9": 2034,
    "\u2581Nha": 2035,
    "\u2581tr\u1ea5n": 2036,
    "G": 2037,
    "\u2581Ben": 2038,
    "\u2581C\u1eadp": 2039,
    "u\u1ea7n": 2040,
    "\u2581th\u00f4n": 2041,
    "\u2581h\u00f2n": 2042,
    "\u2581T\u1ea5": 2043,
    "i\u1ebfp": 2044,
    "\u1ed5ng": 2045,
    "\u2581Ch\u00e0": 2046,
    "\u2581b\u00e1": 2047,
    "\u2581Na": 2048,
    "\u2581v\u00e0ng": 2049,
    "\u2581Nigeria": 2050,
    "\u2581Charles": 2051,
    "\u2581c\u1ee7": 2052,
    "\u2581websi": 2053,
    "al": 2054,
    "\u2581qu\u1ea1": 2055,
    "\u2581l\u00f4ng": 2056,
    "\u2581ph\u00e1i": 2057,
    "ch\u00eca": 2058,
    "\u2581internet": 2059,
    "\u00f3": 2060,
    "\u2581nghi\u1ec7n": 2061,
    "\u2581h\u01b0u": 2062,
    "\u2581Oh": 2063,
    "\u2581r\u00e1p": 2064,
    "\u1ecbnh": 2065,
    "r\u00e0o": 2066,
    "\u2581m\u1ecfi": 2067,
    "\u2581cong": 2068,
    "\u2581\u0111\u1edbi": 2069,
    "\u01a1": 2070,
    "\u2581H\u00ecnh": 2071,
    "\u2581Th\u1ed5": 2072,
    "\u2581Kh\u00e1": 2073,
    "\u2581l\u01b0\u1ee1ng": 2074,
    "\u2581nh\u1eb7t": 2075,
    "\u2581Joe": 2076,
    "\u1ee3t": 2077,
    "co": 2078,
    "\u2581cu\u1ed3ng": 2079,
    "\u1ed7ng": 2080,
    "\u2581v\u01b0\u01a1n": 2081,
    "\u2581T\u1ed1t": 2082,
    "0.000": 2083,
    "\u2581l\u1ee5": 2084,
    "\u2581MIT": 2085,
    "\u2581Nghe": 2086,
    "\u2581h\u1eb9p": 2087,
    "\u25812008": 2088,
    "\u25811000": 2089,
    "\u00e3i": 2090,
    "\u2581Adam": 2091,
    "\u1ef9": 2092,
    "\u2581gan": 2093,
    "J": 2094,
    "\u01b0\u1ee1ng": 2095,
    "\u2581r\u1eafn": 2096,
    "\u00f4n": 2097,
    "\u2581the": 2098,
    "\u2581Francis": 2099,
    "\u258135": 2100,
    "\u2581Los": 2101,
    "\u01b0u": 2102,
    "\u258145": 2103,
    "\u2581G\u1ea7": 2104,
    "\u1ecf": 2105,
    "\u2581h\u1ed3ng": 2106,
    "\u2581rung": 2107,
    "\u2581c\u1eebu": 2108,
    "\u2581b\u01a1": 2109,
    "\u2581r\u1eeda": 2110,
    "N": 2111,
    "\u2581\u0111oan": 2112,
    "\u1ea1n": 2113,
    "\u2581stress": 2114,
    "\u2581Pakistan": 2115,
    "\u2581\u0111\u00e1o": 2116,
    "\u2581t\u1ead": 2117,
    "\u2581v\u00e9": 2118,
    "\u2581Michael": 2119,
    "\u1ea1": 2120,
    "\u2581d\u1ebbo": 2121,
    "\u2581d\u1ea1o": 2122,
    "\u2581s\u1ea1n": 2123,
    "\u2581c\u1ea1n": 2124,
    "\u2581d\u00e2m": 2125,
    "\u2581\u0111\u1ed3i": 2126,
    "\u2581n\u1ea5": 2127,
    "b": 2128,
    "ine": 2129,
    "\u2581v\u1eb9n": 2130,
    "omas": 2131,
    "\u2581ga": 2132,
    "\u2581tr\u00f4": 2133,
    "4": 2134,
    "\u2581l\u1ec7ch": 2135,
    "h\u00e0": 2136,
    "\u2581gene": 2137,
    "\u2581\u0111\u1ed7": 2138,
    "\u2581nh\u1ea1": 2139,
    "gh\u1ec1": 2140,
    "\u2581cacbon": 2141,
    "\u2581PM": 2142,
    "\u2581l\u1ee3n": 2143,
    "\u2581l\u1eadn": 2144,
    "\u2581\u01b0": 2145,
    "T": 2146,
    "\u2581\u0111\u1ea1c": 2147,
    "\u2581Haiti": 2148,
    "\u1ee5t": 2149,
    "\u2581l\u1edd": 2150,
    "da": 2151,
    "th": 2152,
    "\u1ebf": 2153,
    "\u2581\u0110\u1ebf": 2154,
    "\u258175": 2155,
    "\u2581t\u1ea7n": 2156,
    "\u2581GPS": 2157,
    "\u2581manh": 2158,
    "\u2581d\u1ecdn": 2159,
    "\u2581bu\u00fdt": 2160,
    "\u2581k\u1eb9o": 2161,
    "\u2581non": 2162,
    "\u25812010": 2163,
    "r\u1ec5": 2164,
    "ba": 2165,
    "le": 2166,
    "\u2581ch\u00edn": 2167,
    "\u2581\u0110i": 2168,
    "\u2581Lo\u1ea1": 2169,
    "\u2581May": 2170,
    "ey": 2171,
    "\u2581\u1ed3n": 2172,
    "ie": 2173,
    "\u2581\u0111\u1ea1n": 2174,
    "\u2581b\u1eafp": 2175,
    "gay": 2176,
    "\u2581de": 2177,
    "\u2581kh\u00f3i": 2178,
    "\u2581m\u00f2n": 2179,
    "\u2581Kho\u1ea3n": 2180,
    "\u2581Dar": 2181,
    "\u2581v\u00e2y": 2182,
    "\u2581Robert": 2183,
    "\u2581h\u00f2": 2184,
    "\u2581..": 2185,
    "\u2581x\u00e1m": 2186,
    "di": 2187,
    "win": 2188,
    "\u2581l\u1ecd": 2189,
    "\u2581ch\u1eb7": 2190,
    "\u1ee9t": 2191,
    "\u2581c\u01b0\u1edb": 2192,
    "\u2581r\u1eadp": 2193,
    "h\u1ea1y": 2194,
    "\u2581s\u1ed1c": 2195,
    "\u2581Ch\u00fa": 2196,
    "com": 2197,
    "\u2581l\u0169ng": 2198,
    "\u2581L\u1ea1p": 2199,
    "\u2581d\u1edf": 2200,
    "\u2581bia": 2201,
    "\u2581Tuy\u1ec7t": 2202,
    "\u2581gi\u00e3": 2203,
    "\u2581Jame": 2204,
    "\u2581Richard": 2205,
    "v\u00e0": 2206,
    "\u2581d\u1ed1c": 2207,
    "\u2581long": 2208,
    "\u2581ch\u1ea3": 2209,
    "\u2581ch\u1eb3n": 2210,
    "\u2581vay": 2211,
    "\u2581ng\u1eeba": 2212,
    "\u2581ch\u0103n": 2213,
    "\u2581l\u00e0ng": 2214,
    "uy\u1ec1n": 2215,
    "\u2581ch\u00e0": 2216,
    "\u25810": 2217,
    "\u1ee5ng": 2218,
    "hai": 2219,
    "\u2581L\u1ea7": 2220,
    "\u2581Bang": 2221,
    "\u1ea1nh": 2222,
    "i\u1ec1n": 2223,
    "\u2581n\u00e1t": 2224,
    "\u2581amp": 2225,
    "\u2581l\u01b0\u1ee3t": 2226,
    "\u1ee3p": 2227,
    "\u00e1ng": 2228,
    "\u2581Xe": 2229,
    "ne": 2230,
    "\u2581C\u00e2": 2231,
    "\u2581Mark": 2232,
    "00": 2233,
    "ri": 2234,
    "\u2581tr\u00e1": 2235,
    "\u2581n\u00f4": 2236,
    "H": 2237,
    "\u2581iPhone": 2238,
    "\u1ef3": 2239,
    "\u2581v\u01b0\u1ee3ng": 2240,
    "\u2581Ngh\u0129": 2241,
    "land": 2242,
    "\u1eafng": 2243,
    "m\u1ed9t": 2244,
    "\u2581n\u1ea3n": 2245,
    "\u2581Talk": 2246,
    "\u25812007": 2247,
    "\u2581Da": 2248,
    "\u2581d\u1ed9i": 2249,
    "\u2581B\u00e1c": 2250,
    "\u2581Sinh": 2251,
    "\u2581Dere": 2252,
    "\u00e8o": 2253,
    "\u2581phi\u1ebf": 2254,
    "5": 2255,
    "\u2581NAS": 2256,
    "ED": 2257,
    "\u2581Di": 2258,
    "\u2581men": 2259,
    "\u2581\u0110a": 2260,
    "\u2581khuy": 2261,
    "\u258123": 2262,
    "\u00e1n": 2263,
    "\u2581mo": 2264,
    "\u2581pho": 2265,
    "\u2581v\u00f5": 2266,
    "o\u00e1": 2267,
    "\u2581nghi\u1ec7t": 2268,
    "\u2581x\u0103ng": 2269,
    "ice": 2270,
    "\u2581Obama": 2271,
    "\u2581x\u00e9": 2272,
    "\u2581b\u00eca": 2273,
    "\u2581b\u1edb": 2274,
    "u\u1ef9": 2275,
    "\u2581Cu\u1ed9": 2276,
    "R": 2277,
    "h\u1eed": 2278,
    "\u2581s\u00f4i": 2279,
    "\u2581\u0111\u00f3n": 2280,
    "\u2581Steve": 2281,
    "\u2581th\u1eb3": 2282,
    "\u2581b\u00f9": 2283,
    "\u00fat": 2284,
    "\u2581rau": 2285,
    "\u2581ru\u1ed3i": 2286,
    "\u2581l\u01a1": 2287,
    "\u2581s\u1ee5": 2288,
    "\u2581\u0111\u1ebd": 2289,
    "\u2581b\u00e1ch": 2290,
    "\u2581x\u00edch": 2291,
    "\u2581mu\u1ed1i": 2292,
    "\u2581ng\u00e2": 2293,
    "\u2581tr\u1ed9m": 2294,
    "\u2581hung": 2295,
    "\u2581l\u00faa": 2296,
    "\u1ed3n": 2297,
    "\u2581ham": 2298,
    "\u2581of": 2299,
    "\u2581Ho\u00e0": 2300,
    "\u2581Qu\u1ea3": 2301,
    "\u2581Qua": 2302,
    "\u2581h\u00f3c": 2303,
    "\u2581g\u0169i": 2304,
    "\u2581Martin": 2305,
    "\u2581Wikipedia": 2306,
    "\u2581van": 2307,
    "\u2581m\u01b0\u01a1i": 2308,
    "ma": 2309,
    "\u2581d\u1ea1": 2310,
    "\u2581l\u1eafc": 2311,
    "\u2581ph\u00e1c": 2312,
    "\u2581r\u0169": 2313,
    "\u2581ti\u1ec5n": 2314,
    "\u00fap": 2315,
    "\u2581t\u00edm": 2316,
    "\u2581m\u1ecdc": 2317,
    "\u2581thi\u1ec7": 2318,
    "hi\u1ec1u": 2319,
    "\u2581Li": 2320,
    "\u2581c\u01b0\u01a1ng": 2321,
    "\u2581Peter": 2322,
    "\u2581Harvard": 2323,
    "\u2581ng\u1eabm": 2324,
    "\u2581Big": 2325,
    "\u2581v\u00e1n": 2326,
    "\u2581An": 2327,
    "\u2581d\u1ed7": 2328,
    "\u2581\u1ebfch": 2329,
    "\u2581ch\u1ebd": 2330,
    "\u01b0": 2331,
    "\u2581Trans": 2332,
    "\u2581hacker": 2333,
    "\u2581Paris": 2334,
    "\u1eaby": 2335,
    "\u2581Ch\u1ecb": 2336,
    "rus": 2337,
    "ler": 2338,
    "\u2581ng\u1ea9n": 2339,
    "\u2581l\u1ec1": 2340,
    "as": 2341,
    "\u2581\u0111ai": 2342,
    "\u2581Mo": 2343,
    "\u2581\u00e1c": 2344,
    "\u1ea1t": 2345,
    "\u2581Gi\u1ecd": 2346,
    "\u2581v\u1ea3": 2347,
    "\u2581Angeles": 2348,
    "\u2581b\u1ea9n": 2349,
    "\u2581Lu\u1ead": 2350,
    "\u1ecb": 2351,
    "\u2581tr\u00e1ng": 2352,
    "\u2581h\u00e9t": 2353,
    "\u2581s\u1ecd": 2354,
    "\u2581nh\u01b0\u1eddng": 2355,
    "\u2581tan": 2356,
    "\u2581Eric": 2357,
    "ti": 2358,
    "\u2581nh\u1ea1t": 2359,
    "\u2581\u0110\u1ed3": 2360,
    "\u2581m\u1ec9": 2361,
    "To\u00e0n": 2362,
    "i\u1ec3m": 2363,
    "\u2581\u0110i\u1ec7n": 2364,
    "\u2581s\u00f4": 2365,
    "\u2581Sahara": 2366,
    "\u2581r\u1ed7ng": 2367,
    "\u2581ru\u1ed9": 2368,
    "\u2581phun": 2369,
    "\u2581s\u00e1o": 2370,
    "\u2581s\u1eafm": 2371,
    "\u2581b\u00e1m": 2372,
    "\u2581m\u1ebfn": 2373,
    "\u2581logic": 2374,
    "\u2581Nguy\u00ean": 2375,
    "\u2581\u1ed3": 2376,
    "\u1ec7nh": 2377,
    "\u2581nh\u1ec7n": 2378,
    "\u2581ng\u1ef1": 2379,
    "\u2581Tom": 2380,
    "\u2581l\u00e2n": 2381,
    "\u2581oh": 2382,
    "\u2581Nob": 2383,
    "\u2581l\u00e1nh": 2384,
    "hu\u00ea": 2385,
    "h\u1ed1i": 2386,
    "\u2581m\u1ed5": 2387,
    "\u2581Smith": 2388,
    "\u25812005": 2389,
    "l\u00e0": 2390,
    "\u2581micro": 2391,
    "\u2581v\u1ea1ch": 2392,
    "i\u1ebfm": 2393,
    "t\u00f4i": 2394,
    "\u2581v\u1ee5n": 2395,
    "aptop": 2396,
    "h\u1ec1": 2397,
    "h\u1ecdc": 2398,
    "\u2581---": 2399,
    "\u2581Amazon": 2400,
    "\u00f5i": 2401,
    "hi\u00ean": 2402,
    "\u2581l\u1ee1": 2403,
    "\u2581s\u00e9t": 2404,
    "\u2581r\u00e3": 2405,
    "h\u00e9p": 2406,
    "\u2581b\u00ea": 2407,
    "\u2581huynh": 2408,
    "\u2581phi\u00ea": 2409,
    "\u2581c\u1ecd": 2410,
    "\u1ec7": 2411,
    "\u2581qui": 2412,
    "\u2581To\u00e0": 2413,
    "\u01b0\u1ee3n": 2414,
    "\u2581v\u1edd": 2415,
    "\u2581Manhattan": 2416,
    "\u2581gi\u1ecd": 2417,
    "\u2581tivi": 2418,
    "\u2581S\u0129": 2419,
    "\u1ee7a": 2420,
    "o\u00e0i": 2421,
    "\u2581l\u00e9o": 2422,
    "\u2581inch": 2423,
    "\u2581hoan": 2424,
    "8": 2425,
    "\u2581oxytocin": 2426,
    "\u2581Alzheimer": 2427,
    "\u2581nano": 2428,
    "h\u1ecfng": 2429,
    "\u2581\u0111\u1ed9n": 2430,
    "\u00ec": 2431,
    "lo": 2432,
    "\u2581l\u0103ng": 2433,
    "\u2581El": 2434,
    "li": 2435,
    "nh\u1eefng": 2436,
    "\u01b0\u01a1i": 2437,
    "uy": 2438,
    "\u2581Chicago": 2439,
    "\u2581Rwanda": 2440,
    "\u258122": 2441,
    "\u2581ch\u1edbp": 2442,
    "\u2581Frank": 2443,
    "\u2581run": 2444,
    "\u2581Su": 2445,
    "\u2581bi\u1ec7": 2446,
    "\u2581t\u00ea": 2447,
    "\u2581chu\u00f4ng": 2448,
    "z": 2449,
    "h\u1ea1ch": 2450,
    "\u2581Gab": 2451,
    "\u2581hi\u1ec3": 2452,
    "\u2581T\u01b0": 2453,
    "\u2581r\u00ec": 2454,
    "\u25811990": 2455,
    "\u2581nhi\u1ec5u": 2456,
    "\u258127": 2457,
    "\u2581Quy": 2458,
    "ward": 2459,
    "\u2581Sub": 2460,
    "de": 2461,
    "\u2581ng\u1edb": 2462,
    "\u2581x\u1ec9": 2463,
    "\u2581Ph\u00e1": 2464,
    "\u2581T\u00e1c": 2465,
    "\u2581Tony": 2466,
    "\u2581S\u1eed": 2467,
    "\u2581x\u00e0": 2468,
    "\u2581Ch\u01b0a": 2469,
    "\u2581l\u1ed1": 2470,
    "\u2581k\u00eca": 2471,
    "h\u1eadn": 2472,
    "\u2581Chi\u1ebf": 2473,
    "ce": 2474,
    "\u2581Higg": 2475,
    "\u2581Coca": 2476,
    "\u2581ho\u00e3n": 2477,
    "\u2581lui": 2478,
    "\u2581\u0111\u00f4la": 2479,
    "\u2581kho\u0103n": 2480,
    "xin": 2481,
    "\u2581b\u1ed3i": 2482,
    "\u1ec9nh": 2483,
    "\u2581\u0111u\u1ed1i": 2484,
    "uy\u1ec7t": 2485,
    "\u2581b\u1ea3": 2486,
    "\u2581v\u1ecbnh": 2487,
    "L": 2488,
    "\u1ed5": 2489,
    "\u2581ph\u00f4": 2490,
    "\u2581g\u1eady": 2491,
    "u\u1ed1i": 2492,
    "\u2581Apple": 2493,
    "\u2581golf": 2494,
    "\u2581Web": 2495,
    "\u2581hydro": 2496,
    "hi\u1ebfu": 2497,
    "r\u1ebb": 2498,
    "\u2581ch\u00f4n": 2499,
    "\u2581MRI": 2500,
    "\u2581\u0111\u00fac": 2501,
    "\u2581r\u1ec9": 2502,
    "\u2581TEDx": 2503,
    "\u2581Nghi\u00ea": 2504,
    "\u2581nh\u00e0o": 2505,
    "\u1eb9p": 2506,
    "\u2581li": 2507,
    "\u2581m\u1ee1": 2508,
    "ch\u00fang": 2509,
    "\u00edn": 2510,
    "crip": 2511,
    "\u2581Gates": 2512,
    "ill": 2513,
    "\u2581Jer": 2514,
    "gh\u00ea": 2515,
    "h\u00e2n": 2516,
    "i\u1ec3n": 2517,
    "\u2581II": 2518,
    "\u2581Lo": 2519,
    "\u2581oxy": 2520,
    "\u2581Quay": 2521,
    "B": 2522,
    "h\u1eb1m": 2523,
    "tles": 2524,
    "\u2581000": 2525,
    "\u2581ti\u1ec7m": 2526,
    "\u2581ngoa": 2527,
    "\u2581b\u1ed3": 2528,
    "go\u00e0i": 2529,
    "\u2581ngh\u1ebdn": 2530,
    "\u2581Times": 2531,
    "c\u00f3": 2532,
    "\u2581ng\u1ee5": 2533,
    "\u2581Bos": 2534,
    "u\u1ed3ng": 2535,
    "\u258195": 2536,
    "\u00f3ng": 2537,
    "\u258199": 2538,
    "\u2581Latin": 2539,
    "\u2581Jim": 2540,
    "\u2581e": 2541,
    "ha": 2542,
    "\u1ed9p": 2543,
    "\u2581Koran": 2544,
    "\u25812004": 2545,
    "\u2581Okay": 2546,
    "\u2581m\u1ed9ng": 2547,
    "\u25812006": 2548,
    "\u2581gien": 2549,
    "\u2581Th\u00e1": 2550,
    "\u2581g\u00e3y": 2551,
    "\u1ec1m": 2552,
    "\u00ecn": 2553,
    "W": 2554,
    "\u2581Hans": 2555,
    "\u2581s\u00fap": 2556,
    "ike": 2557,
    "h\u1eddi": 2558,
    "\u2581b\u1ec3": 2559,
    "7": 2560,
    "\u2581b\u0103n": 2561,
    "\u2581Green": 2562,
    "\u258165": 2563,
    "\u2581K\u00ec": 2564,
    "i\u1ebfu": 2565,
    "\u25811970": 2566,
    "\u25811960": 2567,
    "\u2581Rio": 2568,
    "hi": 2569,
    "L\u1ea5y": 2570,
    "\u2581s\u01b0\u1edbng": 2571,
    "re": 2572,
    "\u2581que": 2573,
    "\u2581MT": 2574,
    "\u2581m\u1edb": 2575,
    "\u2581250": 2576,
    "\u2581Ho\u00e0n": 2577,
    "\u2581L\u1ea1": 2578,
    "\u1eb7ng": 2579,
    "oan": 2580,
    "dio": 2581,
    "\u2581lam": 2582,
    "\u2581quy\u1ebf": 2583,
    "od": 2584,
    "gom": 2585,
    "r\u00fat": 2586,
    "\u2581vaccine": 2587,
    "\u2581m\u1ea7m": 2588,
    "\u25812011": 2589,
    "\u2581ng\u1eed": 2590,
    "\u2581ch\u00e0y": 2591,
    "\u2581x\u00e1": 2592,
    "\u2581r\u1ed9n": 2593,
    "\u2581St": 2594,
    "h\u1ea7n": 2595,
    "\u2581l\u01b0\u1ee1": 2596,
    "\u1ebfm": 2597,
    "\u2581Van": 2598,
    "\u2581v\u1edb": 2599,
    "\u2581Henr": 2600,
    "c\u00f4": 2601,
    "\u2581Sam": 2602,
    "\u2581c\u1ed9": 2603,
    "\u2581Ra": 2604,
    "azz": 2605,
    "\u2581Yemen": 2606,
    "\u2581origami": 2607,
    "\u2581N\u00e3o": 2608,
    "\u2581g\u1ed1": 2609,
    "\u2581600": 2610,
    "O": 2611,
    "ar": 2612,
    "\u2581N\u1eef": 2613,
    "\u2581Kim": 2614,
    "een": 2615,
    "\u2581lu": 2616,
    "\u2581n\u00e0n": 2617,
    "ro": 2618,
    "\u2581khen": 2619,
    "\u2581th\u1eafn": 2620,
    "\u2581Man": 2621,
    "\u2581piano": 2622,
    "\u2581studio": 2623,
    "\u2581YouTube": 2624,
    "\u2581Lego": 2625,
    "\u2581Brian": 2626,
    "\u2581Congo": 2627,
    "\u2581b\u00faa": 2628,
    "\u2581N\u0103": 2629,
    "ner": 2630,
    "\u2581Khu": 2631,
    "&": 2632,
    "\u2581kem": 2633,
    "\u1ea3": 2634,
    "h\u01b0\u01a1ng": 2635,
    "\u2581kh\u00f9ng": 2636,
    "\u258128": 2637,
    "\u25813000": 2638,
    "\u2581k\u1ebd": 2639,
    "Cola": 2640,
    "\u2581x\u1ed9n": 2641,
    "\u2581ng\u1eab": 2642,
    "\u1ecdng": 2643,
    "\u2581s\u01b0\u1eddn": 2644,
    "\u2581ch\u00f3c": 2645,
    "ganda": 2646,
    "\u2581Ford": 2647,
    "\u2581Ghana": 2648,
    "\u2581Syria": 2649,
    "\u2581m\u1ea3n": 2650,
    "\u2581Tasmania": 2651,
    "clip": 2652,
    "\u258126": 2653,
    "one": 2654,
    "\u2581g\u1ea1t": 2655,
    "\u01b0\u1edbi": 2656,
    "\u2581So": 2657,
    "V": 2658,
    "o\u00e1n": 2659,
    "\u2581ch\u00edp": 2660,
    "\u2581r\u1ee1": 2661,
    "\u2581S\u00e1u": 2662,
    "uy\u1ebfn": 2663,
    "\u2581hu\u00fd": 2664,
    "\u2581Wall": 2665,
    "\u2581phe": 2666,
    "\u1ec7m": 2667,
    "\u2581ch\u00f9": 2668,
    "\u2581th\u01a1m": 2669,
    "\u2581Oxford": 2670,
    "\u2581Aristotle": 2671,
    "\u2581b\u01b0\u1edbm": 2672,
    "\u1eeda": 2673,
    "\u2581\u1ee7i": 2674,
    "\u1ed1": 2675,
    "h\u1ee3": 2676,
    "h\u00f4n": 2677,
    "\u2581cho\u00e1ng": 2678,
    "\u258110,000": 2679,
    "\u2581gai": 2680,
    "I": 2681,
    "\u2581\u0110\u1ecf": 2682,
    "\u2581120": 2683,
    "\u2581d\u1ecbu": 2684,
    "\u2581FG": 2685,
    "\u2581khan": 2686,
    "\u2581King": 2687,
    "\u2581Hi": 2688,
    "\u2581k\u1ec7": 2689,
    "kh\u00f4ng": 2690,
    "\u2581r\u1ed7i": 2691,
    "\u2581\u1ed1": 2692,
    "\u2581\u0110\u00f4": 2693,
    "\u2581ki\u1ec7": 2694,
    "est": 2695,
    "\u2581Go": 2696,
    "h\u1ee9c": 2697,
    "\u25811950": 2698,
    "\u2581Cambridge": 2699,
    "\u2581Microsoft": 2700,
    "\u1ebbo": 2701,
    "\u2581tr\u1ecdn": 2702,
    "\u2581Bush": 2703,
    "\u2581x\u00f4": 2704,
    "\u2581Ke": 2705,
    "h\u00e2m": 2706,
    "\u2581h\u00e0n": 2707,
    "\u1ebfch": 2708,
    "\u2581Tim": 2709,
    "\u2581v\u1ea7n": 2710,
    "\u2581k\u1ec1": 2711,
    "\u2581nha": 2712,
    "\u2581lau": 2713,
    "\u2581Jona": 2714,
    "\u2581NL": 2715,
    "\u1edbc": 2716,
    "\u2581loa": 2717,
    "\u2581r\u00e2u": 2718,
    "\u2581Josh": 2719,
    "\u00ecm": 2720,
    "\u2581Taliba": 2721,
    "h\u1ee7": 2722,
    "\u2581Gi\u1edbi": 2723,
    "\u2581u\u1ed1n": 2724,
    "\u2581l\u00f4": 2725,
    "\u2581Th\u01b0": 2726,
    "\u2581nh\u00e3": 2727,
    "\u2581ch\u00ec": 2728,
    "\u2581gi\u00e0n": 2729,
    "trong": 2730,
    "\u2581s\u1eaf": 2731,
    "len": 2732,
    "\u2581Flori": 2733,
    "E": 2734,
    "\u2581b\u1ebf": 2735,
    "SW": 2736,
    "ng\u01b0\u1eddi": 2737,
    "\u2581tr\u1ec5": 2738,
    "\u2581b\u00f3n": 2739,
    "30": 2740,
    "\u258185": 2741,
    "c\u1ee7a": 2742,
    "\u2581pizza": 2743,
    "\u2581Charlie": 2744,
    "\u2581Stanford": 2745,
    "hen": 2746,
    "\u2581\u0110\u1ecba": 2747,
    "\u2581man": 2748,
    "\u2581d\u1eb9p": 2749,
    "\u2581show": 2750,
    "\u2581ph\u1ed1t": 2751,
    "right": 2752,
    "h\u00ec": 2753,
    "\u1eb7n": 2754,
    "\u2581ch\u0103": 2755,
    "gen": 2756,
    "SD": 2757,
    "\u2581Ti\u1ebf": 2758,
    "\u2581Ho\u00e0ng": 2759,
    "\u2581nh\u00e0ng": 2760,
    "\u2581b\u1ea7": 2761,
    "\u2581d\u01a1i": 2762,
    "\u2581\u0111\u00e8": 2763,
    "\u2581u": 2764,
    "\u2581c\u1ed3n": 2765,
    "\u2581Lin": 2766,
    "\u258132": 2767,
    "\u1ec7p": 2768,
    "\u2581Bob": 2769,
    "\u2581Texas": 2770,
    "\u2581Abraham": 2771,
    "\u2581Yeah": 2772,
    "\u2581\u00f4t\u00f4": 2773,
    "\u2581B\u1eaf": 2774,
    "\u2581Amy": 2775,
    "\u2581ng\u1ed9": 2776,
    "\u2581S\u00e1ng": 2777,
    "gie": 2778,
    "\u01b0\u1edbt": 2779,
    "\u2581X\u00f4": 2780,
    "\u2581\u0110\u1ed1": 2781,
    "\u2581Pa": 2782,
    "\u2581ch\u1ea9": 2783,
    "\u2581D\u00e2": 2784,
    "\u2581b\u1ed3n": 2785,
    "\u2581r\u1ed1t": 2786,
    "\u2581tr\u1ea1n": 2787,
    "\u00f3t": 2788,
    "\u2581Nh\u00ec": 2789,
    "\u2581nh\u00f3": 2790,
    "au": 2791,
    "\u2581r\u00f2": 2792,
    "\u2581v\u1ea9n": 2793,
    "huy\u1ebfn": 2794,
    "Q": 2795,
    "ence": 2796,
    "\u2581Ca": 2797,
    "\u2581\u0111\u1ee5c": 2798,
    "ide": 2799,
    "\u25811980": 2800,
    "\u2581bu\u1ed3": 2801,
    "\u2581online": 2802,
    "\u2581nan": 2803,
    "\u2581entropy": 2804,
    "\u2581Daniel": 2805,
    "h\u00f4ng": 2806,
    "ter": 2807,
    "\u2581v\u1ea1n": 2808,
    "\u2581bi\u1ebf": 2809,
    "\u2581Ha": 2810,
    "\u2581ph\u1ebf": 2811,
    "\u2581Q": 2812,
    "\u1ec9a": 2813,
    "kg": 2814,
    "\u2581C\u1ee5": 2815,
    "\u2581t\u1ea7": 2816,
    "\u2581x\u1ebf": 2817,
    "\u2581196": 2818,
    "\u258133": 2819,
    "\u2581Olympic": 2820,
    "\u2581vir\u00fat": 2821,
    "\u2581Mike": 2822,
    "\u2581William": 2823,
    "org": 2824,
    "st": 2825,
    "ram": 2826,
    "\u2581quad": 2827,
    "\u2581Ne": 2828,
    "\u2581Kh\u1ea3": 2829,
    "\u2581Free": 2830,
    "\u2581Wolf": 2831,
    "\u2581nh\u1ed9n": 2832,
    "\u2581ph\u00e1o": 2833,
    "\u2581Or": 2834,
    "\u2581m\u1ea3": 2835,
    "\u2581Ng\u00e2": 2836,
    "ian": 2837,
    "\u2581Brown": 2838,
    "\u2581Youtube": 2839,
    "\u2581dollar": 2840,
    "\u2581Rosling": 2841,
    "\u25812050": 2842,
    "\u2581\u0111\u00f2n": 2843,
    "\u2581Arthu": 2844,
    "EO": 2845,
    "\u2581b\u1ea9y": 2846,
    "\u00f9i": 2847,
    "\u2581r\u00e8": 2848,
    "\u2581l\u01b0\u1ee3": 2849,
    "\u2581nhi": 2850,
    "\u1ec9": 2851,
    "\u2581b\u00e1t": 2852,
    "der": 2853,
    "g\u00e2n": 2854,
    "\u2581x\u1ea3o": 2855,
    "\u00eca": 2856,
    "\u2581....": 2857,
    "\u2581x\u01b0\u1edb": 2858,
    "uy\u1ec7n": 2859,
    "\u2581m\u00f4t": 2860,
    "\u2581Wow": 2861,
    "\u2581Watson": 2862,
    "\u2581Andrew": 2863,
    "\u2581Norden": 2864,
    "rao": 2865,
    "\u2581\u0111\u01b0\u01a1": 2866,
    "\u2581Lu": 2867,
    "\u2581n\u1ea1": 2868,
    "\u2581H\u1ea1": 2869,
    "\u2581Re": 2870,
    "\u2581cent": 2871,
    "ria": 2872,
    "\u1eb1n": 2873,
    "\u00e8n": 2874,
    "g\u0103n": 2875,
    "\u2581Alex": 2876,
    "\u2581t\u0103m": 2877,
    "\u2581Cam": 2878,
    "\u2581h\u00e9": 2879,
    "\u2581b\u00f9n": 2880,
    "\u2581Steph": 2881,
    "\u2581s\u00f9ng": 2882,
    "\u2581Neanderthal": 2883,
    "\u2581ha": 2884,
    "\u2581World": 2885,
    "\u2581f": 2886,
    "\u2581Detroit": 2887,
    "\u2581insulin": 2888,
    "\u2581l\u00ea": 2889,
    "\u2581Scotland": 2890,
    "bon": 2891,
    "\u2581Hollywo": 2892,
    "\u2581Mandela": 2893,
    "\u2581To": 2894,
    "\u2581L\u1edb": 2895,
    "\u2581Palestine": 2896,
    "\u258129": 2897,
    "\u2581t\u1ea1ng": 2898,
    "\u2581V\u01b0\u01a1ng": 2899,
    "\u2581xo": 2900,
    "\u2581kho\u00e1n": 2901,
    "\u2581Long": 2902,
    "\u2581Jack": 2903,
    "\u2581B\u1ecdn": 2904,
    "\u2581b\u1ed5ng": 2905,
    "\u2581Ray": 2906,
    "\u2581Wa": 2907,
    "\u258136": 2908,
    "\u1eabm": 2909,
    "o\u1ea1n": 2910,
    "\u2581V\u1ecb": 2911,
    "o\u1eafn": 2912,
    "dy": 2913,
    "\u2581M\u00f4": 2914,
    "\u1eef": 2915,
    "\u2581Le": 2916,
    "se": 2917,
    "\u2581Lib": 2918,
    "ol": 2919,
    "\u2581Ah": 2920,
    "\u2581chip": 2921,
    "\u2581trinh": 2922,
    "\u2581Hill": 2923,
    "lin": 2924,
    "\u2581mu\u00f4n": 2925,
    "\u2581Bronx": 2926,
    "\u2581Street": 2927,
    "\u2581Black": 2928,
    "\u2581Indonesia": 2929,
    "\u2581Singapore": 2930,
    "\u2581Shakespear": 2931,
    "\u2581laser": 2932,
    "\u2581South": 2933,
    "\u2581nh\u0103n": 2934,
    "\u2581Th\u1ecb": 2935,
    "\u2581l\u1ead": 2936,
    "\u2581War": 2937,
    "\u2581Edi": 2938,
    "\u2581v\u1ecd": 2939,
    "\u2581c\u1ea9u": 2940,
    "\u2581Ngh\u1ecb": 2941,
    "\u2581C\u1ed1": 2942,
    "\u2581Ted": 2943,
    "eda": 2944,
    "\u2581m\u1ea9": 2945,
    "is": 2946,
    "h\u1ec7": 2947,
    "\u2581r\u1ed5": 2948,
    "\u2581scan": 2949,
    "\u2581khu\u1ea5t": 2950,
    "b\u1ed1t": 2951,
    "\u2581Wi": 2952,
    "\u2581Th\u1edd": 2953,
    "\u2581\u0110an": 2954,
    "\u2581800": 2955,
    "\u2581lu\u1ed3n": 2956,
    "\u258155": 2957,
    "\u2581DVD": 2958,
    "\u2581market": 2959,
    "\u2581Joseph": 2960,
    "\u2581Iceland": 2961,
    "\u2581Simon": 2962,
    "\u2581X\u00e3": 2963,
    "\u2581l\u1ed9i": 2964,
    "\u0129nh": 2965,
    "\u2581Ch\u00ed": 2966,
    "we": 2967,
    "h\u01b0a": 2968,
    "\u2581Montan": 2969,
    "\u2581Co": 2970,
    "et": 2971,
    "\u2581l\u1eed": 2972,
    "\u2581Ch\u00e1": 2973,
    "\u2581l\u01b0\u1ee3n": 2974,
    "\u2581ki": 2975,
    "h\u0103ng": 2976,
    "\u2581m\u1ea1": 2977,
    "\u2581Lee": 2978,
    "xi": 2979,
    "\u2581\u00d4": 2980,
    "\u2581s\u1ecfi": 2981,
    "\u2581Chi": 2982,
    "\u2581kh\u1ed1n": 2983,
    "\u2581nh\u1eaf": 2984,
    "\u2581Th\u00fa": 2985,
    "\u2581x\u01a1": 2986,
    "ly": 2987,
    "\u2581In": 2988,
    "\u2581khe": 2989,
    "\u2581x\u00e0i": 2990,
    "\u2581Mac": 2991,
    "ck": 2992,
    "\u2581Ja": 2993,
    "\u2581Th\u00ed": 2994,
    "BM": 2995,
    "\u258137": 2996,
    "\u2581Albert": 2997,
    "\u2581logo": 2998,
    "\u2581Carolina": 2999,
    "\u25812002": 3000,
    "cho": 3001,
    "n\u00e9n": 3002,
    "\u2581Nh\u1ea1c": 3003,
    "\u2581Ga": 3004,
    "\u2581194": 3005,
    "\u2581ng\u01a1i": 3006,
    "\u2581vi\u00ea": 3007,
    "\u00e8m": 3008,
    "gram": 3009,
    "\u2581khi\u1ebfu": 3010,
    "6": 3011,
    "\u2581Ven": 3012,
    "to": 3013,
    "\u258131": 3014,
    "\u2581ch\u1ed1n": 3015,
    "\u2581Victor": 3016,
    "well": 3017,
    "BC": 3018,
    "\u2581De": 3019,
    "\u2581\u0111o\u1ea1": 3020,
    "age": 3021,
    "\u2581nu\u1ed1i": 3022,
    "h\u00e1i": 3023,
    "\u2581xi": 3024,
    "o\u1ea1t": 3025,
    "\u2581Ch\u1eef": 3026,
    "\u2581Se": 3027,
    "\u2581Ka": 3028,
    "ow": 3029,
    "\u2581700": 3030,
    "ation": 3031,
    "\u0111\u00f3": 3032,
    "20": 3033,
    "\u2581C\u1ed9": 3034,
    "\u2581Ken": 3035,
    "\u2581B\u1ea3y": 3036,
    "hi\u1ebfm": 3037,
    "\u2581devil": 3038,
    "\u2581Gandhi": 3039,
    "\u2581toilet": 3040,
    "\u2581Mos": 3041,
    "\u2581pound": 3042,
    "\u2581Silicon": 3043,
    "\u2581click": 3044,
    "\u2581Si": 3045,
    "\u2581chu\u1ed9ng": 3046,
    "col": 3047,
    "\u2581v\u1ed1": 3048,
    "\u2581M\u1ed9c": 3049,
    "\u2581qu\u0103ng": 3050,
    "\u2581ngo\u1ea1n": 3051,
    "\u2581Mi": 3052,
    "\u2581197": 3053,
    "\u2581\u0110\u00e0n": 3054,
    "f": 3055,
    "b\u1ea1n": 3056,
    "do": 3057,
    "T\u00f4i": 3058,
    "or": 3059,
    "\u2581c\u00f2": 3060,
    "\u2581Jane": 3061,
    "\u2581Alexand": 3062,
    "\u2581nh\u01b0\u1ee3c": 3063,
    "\u2581B\u0103ng": 3064,
    "\u2581th\u1ec1": 3065,
    "ard": 3066,
    "ster": 3067,
    "\u2581toa": 3068,
    "\u2581\u0111un": 3069,
    "\u2581d\u00ec": 3070,
    "\u2581l\u00e1ch": 3071,
    "sey": 3072,
    "\u2581ph\u1ea3": 3073,
    "ho": 3074,
    "\u2581Delhi": 3075,
    "\u25811930": 3076,
    "\u25811999": 3077,
    "\u2581Chile": 3078,
    "\u2581electron": 3079,
    "\u25811900": 3080,
    "CD": 3081,
    "000": 3082,
    "\u2581qu\u1eb7": 3083,
    "\u2581m\u00e0y": 3084,
    "ph": 3085,
    "h\u00eam": 3086,
    "berg": 3087,
    "\u2581Mary": 3088,
    "\u2581Kev": 3089,
    "\u2581G\u00f4": 3090,
    "\u2581lay": 3091,
    "\u2581\u0111\u1ee3": 3092,
    "\u2581Newto": 3093,
    "\u2581CP": 3094,
    "\u2581d\u1eddi": 3095,
    "\u2581h\u1ea3": 3096,
    "\u2581tre": 3097,
    "\u2581x\u00f3": 3098,
    "\u2581B\u1ec7": 3099,
    "\u2581Pat": 3100,
    "huy\u1ebft": 3101,
    "\u2581kh\u1eed": 3102,
    "\u2581chu\u1ed1i": 3103,
    "than": 3104,
    "\u2581ti\u1ebf": 3105,
    "um": 3106,
    "ver": 3107,
    "\u2581Matt": 3108,
    "ing": 3109,
    "\u2581n\u1eafp": 3110,
    "u\u1ea3": 3111,
    "\u2581g\u00e1n": 3112,
    "\u2581ng\u00e0o": 3113,
    "go": 3114,
    "\u2581km": 3115,
    "\u2581l\u1ea5n": 3116,
    "os": 3117,
    "ka": 3118,
    "pamine": 3119,
    "\u2581High": 3120,
    "\u2581Scott": 3121,
    "\u2581cafe": 3122,
    "\u2581Sarah": 3123,
    "\u2581Robot": 3124,
    "\u2581len": 3125,
    "\u2581\u0111an": 3126,
    "\u25812012": 3127,
    "hi\u1ebft": 3128,
    "\u2581chay": 3129,
    "\u2581ch\u1ea1p": 3130,
    "red": 3131,
    "\u2581Mc": 3132,
    "\u2581t\u1edb": 3133,
    "\u2581Me": 3134,
    "\u2581nh\u00e1t": 3135,
    "\u2581D\u1ea1": 3136,
    "hi\u1ec7t": 3137,
    "gh\u0129a": 3138,
    "ot": 3139,
    "\u2581Carol": 3140,
    "\u2581ch\u00e9": 3141,
    "\u2581b\u1ecfng": 3142,
    "\u2581Xu": 3143,
    "\u2581b\u00ec": 3144,
    "\u2581th\u1ed1n": 3145,
    "\u2581ngo": 3146,
    "h\u01b0\u1edbng": 3147,
    "Global": 3148,
    "\u2581Lewi": 3149,
    "beria": 3150,
    "\u2581c\u1eafn": 3151,
    "\u0111i\u00eau": 3152,
    "ville": 3153,
    "\u2581x\u1ed1p": 3154,
    "\u2581Columb": 3155,
    "\u2581Stewart": 3156,
    "\u2581Disney": 3157,
    "ren": 3158,
    "\u2581\u0111\u1ea1m": 3159,
    "tin": 3160,
    "\u258148": 3161,
    "vi": 3162,
    "\u2581oxi": 3163,
    "olly": 3164,
    "\u2581bon": 3165,
    "\u2581Eve": 3166,
    "ney": 3167,
    "\u2581n\u1ed9p": 3168,
    "\u2581c\u01b0\u1ee1i": 3169,
    "axit": 3170,
    "\u2581Jay": 3171,
    "\u2581H\u01a1": 3172,
    "\u2581ph\u00e0n": 3173,
    "Y\u00eau": 3174,
    "\u2581dang": 3175,
    "\u2581ng\u1ea3": 3176,
    "erry": 3177,
    "way": 3178,
    "\u2581Vi": 3179,
    "\u2581bin": 3180,
    "h\u1ecd": 3181,
    "\u2581v\u1ee9": 3182,
    "P": 3183,
    "ger": 3184,
    "\u1eb3n": 3185,
    "\u2581Car": 3186,
    "\u2581\u0111\u1ed3n": 3187,
    "\u2581b\u1ea1": 3188,
    "\u25811984": 3189,
    "\u2581Bosnia": 3190,
    "\u2581Brooklyn": 3191,
    "\u2581Anders": 3192,
    "\u2581Johnny": 3193,
    "\u2581Tanzania": 3194,
    "uy\u1ebft": 3195,
    "\u2581Tr\u00f2": 3196,
    "\u1ec7ch": 3197,
    "\u2581Ron": 3198,
    "ston": 3199,
    "\u2581Julian": 3200,
    "\u2581Kh\u00e1c": 3201,
    "\u2581Nano": 3202,
    "\u2581h\u00e1n": 3203,
    "\u2581\u0111\u0103": 3204,
    "\u2581Tes": 3205,
    "\u2581Nathan": 3206,
    "\u2581\u1ea5u": 3207,
    "oster": 3208,
    "\u2581\u0111\u1eaf": 3209,
    "\u2581c\u1ecdc": 3210,
    "h\u01b0\u1eddng": 3211,
    "\u2581x\u1ebb": 3212,
    "\u2581Tr\u00ed": 3213,
    "lon": 3214,
    "BA": 3215,
    "\u2581Yo": 3216,
    "\u00e8": 3217,
    "\u2581Ky": 3218,
    "den": 3219,
    "\u2581Carl": 3220,
    "\u2581s\u1edd": 3221,
    "\u2581Julia": 3222,
    "\u2581t\u1ea1c": 3223,
    "\u2581ki\u00ea": 3224,
    "\u2581g\u1eaft": 3225,
    "\u2581Kenne": 3226,
    "\u0111\u01b0\u1ee3c": 3227,
    "\u2581m\u00e1": 3228,
    "\u2581ok": 3229,
    "\u2581xoa": 3230,
    "\u2581n\u1eaf": 3231,
    "\u2581th\u1eebng": 3232,
    "our": 3233,
    "\u2581d\u00e0o": 3234,
    "\u2581iPod": 3235,
    "\u2581g\u1edbm": 3236,
    "\u2581Parkinson": 3237,
    "\u2581Virginia": 3238,
    "\u2581poster": 3239,
    "\u2581Power": 3240,
    "desh": 3241,
    "\u2581Maya": 3242,
    "\u2581\u0111\u1ed1n": 3243,
    "\u2581Jones": 3244,
    "\u2581d\u00e1": 3245,
    "ed": 3246,
    "\u1ee7ng": 3247,
    "\u2581bar": 3248,
    "\u2581kho\u00e1c": 3249,
    "\u2581ki\u1ec1": 3250,
    "\u2581pop": 3251,
    "\u2581Rose": 3252,
    "\u2581C\u0103n": 3253,
    "ure": 3254,
    "\u25812.5": 3255,
    "chia": 3256,
    "r\u1ef1c": 3257,
    "chi": 3258,
    "\u2581g\u1ea1o": 3259,
    "\u2581b\u1ec9": 3260,
    "\u2581th\u1ecf": 3261,
    "\u2581Bo": 3262,
    "\u2581m\u00ecn": 3263,
    "\u2581Bra": 3264,
    "ford": 3265,
    "\u1ea3n": 3266,
    "\u2581hu": 3267,
    "\u2581cua": 3268,
    "\u2581Mu": 3269,
    "binh": 3270,
    "\u2581n\u1ed9": 3271,
    "sa": 3272,
    "\u2581Sky": 3273,
    "ez": 3274,
    "ki": 3275,
    "\u2581OE": 3276,
    "\u1ecdn": 3277,
    "\u25811.5": 3278,
    "\u2581Gar": 3279,
    "\u2581Bi": 3280,
    "\u2581Dian": 3281,
    "\u2581Sai": 3282,
    "nda": 3283,
    "\u2581to\u1ea1": 3284,
    "\u2581Gi\u1eef": 3285,
    "so": 3286,
    "\u2581Cy": 3287,
    "usal": 3288,
    "\u2581ch\u1eeb": 3289,
    "\u2581M\u00e1": 3290,
    "opera": 3291,
    "\u2581album": 3292,
    "\u2581Qatar": 3293,
    "\u2581Sylvi": 3294,
    "\u2581EDI": 3295,
    "\u2581Sal": 3296,
    "\u2581Susan": 3297,
    "\u2581Clinton": 3298,
    "\u2581Argentina": 3299,
    "\u2581vitamin": 3300,
    "\u2581tr\u1ec7": 3301,
    "\u2581ng\u1ee7i": 3302,
    "\u1ee7i": 3303,
    "\u258146": 3304,
    "\u2581nh\u00ed": 3305,
    "\u2581tua": 3306,
    "\u2581195": 3307,
    "h\u01a1i": 3308,
    "g\u1eebng": 3309,
    "\u2581Baby": 3310,
    "\u2581Jo": 3311,
    "\u2581tweet": 3312,
    "na": 3313,
    "\u2581Mill": 3314,
    "MS": 3315,
    "\u2581Ng\u00f4": 3316,
    "reo": 3317,
    "\u2581M\u00f9": 3318,
    "\u2581n\u1ebf": 3319,
    "\u2581th\u1ec9": 3320,
    "\u2581Bell": 3321,
    "om": 3322,
    "\u2581Johns": 3323,
    "\u2581ch\u1ed5": 3324,
    "\u2581tho": 3325,
    "ghen": 3326,
    "r\u00e1i": 3327,
    "\u2581He": 3328,
    "h\u00f3m": 3329,
    "ad": 3330,
    "\u2581Emma": 3331,
    "ban": 3332,
    "ber": 3333,
    "\u2581Pro": 3334,
    "\u2581\u0111\u1eb7n": 3335,
    "\u2581B\u1ed3": 3336,
    "\u2581mi\u1ebfn": 3337,
    "stein": 3338,
    "\u2581Muhammad": 3339,
    "\u2581silicon": 3340,
    "\u2581Ethiopia": 3341,
    "\u2581Sierra": 3342,
    "\u2581Julie": 3343,
    "\u1ea1y": 3344,
    "\u2581Doug": 3345,
    "\u2581qu\u1ea7y": 3346,
    "th\u1ec3": 3347,
    "\u2581Nick": 3348,
    "Y": 3349,
    "\u2581v\u00e1": 3350,
    "\u2581h\u1edf": 3351,
    "ten": 3352,
    "ers": 3353,
    "\u2581Ho\u1ea1": 3354,
    "\u2581t\u01a1": 3355,
    "con": 3356,
    "n\u00e0y": 3357,
    "\u2581\u0111\u1ef1": 3358,
    "ex": 3359,
    "\u2581\u0111inh": 3360,
    "\u2581Bay": 3361,
    "\u2581Steven": 3362,
    "\u2581\u01a1": 3363,
    "\u2581N\u1ed9i": 3364,
    "\u2581hao": 3365,
    "\u2581nh\u1ed1t": 3366,
    "oto": 3367,
    "ca": 3368,
    "\u2581Cu": 3369,
    "\u00e9n": 3370,
    "\u2581k\u00e9p": 3371,
    "F": 3372,
    "\u1ecdt": 3373,
    "\u2581Ham": 3374,
    "\u2581Emil": 3375,
    "\u2581130": 3376,
    "ever": 3377,
    "\u2581hu\u1ef3": 3378,
    "\u2581Khan": 3379,
    "\u2581Lang": 3380,
    "\u2581Jenn": 3381,
    "u\u00ea": 3382,
    "pe": 3383,
    "\u2581Ki": 3384,
    "amin": 3385,
    "ington": 3386,
    "imbab": 3387,
    "fer": 3388,
    "\u2581acid": 3389,
    "\u2581Broad": 3390,
    "\u2581Roger": 3391,
    "\u258172": 3392,
    "\u2581Philade": 3393,
    "\u2581pheromone": 3394,
    "\u2581Ross": 3395,
    "\u2581Leonardo": 3396,
    "\u2581West": 3397,
    "\u2581Somalia": 3398,
    "\u2581Hawaii": 3399,
    "\u2581su\u00fdt": 3400,
    "c\u00e1c": 3401,
    "\u2581Cameron": 3402,
    "\u2581Anas": 3403,
    "shahi": 3404,
    "phone": 3405,
    "\u2581g\u00f3t": 3406,
    "\u2581Ph\u00ed": 3407,
    "2,000": 3408,
    "\u2581m\u01b0": 3409,
    "\u2581Bali": 3410,
    "be": 3411,
    "sia": 3412,
    "\u0111\u00e3": 3413,
    "\u2581T\u1ec9": 3414,
    "i\u1ec5u": 3415,
    "\u2581For": 3416,
    "\u2581c\u01b0\u1ee1": 3417,
    "rock": 3418,
    "\u2581Apol": 3419,
    "kh": 3420,
    "\u2581Kh\u00f3": 3421,
    "\u2581phi\u1ec7n": 3422,
    "\u2581d\u1ea1n": 3423,
    "\u2581khi\u1ebft": 3424,
    "\u2581fil": 3425,
    "v\u00edt": 3426,
    "ate": 3427,
    "\u2581b\u1ef1": 3428,
    "\u2581Os": 3429,
    "\u2581c\u1edb": 3430,
    "h\u1ea7m": 3431,
    "\u1eb9o": 3432,
    "\u2581Tokyo": 3433,
    "\u2581Earth": 3434,
    "\u2581Sputnik": 3435,
    "\u2581Berkeley": 3436,
    "\u2581Starbuck": 3437,
    "\u2581virut": 3438,
    "\u2581Kelly": 3439,
    "\u2581t\u1edfm": 3440,
    "\u2581Bangla": 3441,
    "\u2581Carne": 3442,
    "\u2581tri\u1ec7": 3443,
    "\u2581Wal": 3444,
    "\u2581tru": 3445,
    "\u2581gi\u1ea7y": 3446,
    "\u2581Ngo\u1ea1": 3447,
    "\u2581Marc": 3448,
    "\u2581r\u00e0": 3449,
    "\u2581Xanh": 3450,
    "\u2581Ph\u1ed1": 3451,
    "\u2581hoi": 3452,
    "\u2581Marco": 3453,
    "\u2581g\u1ea5": 3454,
    "X": 3455,
    "\u2581City": 3456,
    "\u2581Park": 3457,
    "\u2581qu\u1ea5n": 3458,
    "ational": 3459,
    "\u2581Dub": 3460,
    "\u2581xun": 3461,
    "i\u00eang": 3462,
    "\u2581Evan": 3463,
    "\u2581x\u1ed5": 3464,
    "\u2581Ro": 3465,
    "\u2581News": 3466,
    "\u1edbp": 3467,
    "h\u1ed1t": 3468,
    "\u2581s\u01b0\u01a1ng": 3469,
    "\u2581Tinh": 3470,
    "h\u1edd": 3471,
    "\u2581Mar": 3472,
    "\u2581ng\u1ee3": 3473,
    "\u2581b\u1ec7": 3474,
    "low": 3475,
    "\u2581x\u00ec": 3476,
    "\u258196": 3477,
    "\u2581v\u00e3n": 3478,
    "\u2581B\u00ed": 3479,
    "\u2581M\u00e3": 3480,
    "era": 3481,
    "\u2581s\u1ed9": 3482,
    "zle": 3483,
    "\u2581g\u1eb7": 3484,
    "\u2581Temp": 3485,
    "\u2581di\u1ec5": 3486,
    "\u25815000": 3487,
    "\u2581H\u1ed3": 3488,
    "\u00e9": 3489,
    "\u2581\u01b0\u1edb": 3490,
    "\u25812.0": 3491,
    "\u2581CD": 3492,
    "\u2581Ngu\u1ed3": 3493,
    "ruy\u1ec1n": 3494,
    "\u2581ch\u1eed": 3495,
    "huy\u00ean": 3496,
    "\u25811996": 3497,
    "\u2581Tesla": 3498,
    "\u2581Copernic": 3499,
    "\u2581Michigan": 3500,
    "\u2581Colombia": 3501,
    "\u2581Luther": 3502,
    "\u2581hamburger": 3503,
    "\u2581Atlanta": 3504,
    "\u2581b\u01b0\u1edbu": 3505,
    "\u2581H\u1ea3": 3506,
    "\u2581Well": 3507,
    "\u2581ng\u00e2m": 3508,
    "\u2581Hungar": 3509,
    "\u2581Lester": 3510,
    "\u2581Roy": 3511,
    "arry": 3512,
    "\u2581198": 3513,
    "\u2581140": 3514,
    "\u2581c\u1eedu": 3515,
    "\u2581Be": 3516,
    "\u2581l\u00e1ng": 3517,
    "\u2581Rome": 3518,
    "\u2581v\u00e3": 3519,
    "azeera": 3520,
    "\u1eeb": 3521,
    "g\u0169": 3522,
    "uel": 3523,
    "\u2581v\u1ea7y": 3524,
    "v\u1edbi": 3525,
    "\u2581lo\u00e9": 3526,
    "\u2581r\u1eadm": 3527,
    "\u2581Pho": 3528,
    "l\u00e0m": 3529,
    "\u2581hip": 3530,
    "km": 3531,
    "\u2581Leon": 3532,
    "\u2581gas": 3533,
    "o\u00e1i": 3534,
    "\u2581Prince": 3535,
    "\u2581Fort": 3536,
    "h\u1ea5u": 3537,
    "ier": 3538,
    "me": 3539,
    "\u2581al": 3540,
    "\u258164": 3541,
    "\u0111i": 3542,
    "chai": 3543,
    "\u2581Marg": 3544,
    "ranh": 3545,
    "\u258144": 3546,
    "\u2581mi": 3547,
    "\u2581Sea": 3548,
    "id": 3549,
    "\u00fam": 3550,
    "\u258142": 3551,
    "openha": 3552,
    "\u2581ion": 3553,
    "\u2581t\u00fang": 3554,
    "aden": 3555,
    "\u2581yeah": 3556,
    "\u2581Fried": 3557,
    "\u2581Lakota": 3558,
    "\u2581Galapagos": 3559,
    "\u2581Jackson": 3560,
    "\u2581Movem": 3561,
    "\u2581n\u00ea": 3562,
    "\u2581ooh": 3563,
    "\u2581Rick": 3564,
    "\u2581n\u1ef1c": 3565,
    "\u2581AK": 3566,
    "\u25811998": 3567,
    "\u2581Hawkin": 3568,
    "\u2581giun": 3569,
    "\u2581Bhut": 3570,
    "\u2581My": 3571,
    "\u2581Jon": 3572,
    "\u2581t\u01b0\u1edbc": 3573,
    "\u2581180": 3574,
    "\u2581\u0110i\u1ec3": 3575,
    "hi\u1ec1n": 3576,
    "aland": 3577,
    "tan": 3578,
    "w": 3579,
    "ihad": 3580,
    "\u2581\u00e1": 3581,
    "\u2581t\u00fa": 3582,
    "\u2581Time": 3583,
    "\u2581v\u00f9": 3584,
    "\u2581Dea": 3585,
    "\u2581Chia": 3586,
    "\u25812,5": 3587,
    "\u2581\u0111\u00e2": 3588,
    "\u2581test": 3589,
    "iza": 3590,
    "\u00f3p": 3591,
    "\u2581Ed": 3592,
    "\u2581Jesu": 3593,
    "NA": 3594,
    "\u2581ch\u1ed3n": 3595,
    "\u2581Kh\u00ed": 3596,
    "h\u00e0o": 3597,
    "let": 3598,
    "mart": 3599,
    "\u2581H\u1ea7": 3600,
    "\u2581350": 3601,
    "\u2581Op": 3602,
    "mail": 3603,
    "\u2581Ch\u1ee9": 3604,
    "\u2581Leo": 3605,
    "\u2581D\u00e0n": 3606,
    "u\u1ed3n": 3607,
    "\u2581Star": 3608,
    "\u2581Wei": 3609,
    "tha": 3610,
    "\u2581a": 3611,
    "\u2581Alan": 3612,
    "\u2581tr\u1edb": 3613,
    "\u2581Gra": 3614,
    "m\u00e9t": 3615,
    "ish": 3616,
    "ry": 3617,
    "\u2581Christophe": 3618,
    "lock": 3619,
    "\u2581Est": 3620,
    "\u2581Sun": 3621,
    "\u2581m\u00f3": 3622,
    "\u01a1m": 3623,
    "\u1ed9c": 3624,
    "ect": 3625,
    "\u2581\u0110\u00f4n": 3626,
    "\u2581Qu\u1ea3n": 3627,
    "\u258198": 3628,
    "\u2581Sher": 3629,
    "rdy": 3630,
    "u\u00f4n": 3631,
    "\u2581Jean": 3632,
    "\u2581Pop": 3633,
    "\u2581Chad": 3634,
    "\u258193": 3635,
    "aret": 3636,
    "u\u1ea9n": 3637,
    "\u0111i\u1ec1u": 3638,
    "CAPTCH": 3639,
    "\u2581vi\u1ec1n": 3640,
    "r\u1ea3i": 3641,
    "\u2581Bea": 3642,
    "\u2581Jeopa": 3643,
    "\u2581Nepal": 3644,
    "\u25811995": 3645,
    "\u2581Sudan": 3646,
    "\u25811994": 3647,
    "\u2581Mumbai": 3648,
    "\u2581Afghan": 3649,
    "\u2581Arizona": 3650,
    "\u2581Ira": 3651,
    "\u2581gi\u1ec1ng": 3652,
    "\u2581violin": 3653,
    "\u2581Romo": 3654,
    "ansas": 3655,
    "sau": 3656,
    "\u2581Dave": 3657,
    "\u2581Gi\u1ea5": 3658,
    "bert": 3659,
    "\u2581\u1edbt": 3660,
    "\u2581R\u1eb1": 3661,
    "\u2581ah": 3662,
    "za": 3663,
    "lphi": 3664,
    "\u2581ron": 3665,
    "liza": 3666,
    "\u2581r\u1ea1c": 3667,
    "\u2581su\u00f4n": 3668,
    "RN": 3669,
    "n\u00f3": 3670,
    "\u00f2": 3671,
    "\u2581\u0110\u00e1": 3672,
    "\u2581Louis": 3673,
    "\u2581AO": 3674,
    "\u2581Tr\u1eeb": 3675,
    "\u2581nguy\u1ec7t": 3676,
    "u\u1ed1n": 3677,
    "\u2581na": 3678,
    "\u00e0n": 3679,
    "g\u1eadp": 3680,
    "\u2581Jess": 3681,
    "\u2581160": 3682,
    "\u25811,5": 3683,
    "woo": 3684,
    "\u00fai": 3685,
    "\u2581AM": 3686,
    "\u2581nham": 3687,
    "\u258186": 3688,
    "\u2581Roma": 3689,
    "\u1ec7n": 3690,
    "\u2581th\u00e2": 3691,
    "\u2581Berli": 3692,
    "\u2581l\u1eab": 3693,
    "\u2581Ge": 3694,
    "\u258138": 3695,
    "\u2581Kiri": 3696,
    "\u2581Grand": 3697,
    "\u2581Map": 3698,
    "\u2581Mong": 3699,
    "\u2581ng\u1eb7t": 3700,
    "\u2581Ali": 3701,
    "u\u1ed9t": 3702,
    "\u2581Edward": 3703,
    "m\u00e0": 3704,
    "\u2581Philip": 3705,
    "\u2581Te": 3706,
    "atch": 3707,
    "h\u1eb9n": 3708,
    "\u2581d\u1ed3": 3709,
    "\u2581l\u00e2": 3710,
    "\u2581Ir": 3711,
    "ko": 3712,
    "\u2581photo": 3713,
    "\u2581Har": 3714,
    "\u2581\u0111\u1ec7": 3715,
    "\u2581r\u1ee5": 3716,
    "\u2581s\u00f3": 3717,
    "\u2581\u0111\u1ea5": 3718,
    "\u2581ve": 3719,
    "RA": 3720,
    "ity": 3721,
    "\u2581ngo\u1eb7": 3722,
    "\u2581heli": 3723,
    "\u2581Ph\u1ead": 3724,
    "\u2581Jeff": 3725,
    "\u2581Fox": 3726,
    "\u2581Lawr": 3727,
    "\u2581Taylor": 3728,
    "\u2581Havard": 3729,
    "\u2581Grace": 3730,
    "\u2581Rachel": 3731,
    "\u2581Beethoven": 3732,
    "\u2581enzym": 3733,
    "\u2581Jeffer": 3734,
    "\u2581\u00f4n": 3735,
    "\u2581Plato": 3736,
    "tra": 3737,
    "\u2581Cuba": 3738,
    "\u2581s\u1eb9o": 3739,
    "\u2581North": 3740,
    "0": 3741,
    "V\u00e0": 3742,
    "\u2581Tra": 3743,
    "pass": 3744,
    "\u1eb9": 3745,
    "\u2581Clay": 3746,
    "\u2581th\u1ea3n": 3747,
    "xy": 3748,
    "\u2581ch\u00ea": 3749,
    "\u00fa": 3750,
    "\u2581Jordan": 3751,
    "bet": 3752,
    "\u2581fan": 3753,
    "\u2581Han": 3754,
    "\u2581Leb": 3755,
    "\u00e0u": 3756,
    "ch\u1eb1m": 3757,
    "\u2581Mama": 3758,
    "o\u00e0n": 3759,
    "\u2581Bal": 3760,
    "\u2581Ch\u1ebf": 3761,
    "net": 3762,
    "\u2581g\u00e1": 3763,
    "witz": 3764,
    "h\u1ed1ng": 3765,
    "\u2581PH": 3766,
    "\u2581c\u00e1n": 3767,
    "\u01a1c": 3768,
    "\u2581B\u1ea3": 3769,
    "\u258143": 3770,
    "\u2581b\u1ea7m": 3771,
    "\u2581Bue": 3772,
    "\u2581g\u1ed3": 3773,
    "\u258134": 3774,
    "ere": 3775,
    "eep": 3776,
    "\u2581No": 3777,
    "\u2581v\u1ef1": 3778,
    "\u2581Palm": 3779,
    "hu\u1eadn": 3780,
    "\u2581Win": 3781,
    "\u2581Will": 3782,
    "\u2581Gor": 3783,
    "\u2581g\u1ea7": 3784,
    "\u2581Can": 3785,
    "\u2581l\u00e0n": 3786,
    "\u2581Bolt": 3787,
    "\u2581Who": 3788,
    "\u2581kho\u00e9": 3789,
    "ary": 3790,
    "\u2581c\u1eeb": 3791,
    "\u2581Kar": 3792,
    "aska": 3793,
    "tic": 3794,
    "lyn": 3795,
    "bar": 3796,
    "\u2581Blue": 3797,
    "\u2581Bon": 3798,
    "\u2581Gold": 3799,
    "\u2581Gen": 3800,
    "\u2581Nel": 3801,
    "gan": 3802,
    "flu": 3803,
    "\u2581Hall": 3804,
    "\u2581b\u00e2": 3805,
    "\u2581Red": 3806,
    "\u2581\u0111i\u1ec1": 3807,
    "\u2581thoa": 3808,
    "\u2581B\u00e9": 3809,
    "\u2581Net": 3810,
    "NG": 3811,
    "word": 3812,
    "\u2581so\u1ea1": 3813,
    "\u2581CNN": 3814,
    "\u2581IQ": 3815,
    "\u2581Ryan": 3816,
    "\u25811975": 3817,
    "\u2581Europa": 3818,
    "\u2581McDonald": 3819,
    "\u2581Lesterland": 3820,
    "\u2581sandwich": 3821,
    "\u2581State": 3822,
    "and": 3823,
    "\u2581Yorker": 3824,
    "\u2581s\u1ea1c": 3825,
    "\u2581li\u1ec5u": 3826,
    "\u1edb": 3827,
    "\u2581Murr": 3828,
    "eographic": 3829,
    "\u2581Tora": 3830,
    "mer": 3831,
    "\u2581Peru": 3832,
    "itus": 3833,
    "\u2581Fa": 3834,
    "lair": 3835,
    "ves": 3836,
    "\u2581tr\u1ea7": 3837,
    "\u2581x\u1ecb": 3838,
    "\u2581Ann": 3839,
    "\u2581lo\u00e3": 3840,
    "\u2581nh\u00f4m": 3841,
    "\u2581Die": 3842,
    "\u2581125": 3843,
    "20.000": 3844,
    "\u2581th\u00e0": 3845,
    "\u2581amin": 3846,
    "\u2581God": 3847,
    "own": 3848,
    "\u2581N\u00f4": 3849,
    "\u2581d\u1eab": 3850,
    "h\u1ecdn": 3851,
    "nd": 3852,
    "hi\u1ec7n": 3853,
    "\u2581Yu": 3854,
    "\u2581m\u00e1c": 3855,
    "y\u00ean": 3856,
    "\u2581And": 3857,
    "\u258152": 3858,
    "\u2581h\u01b0\u01a1": 3859,
    "\u2581ph\u1ed3n": 3860,
    "\u2581SR": 3861,
    "\u258150,000": 3862,
    "\u2581d\u00e8": 3863,
    "\u2581Sara": 3864,
    "h\u00fang": 3865,
    "\u2581Rock": 3866,
    "\u25810.": 3867,
    "\u2581Kare": 3868,
    "\u25814000": 3869,
    "\u2581Port": 3870,
    "\u2581Harl": 3871,
    "\u2581\u0110o\u1ea1": 3872,
    "muel": 3873,
    "oor": 3874,
    "link": 3875,
    "mee": 3876,
    "\u2581Aye": 3877,
    "ronto": 3878,
    "\u2581xen": 3879,
    "\u2581C\u00f9": 3880,
    "\u2581th\u1ed1i": 3881,
    "\u2581gram": 3882,
    "\u2581nh\u1eb1": 3883,
    "\u2581Olive": 3884,
    "burgh": 3885,
    "\u2581r\u00f2ng": 3886,
    "\u2581Iv": 3887,
    "\u2581Wo": 3888,
    "\u00eda": 3889,
    "\u2581Colli": 3890,
    "\u2581Super": 3891,
    "\u2581vu": 3892,
    "\u2581b\u00fa": 3893,
    "\u2581go": 3894,
    "\u2581Has": 3895,
    "lash": 3896,
    "b\u1ed1n": 3897,
    "\u2581FBI": 3898,
    "\u2581FOXO": 3899,
    "\u2581Guinea": 3900,
    "\u2581Oregon": 3901,
    "\u2581Bertie": 3902,
    "\u2581Nairobi": 3903,
    "\u2581Island": 3904,
    "\u2581Katrina": 3905,
    "\u25811997": 3906,
    "\u2581marathon": 3907,
    "\u2581Mitchell": 3908,
    "\u2581canxi": 3909,
    "\u2581spaghetti": 3910,
    "\u2581Craig": 3911,
    "\u2581Walker": 3912,
    "\u2581nitri": 3913,
    "\u2581Doha": 3914,
    "\u2581Kal": 3915,
    "EG": 3916,
    "\u2581phthalate": 3917,
    "art": 3918,
    "\u2581Mario": 3919,
    "\u2581games": 3920,
    "\u2581hack": 3921,
    "\u2581Ru": 3922,
    "\u2581Eri": 3923,
    "\u2581Nh\u1edb": 3924,
    "hu": 3925,
    "\u2581Nan": 3926,
    "\u2581v\u00e1c": 3927,
    "\u2581khuya": 3928,
    "\u2581AV": 3929,
    "bi": 3930,
    "\u2581th\u1ea1c": 3931,
    "istan": 3932,
    "\u258158": 3933,
    "euron": 3934,
    "gi": 3935,
    "ns": 3936,
    "\u1ed3": 3937,
    "\u2581nh\u1ebd": 3938,
    "s\u1ef1": 3939,
    "DP": 3940,
    "\u2581Am": 3941,
    "\u258197": 3942,
    "bo": 3943,
    "h\u00f4i": 3944,
    "mar": 3945,
    "\u2581mon": 3946,
    "\u2581Thanh": 3947,
    "t\u00f4": 3948,
    "\u2581Don": 3949,
    "fi": 3950,
    "\u2581Ko": 3951,
    "\u2581tro": 3952,
    "\u2581gi\u1ebf": 3953,
    "h\u1eb7t": 3954,
    "\u2581M\u1ea1": 3955,
    "\u2581Lad": 3956,
    "h\u1ee9ng": 3957,
    "shop": 3958,
    "o\u1ea1i": 3959,
    "\u2581Ku": 3960,
    "\u2581Art": 3961,
    "uck": 3962,
    "nh\u01b0": 3963,
    "\u2581t\u00fd": 3964,
    "\u2581Ti": 3965,
    "\u2581r\u1ea9y": 3966,
    "\u2581C\u01b0\u1eddi": 3967,
    "\u2581Beau": 3968,
    "\u25811.2": 3969,
    "\u1ee3c": 3970,
    "\u2581l\u1ebdo": 3971,
    "25": 3972,
    "\u2581Alp": 3973,
    "\u2581Meli": 3974,
    "Ch\u00fang": 3975,
    "\u2581\u0111\u00ea": 3976,
    "h\u1ee5c": 3977,
    "\u2581Bi\u1ebfn": 3978,
    "100": 3979,
    "\u2581You": 3980,
    "lson": 3981,
    "hock": 3982,
    "\u25816000": 3983,
    "ean": 3984,
    "\u2581Bru": 3985,
    "\u2581B\u1edd": 3986,
    "\u2581Rand": 3987,
    "\u2581sero": 3988,
    "\u2581Men": 3989,
    "\u2581t\u1ee9": 3990,
    "\u2581Whit": 3991,
    "\u2581Mag": 3992,
    "\u258141": 3993,
    "\u2581th\u00f2": 3994,
    "\u2581k\u00ean": 3995,
    "\u2581Stan": 3996,
    "\u2581calo": 3997,
    "\u2581Qa": 3998,
    "\u2581l\u00e9": 3999,
    "\u2581185": 4000,
    "\u2581TH": 4001,
    "\u2581Gehr": 4002,
    "\u2581Oakland": 4003,
    "\u2581Himalaya": 4004,
    "\u2581Venezuela": 4005,
    "\u2581Fibonacci": 4006,
    "\u2581Stefan": 4007,
    "\u2581Brenda": 4008,
    "\u2581Pal": 4009,
    "\u2581Stone": 4010,
    "\u2581Cape": 4011,
    "moud": 4012,
    "im": 4013,
    "\u25811992": 4014,
    "\u2581\u0111\u1eafp": 4015,
    "lbert": 4016,
    "\u2581American": 4017,
    "\u0111\u1ec3": 4018,
    "matic": 4019,
    "n\u00f3i": 4020,
    "\u2581n\u1eb7n": 4021,
    "\u2581m\u1ecbn": 4022,
    "\u2581s\u00e1": 4023,
    "\u2581Gord": 4024,
    "\u2581Abu": 4025,
    "\u2581Tham": 4026,
    "\u2581s\u1ee1": 4027,
    "h\u00e9t": 4028,
    "\u2581n\u00f4n": 4029,
    "ve": 4030,
    "\u2581M\u00ea": 4031,
    "2.000": 4032,
    "\u2581199": 4033,
    "reat": 4034,
    "\u2581vi\u1ec7": 4035,
    "\u2581t\u1ea3n": 4036,
    "h\u00e1o": 4037,
    "\u2581Tob": 4038,
    "\u25811,000": 4039,
    "vis": 4040,
    "bao": 4041,
    "\u2581ng\u00e0": 4042,
    "\u2581Linu": 4043,
    "\u2581Thi\u1ebf": 4044,
    "\u2581th\u1ee7ng": 4045,
    "\u2581uy": 4046,
    "ette": 4047,
    "ic": 4048,
    "\u2581l\u1ef1": 4049,
    "\u2581\u0111i\u1ec7": 4050,
    "\u2581Farm": 4051,
    "ister": 4052,
    "old": 4053,
    "\u2581tr\u1ecdt": 4054,
    "\u2581Cri": 4055,
    "all": 4056,
    "ge": 4057,
    "\u2581Tha": 4058,
    "\u2581Ror": 4059,
    "AD": 4060,
    "\u2581Jami": 4061,
    "oel": 4062,
    "\u2581Mah": 4063,
    "\u2581Gu": 4064,
    "\u2581Oo": 4065,
    "\u2581B\u00e1n": 4066,
    "\u2581l\u00f3": 4067,
    "yl": 4068,
    "\u2581900": 4069,
    "oyo": 4070,
    "\u2581meta": 4071,
    "\u2581Frankl": 4072,
    "\u2581k\u00e8": 4073,
    "uk": 4074,
    "\u2581h\u1ebb": 4075,
    "\u00e3n": 4076,
    "\u2581nh\u1ed5": 4077,
    "\u2581CE": 4078,
    "field": 4079,
    "RG": 4080,
    "\u2581nh\u1ecdc": 4081,
    "\u2581g\u00f2": 4082,
    "\u2581yo": 4083,
    "\u00f3n": 4084,
    "key": 4085,
    "\u2581you": 4086,
    "\u1edbn": 4087,
    "\u2581Alf": 4088,
    "lan": 4089,
    "#": 4090,
    "\u2581Che": 4091,
    "\u2581Gaza": 4092,
    "\u2581\u1ea3": 4093,
    "\u2581Pepsi": 4094,
    "\u2581Yale": 4095,
    "\u2581Potter": 4096,
    "\u2581Norman": 4097,
    "\u2581Pantheon": 4098,
    "\u2581Stirling": 4099,
    "\u2581Chernobyl": 4100,
    "\u2581SOPA": 4101,
    "\u2581Bonnie": 4102,
    "\u2581Sch": 4103,
    "ctor": 4104,
    "\u2581blogger": 4105,
    "\u2581progeri": 4106,
    "\u2581qu\u1ef3": 4107,
    "\u2581Sweeney": 4108,
    "line": 4109,
    "h\u1ebft": 4110,
    "\u2581X\u00e9": 4111,
    "\u2581Tami": 4112,
    "obul": 4113,
    "\u2581gi\u0169": 4114,
    "\u2581450": 4115,
    "\u2581White": 4116,
    "\u2581Justi": 4117,
    "\u2581hormone": 4118,
    "i\u1ed1ng": 4119,
    "\u2581Vui": 4120,
    "\u2581lo\u00e0": 4121,
    "OL": 4122,
    "ga": 4123,
    "\u2581Gayl": 4124,
    "ghi\u00ean": 4125,
    "\u2581CL": 4126,
    "az": 4127,
    "car": 4128,
    "\u2581s\u00fat": 4129,
    "anon": 4130,
    "\u2581Az": 4131,
    "attle": 4132,
    "\u2581ng\u00f3": 4133,
    "\u2581T\u00f4": 4134,
    "v\u1ec1": 4135,
    "\u2581gi\u00f2n": 4136,
    "ibera": 4137,
    "\u2581East": 4138,
    "ture": 4139,
    "\u2581Fi": 4140,
    "\u2581Brit": 4141,
    "th\u1ebf": 4142,
    "\u2581Rob": 4143,
    "\u0129a": 4144,
    "\u2581Ig": 4145,
    "\u2581Bur": 4146,
    "\u2581gel": 4147,
    "oi": 4148,
    "\u2581ax": 4149,
    "\u2581Po": 4150,
    "\u2581Billy": 4151,
    "ll": 4152,
    "87": 4153,
    "ran": 4154,
    "\u2581g\u00f4n": 4155,
    "03": 4156,
    "Spee": 4157,
    "ola": 4158,
    "\u2581g\u00e1y": 4159,
    "\u2581Mel": 4160,
    "les": 4161,
    "\u1ea1c": 4162,
    "\u2581ngh\u00ea": 4163,
    "\u258147": 4164,
    "\u2581gh\u1ec1": 4165,
    "\u2581nh\u00fan": 4166,
    "\u2581c\u1ea9": 4167,
    "\u2581v\u1eb7": 4168,
    "met": 4169,
    "\u2581\u0111\u00f3m": 4170,
    "nberg": 4171,
    "lore": 4172,
    "\u2581b\u1eef": 4173,
    "\u2581Fe": 4174,
    "\u2581b\u1ecbch": 4175,
    "hran": 4176,
    "\u2581Sir": 4177,
    "\u2581m\u0129": 4178,
    "\u2581Ar": 4179,
    "\u1ed9": 4180,
    "\u2581m\u1eb7": 4181,
    "uy\u1ec5n": 4182,
    "fa": 4183,
    "\u2581Allen": 4184,
    "\u2581Tay": 4185,
    "adio": 4186,
    "\u2581nh\u00ec": 4187,
    "\u2581Shir": 4188,
    "-2": 4189,
    "ium": 4190,
    "\u2581Ti\u00ean": 4191,
    "\u1ed9m": 4192,
    "\u2581Gand": 4193,
    "\u2581Evere": 4194,
    "v\u00e0o": 4195,
    "\u258177": 4196,
    "\u2581Williams": 4197,
    "\u1ef1ng": 4198,
    "ew": 4199,
    "\u2581Nico": 4200,
    "rey": 4201,
    "\u2581110": 4202,
    "\u2581Gi\u00ea": 4203,
    "enter": 4204,
    "gall": 4205,
    "\u2581q": 4206,
    "\u2581Cair": 4207,
    "\u2581Fred": 4208,
    "\u2581ch\u00f2": 4209,
    "\u2581Matthew": 4210,
    "ight": 4211,
    "\u2581MoMA": 4212,
    "\u2581Anthon": 4213,
    "\u2581Tahrir": 4214,
    "\u2581Jamaica": 4215,
    "\u25811989": 4216,
    "\u2581Meyer": 4217,
    "\u2581Helen": 4218,
    "\u2581Hanna": 4219,
    "\u2581Intel": 4220,
    "CO": 4221,
    "\u2581360": 4222,
    "obo": 4223,
    "\u2581Caltech": 4224,
    "\u2581Nguy": 4225,
    "\u2581s\u0103": 4226,
    "pu": 4227,
    "nivers": 4228,
    "\u2581Harr": 4229,
    "\u2581th\u00ea": 4230,
    "\u2581Mathe": 4231,
    "\u2581Dol": 4232,
    "ak": 4233,
    "bi\u1ebft": 4234,
    "tia": 4235,
    "\u2581su\u1ed1": 4236,
    "h\u00fat": 4237,
    "\u2581Tai": 4238,
    "\u25811.3": 4239,
    "o\u00e0": 4240,
    "\u2581r\u1ee3": 4241,
    "ryl": 4242,
    "\u2581top": 4243,
    "\u2581hun": 4244,
    "\u2581foot": 4245,
    "\u2581Home": 4246,
    "\u2581Mad": 4247,
    "hi\u1ec7m": 4248,
    "vi\u1ec7c": 4249,
    "\u2581AR": 4250,
    "\u2581Las": 4251,
    "olm": 4252,
    "\u2581iPa": 4253,
    "\u2581kh\u1edd": 4254,
    "\u2581Aar": 4255,
    "\u2581Bu": 4256,
    "\u2581CC": 4257,
    "\u2581Dr": 4258,
    "\u2581Stand": 4259,
    "\u2581phu": 4260,
    "ire": 4261,
    "94": 4262,
    "\u2581Sin": 4263,
    "evo": 4264,
    "\u2581g\u1ea1c": 4265,
    "ifer": 4266,
    "\u2581Mau": 4267,
    "\u2581Sug": 4268,
    "\u2581b\u00e9n": 4269,
    "\u2581Mars": 4270,
    "\u2581Bil": 4271,
    "\u2581Dur": 4272,
    "su": 4273,
    "hi\u00eau": 4274,
    "taxi": 4275,
    "\u2581Kay": 4276,
    "\u2581d\u1ed1t": 4277,
    "ph\u1ea3i": 4278,
    "scar": 4279,
    "\u2581n\u00e0": 4280,
    "\u2581Nichol": 4281,
    "r\u00f4": 4282,
    "\u258178": 4283,
    "rt": 4284,
    "illa": 4285,
    "hu\u1eadt": 4286,
    "h\u1ea5n": 4287,
    "\u2581tr\u00ea": 4288,
    "\u2581Air": 4289,
    "\u2581She": 4290,
    "cca": 4291,
    "c\u1ed1t": 4292,
    "\u2581r\u1ed9": 4293,
    "\u258157": 4294,
    "s\u1ebd": 4295,
    "h\u00e1t": 4296,
    "\u2581Tri": 4297,
    "AG": 4298,
    "o\u00e1t": 4299,
    "\u2581g\u00e0o": 4300,
    "\u2581Ram": 4301,
    "\u1ecbt": 4302,
    "ica": 4303,
    "\u2581Maria": 4304,
    "orn": 4305,
    "n\u00f4": 4306,
    "h\u00f9": 4307,
    "able": 4308,
    "heo": 4309,
    "\u01b0\u1eddn": 4310,
    "h\u0129": 4311,
    "\u0111\u1ebfn": 4312,
    "kins": 4313,
    "stan": 4314,
    "\u2581b\u00e1ng": 4315,
    "av": 4316,
    "que": 4317,
    "\u2581c\u1ed7i": 4318,
    "\u258110000": 4319,
    "\u2581Ess": 4320,
    "\u2581tr\u00f4n": 4321,
    "\u2581l\u01b0": 4322,
    "l\u00f4": 4323,
    "\u2581r\u1eaf": 4324,
    "\u2581d\u00e2": 4325,
    "\u258182": 4326,
    "oya": 4327,
    "\u2581N\u1ed5": 4328,
    "\u2581Archi": 4329,
    "\u2581Im": 4330,
    "79": 4331,
    "\u2581PIPA": 4332,
    "\u25811986": 4333,
    "\u2581Jake": 4334,
    "\u2581Palestin": 4335,
    "\u2581Agn": 4336,
    "\u2581Ariel": 4337,
    "\u2581Ireland": 4338,
    "\u2581Hiroshi": 4339,
    "\u2581Arkansas": 4340,
    "water": 4341,
    "\u2581Charlotte": 4342,
    "\u2581TEDTalk": 4343,
    "\u2581Tennessee": 4344,
    "\u2581Pennsylvania": 4345,
    "\u2581TEDWomen": 4346,
    "\u2581Dennis": 4347,
    "\u2581Cooper": 4348,
    "\u2581Miller": 4349,
    "u\u1ed1c": 4350,
    "\u2581Brook": 4351,
    "\u2581Serge": 4352,
    "\u2581SA": 4353,
    "\u2581pr\u00f4": 4354,
    "\u2581ho\u00f3c": 4355,
    "\u2581noi": 4356,
    "\u2581Pe": 4357,
    "qu\u1eb3ng": 4358,
    "\u2581Brand": 4359,
    "\u2581INC": 4360,
    "\u2581Palextin": 4361,
    "\u2581Grant": 4362,
    "\u2581193": 4363,
    "\u2581Malco": 4364,
    "cratch": 4365,
    "\u2581cello": 4366,
    "\u2581nho\u00e1ng": 4367,
    "\u2581h\u1eb1n": 4368,
    "\u2581bu": 4369,
    "watt": 4370,
    "\u2581cu": 4371,
    "\u1ec3u": 4372,
    "daf": 4373,
    "\u2581Coch": 4374,
    "\u2581Tara": 4375,
    "\u2581copy": 4376,
    "\u2581h\u00f3t": 4377,
    "\u25812013": 4378,
    "\u2581Mahat": 4379,
    "\u2581Job": 4380,
    "\u258168": 4381,
    "\u2581Alto": 4382,
    "mala": 4383,
    "\u2581Avi": 4384,
    "\u2581Hom": 4385,
    "\u2581Goer": 4386,
    "\u2581Anne": 4387,
    "\u2581Eli": 4388,
    "khi": 4389,
    "\u2581Case": 4390,
    "\u2581b\u00edp": 4391,
    "\u00e3o": 4392,
    "r\u1eb1ng": 4393,
    "\u2581Sebastia": 4394,
    "i\u1ec1": 4395,
    "\u2581Ph\u1ed5": 4396,
    "\u2581s\u1ee5n": 4397,
    "\u2581Trice": 4398,
    "\u2581nhoi": 4399,
    "\u2581ng\u00f2": 4400,
    "\u2581Acce": 4401,
    "berry": 4402,
    "DA": 4403,
    "ith": 4404,
    "Tu\u1ed5i": 4405,
    "\u2581Ch\u1eaf": 4406,
    "iro": 4407,
    "ama": 4408,
    "\u2581Juan": 4409,
    "\u2581Fl": 4410,
    "\u2581d\u1eaf": 4411,
    "h\u1ed5i": 4412,
    "Point": 4413,
    "\u2581CH": 4414,
    "\u2581Angel": 4415,
    "lu": 4416,
    "he": 4417,
    "rick": 4418,
    "\u2581Cal": 4419,
    "\u0110": 4420,
    "\u2581gi\u1edf": 4421,
    "fli": 4422,
    "rack": 4423,
    "\u2581Arm": 4424,
    "\u2581nhai": 4425,
    "iffe": 4426,
    "q": 4427,
    "\u1ed3m": 4428,
    "\u2581Ng\u01b0": 4429,
    "\u2581\u0110\u1ea3": 4430,
    "m\u00f4n": 4431,
    "\u2581tu\u00f4n": 4432,
    "ke": 4433,
    "hire": 4434,
    "\u2581Ac": 4435,
    "anka": 4436,
    "\u2581b\u1ead": 4437,
    "\u2581Val": 4438,
    "\u2581BP": 4439,
    "\u2581d\u1ea3": 4440,
    "rah": 4441,
    "\u2581gluco": 4442,
    "\u2581Luc": 4443,
    "\u2581n\u00f3n": 4444,
    "abad": 4445,
    "\u2581ng\u01a1": 4446,
    "ven": 4447,
    "nie": 4448,
    "oah": 4449,
    "ound": 4450,
    "\u2581Ni": 4451,
    "\u2581ngh\u1eb9": 4452,
    "\u2581LH": 4453,
    "\u2581M\u00e0n": 4454,
    "gh": 4455,
    "\u2581Clo": 4456,
    "\u2581d\u0169": 4457,
    "\u2581r\u00e1n": 4458,
    "\u2581Max": 4459,
    "\u2581En": 4460,
    "\u2581gi\u1eb7": 4461,
    "\u2581ph\u1edb": 4462,
    "wen": 4463,
    "ulu": 4464,
    "ek": 4465,
    "l\u00ea": 4466,
    "\u2581mi\u00ean": 4467,
    "\u25811500": 4468,
    "\u0111\u00e2y": 4469,
    "h\u00f3i": 4470,
    "\u2581Mari": 4471,
    "\u2581proto": 4472,
    "ska": 4473,
    "\u2581Len": 4474,
    "per": 4475,
    "\u2581Euro": 4476,
    "\u2581s\u00f2": 4477,
    "\u2581HS": 4478,
    "\u2581Fellow": 4479,
    "\u2581bla": 4480,
    "\u2581Alis": 4481,
    "\u2581l\u1ea7": 4482,
    "oogle": 4483,
    "\u2581Odysse": 4484,
    "\u2581Rezero": 4485,
    "\u2581Aurora": 4486,
    "\u2581Sioux": 4487,
    "\u2581milimet": 4488,
    "\u2581Hopkins": 4489,
    "\u2581IKE": 4490,
    "\u2581Kiva": 4491,
    "\u2581Bonnet": 4492,
    "\u2581Austral": 4493,
    "\u2581Bayes": 4494,
    "\u2581CIA": 4495,
    "\u2581Oz": 4496,
    "\u2581Xa": 4497,
    "\u2581Connecticut": 4498,
    "\u2581S\u1eb5n": 4499,
    "\u2581Nauy": 4500,
    "\u2581Tunisia": 4501,
    "\u2581Browne": 4502,
    "\u25811800": 4503,
    "\u2581Hmm": 4504,
    "\u2581Malay": 4505,
    "13": 4506,
    "\u2581Scoo": 4507,
    "\u2581Donald": 4508,
    "\u2581Found": 4509,
    "\u2581S\u1ef9": 4510,
    "horn": 4511,
    "\u2581r\u1eaby": 4512,
    "\u2581Amsterdam": 4513,
    "\u2581Liber": 4514,
    "\u2581l\u1ea1y": 4515,
    "\u2581Brad": 4516,
    "\u2581Rocket": 4517,
    "u\u1eadn": 4518,
    "\u2581chu\u1ed3n": 4519,
    "\u2581Russel": 4520,
    "\u2581Tso": 4521,
    "port": 4522,
    "h\u1ee5": 4523,
    "\u2581Kle": 4524,
    "\u2581Mont": 4525,
    "\u2581Ti\u1ec1": 4526,
    "12": 4527,
    "\u2581Jud": 4528,
    "\u258176": 4529,
    "\u2581Papu": 4530,
    "\u2581Burn": 4531,
    "\u2581q\u00fa": 4532,
    "\u2581Tu": 4533,
    "\u2581\u0111\u00f9i": 4534,
    "\u2581Stockh": 4535,
    "\u2581Sant": 4536,
    "\u258154": 4537,
    "\u2581Gua": 4538,
    "huynh": 4539,
    "\u2581V\u1edb": 4540,
    "\u2581Rebe": 4541,
    "bul": 4542,
    "\u2581Jacque": 4543,
    "\u2581Robins": 4544,
    "xe": 4545,
    "\u258184": 4546,
    "\u2581Pier": 4547,
    "r\u1edf": 4548,
    "\u2581Indiana": 4549,
    "\u258153": 4550,
    "har": 4551,
    "l\u1ea1i": 4552,
    "\u2581gam": 4553,
    "\u2581Pun": 4554,
    "lip": 4555,
    "h\u01b0": 4556,
    "\u2581Eco": 4557,
    "sburg": 4558,
    "\u2581Cent": 4559,
    "\u2581187": 4560,
    "ker": 4561,
    "89": 4562,
    "\u2581Lock": 4563,
    "ynth": 4564,
    "ris": 4565,
    "th\u1eddi": 4566,
    "\u2581hon": 4567,
    "\u2581RI": 4568,
    "\u2581Alla": 4569,
    "\u2581Wang": 4570,
    "Pad": 4571,
    "h\u00f3c": 4572,
    "\u2581chi\u00ea": 4573,
    "\u2581\u0111\u1ea3": 4574,
    "\u2581Cher": 4575,
    "\u2581\u1ee7": 4576,
    "\u2581ch\u1eadu": 4577,
    "Qa": 4578,
    "nick": 4579,
    "\u2581Bach": 4580,
    "BI": 4581,
    "sai": 4582,
    "00.000": 4583,
    "ari": 4584,
    "\u2581hop": 4585,
    "h\u00eda": 4586,
    "yne": 4587,
    "here": 4588,
    "bro": 4589,
    "\u25817000": 4590,
    "\u1ecd": 4591,
    "h\u00ecnh": 4592,
    "\u2581cata": 4593,
    "\u2581Gre": 4594,
    "love": 4595,
    "\u2581Boy": 4596,
    "ame": 4597,
    "\u2581c\u01b0ng": 4598,
    "th\u1ea5y": 4599,
    "\u2581euro": 4600,
    "\u2581d\u1eb7": 4601,
    "\u2581Gene": 4602,
    "arty": 4603,
    "\u2581v\u1ebf": 4604,
    "\u2581th\u00e8": 4605,
    "\u25811.6": 4606,
    "mas": 4607,
    "\u258167": 4608,
    "\u2581Tor": 4609,
    "\u2581thi\u1ec3n": 4610,
    "\u1eb7m": 4611,
    "\u2581doo": 4612,
    "\u2581Aust": 4613,
    "\u2581Ju": 4614,
    "\u2581Ber": 4615,
    "h\u1ec3": 4616,
    "\u2581thi\u00ea": 4617,
    "\u2581Ph\u00f3": 4618,
    "\u2581m\u1ecb": 4619,
    "\u2581Ri": 4620,
    "\u2581Hirsh": 4621,
    "\u2581Gapminder": 4622,
    "\u2581Ixaren": 4623,
    "\u2581Picasso": 4624,
    "\u2581cocktail": 4625,
    "\u2581Gabriel": 4626,
    "\u2581Rives": 4627,
    "\u2581Studio": 4628,
    "acre": 4629,
    "\u2581Heather": 4630,
    "\u2581n\u1ecdc": 4631,
    "\u2581Shaw": 4632,
    "\u2581Wales": 4633,
    "\u2581Danny": 4634,
    "\u25811940": 4635,
    "\u2581marat": 4636,
    "\u2581Photo": 4637,
    "\u2581M\u1ea1c": 4638,
    "\u2581demo": 4639,
    "tz": 4640,
    "\u2581JK": 4641,
    "\u2581Huck": 4642,
    "\u2581Minne": 4643,
    "\u2581Oxy": 4644,
    "\u2581Tel": 4645,
    "\u2581Bloom": 4646,
    "scal": 4647,
    "\u2581Seth": 4648,
    "\u2581d\u1eb1n": 4649,
    "\u2581suy\u1ec5n": 4650,
    "\u2581Ki\u1ebf": 4651,
    "kraine": 4652,
    "\u2581Wilson": 4653,
    "\u25813,5": 4654,
    "SF": 4655,
    "ins": 4656,
    "45": 4657,
    "\u258140.000": 4658,
    "\u2581Viki": 4659,
    "\u2581Heh": 4660,
    "\u2581Ash": 4661,
    "\u2581TEDster": 4662,
    "\u258156": 4663,
    "c\u1ea3": 4664,
    "\u2581Chu": 4665,
    "\u2581kha": 4666,
    "\u2581Michel": 4667,
    "sion": 4668,
    "\u2581Git": 4669,
    "th\u00ec": 4670,
    "\u2581C\u00fa": 4671,
    "\u2581SS": 4672,
    "ghi": 4673,
    "\u2581b\u1ee3": 4674,
    "\u2581Rag": 4675,
    "\u2581gara": 4676,
    ".5": 4677,
    "\u2581Sc": 4678,
    "\u2581Far": 4679,
    "\u2581Robbi": 4680,
    "\u2581meme": 4681,
    "\u2581Phillip": 4682,
    "16": 4683,
    "\u2581Christ": 4684,
    "\u0111ang": 4685,
    "hop": 4686,
    "meer": 4687,
    "\u25811,2": 4688,
    "ina": 4689,
    "\u2581Child": 4690,
    "\u2581n\u1ea1t": 4691,
    "\u2581MW": 4692,
    "\u2581Patric": 4693,
    "amma": 4694,
    "\u2581Pran": 4695,
    "\u25811,3": 4696,
    "\u2581Ala": 4697,
    "\u2581th\u1ed1": 4698,
    "\u2581Moo": 4699,
    "\u2581SB": 4700,
    "44": 4701,
    "\u2581Phil": 4702,
    "\u2581Chim": 4703,
    "t\u1eeb": 4704,
    "\u2581tem": 4705,
    "mond": 4706,
    "\u2581s\u00fa": 4707,
    "\u2581bit": 4708,
    "\u2581Chen": 4709,
    "\u2581\u0110\u1eb7": 4710,
    "r\u01b0\u1edf": 4711,
    "\u2581Lab": 4712,
    "ical": 4713,
    "men": 4714,
    "\u25812-3": 4715,
    "\u2581Ya": 4716,
    "\u2581Rivers": 4717,
    "\u2581Tr\u1eaf": 4718,
    "bes": 4719,
    "iley": 4720,
    "ud": 4721,
    "\u2581S\u1ee3": 4722,
    "\u2581s\u1ea3": 4723,
    "\u2581Kos": 4724,
    "\u2581li\u00ea": 4725,
    "bu": 4726,
    "\u2581Sim": 4727,
    "uit": 4728,
    "\u2581Pra": 4729,
    "\u2581Bern": 4730,
    "\u2581pa": 4731,
    "\u2581Harris": 4732,
    "ARPA": 4733,
    "\u2581T\u1edb": 4734,
    "200": 4735,
    "LA": 4736,
    "kh\u00e1c": 4737,
    "\u2581Ser": 4738,
    "ovo": 4739,
    "ller": 4740,
    "ower": 4741,
    "\u2581BR": 4742,
    "\u2581Georgi": 4743,
    "\u2581tr\u01a1": 4744,
    "up": 4745,
    "\u2581nh\u00f2": 4746,
    "ple": 4747,
    "\u2581Dick": 4748,
    "\u2581\u0110\u1ec1": 4749,
    "\u2581Ele": 4750,
    "\u2581baz": 4751,
    "\u2581Kat": 4752,
    "ortis": 4753,
    "fus": 4754,
    "\u2581Ki\u1ec3": 4755,
    "\u2581Ahmed": 4756,
    "gal": 4757,
    "\u258139": 4758,
    "un": 4759,
    "\u2581Sh": 4760,
    "ul": 4761,
    "rd": 4762,
    "r\u1ecdng": 4763,
    "SC": 4764,
    "\u2581Gian": 4765,
    "\u2581Bar": 4766,
    "\u2581Trea": 4767,
    "\u2581Ever": 4768,
    "\u2581h\u00f9": 4769,
    "din": 4770,
    "\u2581Mard": 4771,
    "mbor": 4772,
    "\u2581Jan": 4773,
    "\u2581Rod": 4774,
    "\u2581Gan": 4775,
    "c\u00f4ng": 4776,
    "y\u1ebfn": 4777,
    "\u2581Had": 4778,
    "nburg": 4779,
    "\u2581HP": 4780,
    "\u2581C\u1ef1": 4781,
    "ho\u1ea1t": 4782,
    "\u2581\u0111u": 4783,
    "\u2581Woo": 4784,
    "\u2581Campuchia": 4785,
    "\u2581Illinois": 4786,
    "\u2581Massachusetts": 4787,
    "\u2581Pittsburgh": 4788,
    "\u2581Guardian": 4789,
    "\u2581Achill": 4790,
    "\u2581gi\u1ecf": 4791,
    "\u2581Geoff": 4792,
    "\u2581Ottoman": 4793,
    "\u2581Kendal": 4794,
    "\u2581Neuman": 4795,
    "\u2581Show": 4796,
    "\u2581Java": 4797,
    "\u2581Hunter": 4798,
    "\u2581Nicole": 4799,
    "\u2581Ohio": 4800,
    "\u25811918": 4801,
    "\u25811983": 4802,
    "\u25811965": 4803,
    "\u2581token": 4804,
    "\u2581ARN": 4805,
    "\u25811920": 4806,
    "wow": 4807,
    "\u2581Brother": 4808,
    "\u25812015": 4809,
    "\u2581Ital": 4810,
    "\u2581Jerem": 4811,
    "\u2581Vinc": 4812,
    "\u2581Galil": 4813,
    "\u2581Owen": 4814,
    "\u2581Barbar": 4815,
    "\u2581Aa": 4816,
    "\u2581Mellon": 4817,
    "usse": 4818,
    "\u2581Shah": 4819,
    "nhi\u1ec1u": 4820,
    "\u2581Monter": 4821,
    "\u2581Yv": 4822,
    "\u2581Turin": 4823,
    "\u258130.000": 4824,
    "\u2581Walter": 4825,
    "her": 4826,
    "\u2581Th\u1ea7": 4827,
    "\u2581401": 4828,
    "\u2581Pilot": 4829,
    "\u2581Prize": 4830,
    "\u2581Rama": 4831,
    "onia": 4832,
    "i\u1ec7m": 4833,
    "\u2581House": 4834,
    "\u2581sen": 4835,
    "th\u1ef1c": 4836,
    "\u2581Her": 4837,
    "90": 4838,
    "\u2581Moza": 4839,
    "\u2581Clark": 4840,
    "\u2581Lake": 4841,
    "\u2581L\u0169": 4842,
    "\u2581\u0111\u1ecd": 4843,
    "OS": 4844,
    "sek": 4845,
    "\u2581\u00e0": 4846,
    "ltim": 4847,
    "\u2581Tho\u1ea3": 4848,
    "\u25814.000": 4849,
    "c\u00e1ch": 4850,
    "\u2581r\u1eb7": 4851,
    "\u2581L\u1ea1nh": 4852,
    "\u2581Valle": 4853,
    "\u2581thuy\u00ean": 4854,
    "\u2581mu": 4855,
    "over": 4856,
    "\u2581Vai": 4857,
    "\u2581Ch\u1ea3": 4858,
    "bia": 4859,
    "\u2581Sang": 4860,
    "\u2581Song": 4861,
    "wick": 4862,
    "cha": 4863,
    "ntu": 4864,
    "urek": 4865,
    "\u2581g\u1ec9": 4866,
    "h\u00edch": 4867,
    "\u2581H\u1ed7": 4868,
    "h\u1ebb": 4869,
    "\u2581Lim": 4870,
    "\u2581Basi": 4871,
    "\u2581Dra": 4872,
    "CL": 4873,
    "\u2581nh\u00f4": 4874,
    "huma": 4875,
    "\u2581Baha": 4876,
    "MP": 4877,
    "\u2581nai": 4878,
    "nish": 4879,
    "\u2581Anna": 4880,
    "\u2581Th\u00e1n": 4881,
    "\u2581Mik": 4882,
    "at": 4883,
    "\u2581Ell": 4884,
    "ze": 4885,
    "\u2581M\u0169": 4886,
    "\u2581vv": 4887,
    "\u2581Young": 4888,
    "uddin": 4889,
    "tion": 4890,
    "ah": 4891,
    "atops": 4892,
    "ya": 4893,
    "\u2581laze": 4894,
    "h\u1ed3i": 4895,
    "\u1eb5n": 4896,
    "\u2581Water": 4897,
    "92": 4898,
    "ral": 4899,
    "\u2581Radio": 4900,
    "ilton": 4901,
    "\u2581Del": 4902,
    "\u2581b\u00f4": 4903,
    "vin": 4904,
    "ipcar": 4905,
    "ans": 4906,
    "ickr": 4907,
    "ego": 4908,
    "\u1eb9n": 4909,
    "\u2581nhan": 4910,
    "15": 4911,
    "ideo": 4912,
    "h\u01b0\u1edbc": 4913,
    "ness": 4914,
    "29": 4915,
    "Prince": 4916,
    "gu\u1ed3n": 4917,
    "58": 4918,
    "eil": 4919,
    "\u2581Rad": 4920,
    "\u2581ni": 4921,
    "ali": 4922,
    "\u2581w": 4923,
    "arter": 4924,
    "ies": 4925,
    "unk": 4926,
    "CA": 4927,
    "\u0111\u1ed9ng": 4928,
    "ook": 4929,
    "\u2581xao": 4930,
    "\u2581b\u1edf": 4931,
    "lee": 4932,
    "mara": 4933,
    "\u2581Kh\u01a1": 4934,
    "rin": 4935,
    "ala": 4936,
    "\u2581d\u1ebf": 4937,
    "\u2581Au": 4938,
    "\u2581nit": 4939,
    "r\u1eadp": 4940,
    "\u2581Du": 4941,
    "tein": 4942,
    "\u2581Row": 4943,
    "are": 4944,
    "\u2581tri\u1ebf": 4945,
    "v\u00ec": 4946,
    "\u2581750": 4947,
    "\u2581Quy\u1ebf": 4948,
    "\u2581d\u00ed": 4949,
    "\u2581Emman": 4950,
    "\u2581von": 4951,
    "ago": 4952,
    "\u2581Is": 4953,
    "\u2581365": 4954,
    "ch\u1ec9": 4955,
    "\u2581Gamb": 4956,
    "SDA": 4957,
    "off": 4958,
    "\u2581V\u1eab": 4959,
    "\u2581Tweet": 4960,
    "oga": 4961,
    "\u2581\u0110\u1ea1": 4962,
    "th\u00e0nh": 4963,
    "h\u1ee7ng": 4964,
    "600": 4965,
    "\u2581Son": 4966,
    "nos": 4967,
    "rren": 4968,
    "RS": 4969,
    "\u2581Bandu": 4970,
    "h\u00fac": 4971,
    "\u2581r\u1ea7u": 4972,
    "dale": 4973,
    "\u2581FD": 4974,
    "burg": 4975,
    "\u2581mili": 4976,
    "\u2581K\u00ed": 4977,
    "tro": 4978,
    "\u0111": 4979,
    "h\u1ec9": 4980,
    "\u2581Limb": 4981,
    "\u2581Greg": 4982,
    "tler": 4983,
    "h\u01a1n": 4984,
    "\u2581Mang": 4985,
    "\u01b0\u1ee1i": 4986,
    "\u2581Doll": 4987,
    "\u2581t\u1ee3n": 4988,
    "\u2581Hunt": 4989,
    "oxy": 4990,
    "\u2581S\u1ee9": 4991,
    "\u2581Afganistan": 4992,
    "\u2581Duoling": 4993,
    "\u2581Enceladus": 4994,
    "\u2581Exxon": 4995,
    "\u2581Kentuck": 4996,
    "\u2581Mozambique": 4997,
    "\u2581Roosevelt": 4998,
    "\u2581penicillin": 4999,
    "\u2581Madagas": 5000,
    "\u2581Senegal": 5001,
    "\u2581Malawi": 5002,
    "\u2581complex": 5003,
    "\u2581England": 5004,
    "\u2581Jarret": 5005,
    "\u2581Reddit": 5006,
    "\u2581Morgan": 5007,
    "\u2581School": 5008,
    "\u2581kil\u00f4": 5009,
    "\u2581Aspe": 5010,
    "\u2581Clevela": 5011,
    "\u2581Church": 5012,
    "\u2581Glad": 5013,
    "\u25811949": 5014,
    "-40": 5015,
    "Hz": 5016,
    "\u2581n\u0103n": 5017,
    "\u2581Hyder": 5018,
    "\u2581Window": 5019,
    "\u2581L\u00e3": 5020,
    "NICE": 5021,
    "ookie": 5022,
    "\u2581nga": 5023,
    "\u2581Wiki": 5024,
    "\u2581Philippine": 5025,
    "\u2581mic": 5026,
    "\u2581Full": 5027,
    "raft": 5028,
    "\u2581Wire": 5029,
    "\u2581Mall": 5030,
    "\u2581At": 5031,
    "\u2581ph\u1ec9": 5032,
    "\u2581Ola": 5033,
    "\u25811-2": 5034,
    "\u2581IP": 5035,
    "manda": 5036,
    "\u258112.000": 5037,
    "\u2581Ngh": 5038,
    "\u2581Wood": 5039,
    "\u2581McCa": 5040,
    "\u2581Christian": 5041,
    "\u2581bi\u00ea": 5042,
    "run": 5043,
    "\u2581Lar": 5044,
    "\u25818000": 5045,
    "\u2581Pri": 5046,
    "\u2581Dam": 5047,
    "ax": 5048,
    "ff": 5049,
    "\u2581Nicola": 5050,
    "owan": 5051,
    "\u2581tr\u0169ng": 5052,
    "\u2581Jenni": 5053,
    "\u2581Adria": 5054,
    "ru": 5055,
    "09": 5056,
    "\u25810.5": 5057,
    "\u2581L\u00ed": 5058,
    "\u25811.8": 5059,
    "\u2581Robi": 5060,
    "\u2581Camp": 5061,
    "\u2581Kath": 5062,
    "48": 5063,
    "\u258174": 5064,
    "enix": 5065,
    "\u2581Medi": 5066,
    "\u2581\u1eebm": 5067,
    "\u2581v\u1ed3ng": 5068,
    "Chryst": 5069,
    "\u2581oxide": 5070,
    "u\u00fdt": 5071,
    "\u2581neo": 5072,
    "tar": 5073,
    "\u2581v\u01b0\u1ee3n": 5074,
    "\u2581TG": 5075,
    "\u2581Hard": 5076,
    "\u2581Di\u1ec5": 5077,
    "\u2581Kan": 5078,
    "res": 5079,
    "cher": 5080,
    "\u2581r\u0103n": 5081,
    "\u2581NI": 5082,
    "otto": 5083,
    "\u1ee3n": 5084,
    "\u2581101": 5085,
    "liu": 5086,
    "h\u01b0\u1edfng": 5087,
    "\u2581Head": 5088,
    "\u2581l\u01b0\u01a1n": 5089,
    "\u2581Color": 5090,
    "\u25810.1": 5091,
    "\u2581Jas": 5092,
    "\u2581Perc": 5093,
    "\u2581Lega": 5094,
    "ridge": 5095,
    "cent": 5096,
    "\u2581Hi\u1ec3": 5097,
    "ase": 5098,
    "\u2581Rum": 5099,
    "\u2581Barto": 5100,
    "sus": 5101,
    "raham": 5102,
    "lm": 5103,
    "\u2581ngo\u1ea1": 5104,
    "\u2581Tuy\u1ebft": 5105,
    "amie": 5106,
    "\u2581mix": 5107,
    "\u2581Gilli": 5108,
    "\u2581nh\u1ea3": 5109,
    "z\u01a1": 5110,
    "\u2581Rita": 5111,
    "\u2581\u0110\u1ee9": 5112,
    "eline": 5113,
    "g\u00ec": 5114,
    "nh\u01b0ng": 5115,
    "\u2581Perr": 5116,
    "\u2581Mira": 5117,
    "\u2581v\u1eb9": 5118,
    "t\u1ea5t": 5119,
    "\u2581Goldi": 5120,
    "\u2581b\u01b0": 5121,
    "cus": 5122,
    "ale": 5123,
    "\u2581m\u00fa": 5124,
    "\u2581gra": 5125,
    "m\u00ecnh": 5126,
    "\u2581AI": 5127,
    "ition": 5128,
    "h\u1ea5t": 5129,
    "oir": 5130,
    "\u2581Luri": 5131,
    "oanh": 5132,
    "uga": 5133,
    "27": 5134,
    "\u2581quy\u00ea": 5135,
    "\u2581tr\u1edd": 5136,
    "va": 5137,
    "\u2581Cla": 5138,
    "c\u1ee5": 5139,
    "300": 5140,
    "\u2581It": 5141,
    "\u2581We": 5142,
    "85": 5143,
    "MA": 5144,
    "\u2581Hamp": 5145,
    "ealan": 5146,
    "insky": 5147,
    "r\u00e8m": 5148,
    "\u2581Sta": 5149,
    "\u2581Mur": 5150,
    "qu": 5151,
    "\u2581Point": 5152,
    "MF": 5153,
    "\u2581lon": 5154,
    "\u258166": 5155,
    "\u2581ng\u1ecf": 5156,
    "Phi": 5157,
    "\u2581Davi": 5158,
    "TS": 5159,
    "qua": 5160,
    "ene": 5161,
    "---": 5162,
    "\u2581Wu": 5163,
    "ddie": 5164,
    "ffit": 5165,
    "\u2581for": 5166,
    "\u2581DD": 5167,
    "ion": 5168,
    "rich": 5169,
    "\u2581McK": 5170,
    "Lee": 5171,
    "ouse": 5172,
    "oad": 5173,
    "lic": 5174,
    "nh\u1ed3i": 5175,
    "umari": 5176,
    "AL": 5177,
    "b\u00ea": 5178,
    "ippi": 5179,
    "\u2581Bou": 5180,
    "aria": 5181,
    "fu": 5182,
    "une": 5183,
    "wa": 5184,
    "\u2581woo": 5185,
    "elle": 5186,
    "\u2581190": 5187,
    "anor": 5188,
    "\u2581Cap": 5189,
    "lick": 5190,
    "las": 5191,
    "kat": 5192,
    "c\u00e1i": 5193,
    "\u2581gi\u1ead": 5194,
    "nders": 5195,
    "dez": 5196,
    "\u2581Br": 5197,
    "ieu": 5198,
    "\u2581b\u1ed5n": 5199,
    "\u2581eB": 5200,
    "ES": 5201,
    "\u2581Toro": 5202,
    "\u0111\u1ea7u": 5203,
    "hu\u1ed9": 5204,
    "\u2581PC": 5205,
    "llage": 5206,
    "yle": 5207,
    "\u2581Sadd": 5208,
    "rrow": 5209,
    "\u2581m\u01b0\u1ee3": 5210,
    "\u2581Post": 5211,
    "endo": 5212,
    "sky": 5213,
    "blog": 5214,
    "ould": 5215,
    "oney": 5216,
    "\u2581Pac": 5217,
    "uza": 5218,
    "\u2581Robin": 5219,
    "\u2581wi": 5220,
    "tr\u00ean": 5221,
    "hu\u1ef3": 5222,
    "\u258100": 5223,
    "\u2581ng\u01b0\u1ee3ng": 5224,
    "\u2581Shre": 5225,
    "\u2581Ata": 5226,
    "dad": 5227,
    "\u25811200": 5228,
    "toni": 5229,
    "\u2581Sisyph": 5230,
    "engineering": 5231,
    "\u2581Android": 5232,
    "\u2581Cassini": 5233,
    "\u2581Chechnya": 5234,
    "\u2581Feynman": 5235,
    "\u2581Missouri": 5236,
    "awesome": 5237,
    "\u2581Balkan": 5238,
    "\u2581Online": 5239,
    "\u2581Isabel": 5240,
    "\u2581Budrus": 5241,
    "\u2581Darfur": 5242,
    "\u2581Knight": 5243,
    "\u2581Nikola": 5244,
    "ennis": 5245,
    "\u2581Gifford": 5246,
    "\u2581Buffet": 5247,
    "\u2581Splashy": 5248,
    "\u2581Food": 5249,
    "\u2581Ferris": 5250,
    "\u2581webcam": 5251,
    "shmi": 5252,
    "93": 5253,
    "\u2581CDC": 5254,
    "osph": 5255,
    "\u2581Bagh": 5256,
    "Murdo": 5257,
    "\u2581Vila": 5258,
    "\u25810,0": 5259,
    "\u2581m\u1ea5": 5260,
    "\u2581Newcast": 5261,
    "\u2581China": 5262,
    "\u2581Wor": 5263,
    "\u2581Denisovan": 5264,
    "\u2581Sting": 5265,
    "\u258159": 5266,
    "\u2581Good": 5267,
    "prof": 5268,
    "\u2581Trinida": 5269,
    "\u2581Frederic": 5270,
    "\u2581nh\u00e1p": 5271,
    "\u2581bloop": 5272,
    "geria": 5273,
    "\u2581Lind": 5274,
    "\u2581One": 5275,
    "\u2581Missis": 5276,
    "ni": 5277,
    "\u258163": 5278,
    "\u2581Ph\u00fac": 5279,
    "\u2581Beth": 5280,
    "\u1ec5u": 5281,
    "aki": 5282,
    "\u2581Kant": 5283,
    "\u2581Lauren": 5284,
    "ado": 5285,
    "ack": 5286,
    "\u2581polymer": 5287,
    "\u2581Play": 5288,
    "\u25812014": 5289,
    "\u2581\u01b0\u01a1": 5290,
    "\u2581Nino": 5291,
    "www": 5292,
    "\u258112,000": 5293,
    "\u2581Bin": 5294,
    "\u2581DC": 5295,
    "\u25811.7": 5296,
    "antha": 5297,
    "\u2581BK": 5298,
    "idro": 5299,
    "\u25812.3": 5300,
    "\u2581Fabi": 5301,
    "\u25813.5": 5302,
    "\u1ee3ng": 5303,
    "\u2581h\u01a1": 5304,
    "iff": 5305,
    "HO": 5306,
    "\u2581LA": 5307,
    "\u2581HC": 5308,
    "\u258105": 5309,
    "\u2581Rica": 5310,
    "\u2581Cloud": 5311,
    "\u2581B\u1ec9": 5312,
    "\u2581Brun": 5313,
    "ata": 5314,
    "\u2581Chip": 5315,
    "\u2581Ghi": 5316,
    "bach": 5317,
    "ava": 5318,
    "reud": 5319,
    "\u2581NO": 5320,
    "\u2581Th\u00ea": 5321,
    "r\u1ed3i": 5322,
    "\u2581Gall": 5323,
    "\u2581More": 5324,
    "\u2581luy\u1ebfn": 5325,
    "28": 5326,
    "quan": 5327,
    "\u2581Kho": 5328,
    "\u2581Tr\u1eadn": 5329,
    "h\u00ed": 5330,
    "\u2581Kins": 5331,
    "\u2581Rub": 5332,
    "\u2581centim": 5333,
    "h\u00ea": 5334,
    "arin": 5335,
    "\u2581186": 5336,
    "Philips": 5337,
    "TO": 5338,
    "\u1ee9": 5339,
    "\u2581Bond": 5340,
    "cou": 5341,
    "\u2581Orl": 5342,
    "\u2581As": 5343,
    "\u2581Shei": 5344,
    "row": 5345,
    "van": 5346,
    "rid": 5347,
    "\u2581\u0111\u00fa": 5348,
    "\u258183": 5349,
    "\u2581s\u00e9": 5350,
    "\u2581Isa": 5351,
    "\u2581Sina": 5352,
    "vada": 5353,
    "\u2581ng\u01b0\u01a1": 5354,
    "nica": 5355,
    "h\u00eca": 5356,
    "\u2581Res": 5357,
    "gia": 5358,
    "70": 5359,
    "ts": 5360,
    "\u25811.4": 5361,
    "uther": 5362,
    "bara": 5363,
    "\u2581poly": 5364,
    "\u2581am": 5365,
    "\u2581V\u1eadn": 5366,
    "eta": 5367,
    "\u2581Thi": 5368,
    "\u2581d\u01a1": 5369,
    "\u2581Ste": 5370,
    "\u2581kh\u1ea9": 5371,
    "g\u00e1c": 5372,
    "\u2581Arab": 5373,
    "ats": 5374,
    "ttle": 5375,
    "75": 5376,
    "80": 5377,
    "\u2581Berg": 5378,
    "roso": 5379,
    "\u2581v\u1eaf": 5380,
    "\u2581Saf": 5381,
    "\u2581prot": 5382,
    "\u2581tr\u0103n": 5383,
    "n\u0103m": 5384,
    "\u2581g\u00e2n": 5385,
    "\u2581Byr": 5386,
    "\u2581ch\u00e8": 5387,
    "\u2581fu": 5388,
    "\u2581Beatle": 5389,
    "ho\u00e1ng": 5390,
    "34": 5391,
    "ander": 5392,
    "inger": 5393,
    "\u2581g\u00f9": 5394,
    "\u2581Kara": 5395,
    "go\u00e1": 5396,
    "\u2581Chung": 5397,
    ",5": 5398,
    "\u2581McKe": 5399,
    "\u2581650": 5400,
    "\u258173": 5401,
    "Man": 5402,
    "\u2581seri": 5403,
    "sha": 5404,
    "\u2581serie": 5405,
    "\u2581Jose": 5406,
    "14": 5407,
    "\u2581Arabi": 5408,
    "uten": 5409,
    "ft": 5410,
    "amen": 5411,
    "\u2581Thom": 5412,
    "lpha": 5413,
    "IM": 5414,
    "\u2581Bott": 5415,
    "Nh\u01b0": 5416,
    "AO": 5417,
    "\u2581Scien": 5418,
    "\u2581Kong": 5419,
    "\u2581Bol": 5420,
    "th\u1ee9": 5421,
    "ubu": 5422,
    "\u2581Gr": 5423,
    "h\u1ebf": 5424,
    "\u2581t\u00e9": 5425,
    "Hurt": 5426,
    "\u2581Casa": 5427,
    "bin": 5428,
    "gi\u1edbi": 5429,
    "\u2581Pauli": 5430,
    "\u2581c\u00f9": 5431,
    "sin": 5432,
    "\u2581ft": 5433,
    "\u258191": 5434,
    "tim": 5435,
    "\u00f9n": 5436,
    "\u1eb5": 5437,
    "\u2581Jacob": 5438,
    "\u2581c\u1ea3ng": 5439,
    "\u2581\u0111\u01a1": 5440,
    "\u2581N\u01a1": 5441,
    "\u2581Fo": 5442,
    "\u2581Mir": 5443,
    "ania": 5444,
    "ev": 5445,
    "tinh": 5446,
    "ty": 5447,
    "\u2581h\u1ea1c": 5448,
    "lar": 5449,
    "die": 5450,
    "\u2581Mali": 5451,
    "\u2581are": 5452,
    "nce": 5453,
    "ue": 5454,
    "\u2581sun": 5455,
    "ivi": 5456,
    "SM": 5457,
    "\u2581th\u1ef1": 5458,
    "42": 5459,
    "ri\u1ec3n": 5460,
    "n\u00e0o": 5461,
    "ylon": 5462,
    "\u2581Mee": 5463,
    "bus": 5464,
    "wait": 5465,
    "\u2581Tr\u1ea3": 5466,
    "\u2581Love": 5467,
    "\u2581l\u00fan": 5468,
    "\u2581Sie": 5469,
    "\u2581Andre": 5470,
    "bat": 5471,
    "\u2581Walt": 5472,
    "57": 5473,
    "gme": 5474,
    "\u2581ngh\u00ean": 5475,
    "\u2581Alai": 5476,
    "\u2581Seli": 5477,
    "lose": 5478,
    "\u2581Saul": 5479,
    "lux": 5480,
    "-1": 5481,
    "ach": 5482,
    "ero": 5483,
    "\u2581me": 5484,
    "kut": 5485,
    "\u2581m\u1ec7": 5486,
    "\u2581America": 5487,
    "unes": 5488,
    "\u2581Myhrvold": 5489,
    "\u2581Airstream": 5490,
    "\u2581Bitcoin": 5491,
    "\u2581Eskimo": 5492,
    "\u2581MOOC": 5493,
    "\u2581McGoni": 5494,
    "\u2581Randolph": 5495,
    "\u2581Hoffman": 5496,
    "\u2581Turbo": 5497,
    "\u2581gluten": 5498,
    "\u2581Simpson": 5499,
    "\u2581Maslow": 5500,
    "\u2581Ridge": 5501,
    "\u2581whisk": 5502,
    "\u2581Botswan": 5503,
    "\u2581Elliot": 5504,
    "\u2581Titanic": 5505,
    "\u2581Vivian": 5506,
    "\u2581XDR": 5507,
    "\u2581Skid": 5508,
    "\u2581Sleep": 5509,
    "\u2581Pants": 5510,
    "\u2581Viagra": 5511,
    "\u2581Eames": 5512,
    "\u2581WikiLeaks": 5513,
    "\u25811976": 5514,
    "\u2581747": 5515,
    "\u2581Spi": 5516,
    "\u2581Garden": 5517,
    "\u25811953": 5518,
    "\u2581Sophia": 5519,
    "\u2581Sally": 5520,
    "\u2581Theodor": 5521,
    "\u2581mafia": 5522,
    "\u25811982": 5523,
    "r\u1ed3ng": 5524,
    "h\u1ea5y": 5525,
    "\u2581Coke": 5526,
    "\u2581quark": 5527,
    "\u2581MR": 5528,
    "\u2581Insta": 5529,
    "\u2581Cruze": 5530,
    "\u2581Bren": 5531,
    "bama": 5532,
    "med": 5533,
    "\u2581Count": 5534,
    "\u2581Jordans": 5535,
    "\u2581Hazle": 5536,
    "\u2581Allo": 5537,
    "\u2581Rich": 5538,
    "\u2581pounds": 5539,
    "\u2581cents": 5540,
    "\u2581Stalin": 5541,
    "\u2581Sandy": 5542,
    "\u2581August": 5543,
    "oint": 5544,
    "\u2581Hindu": 5545,
    "\u1ee9u": 5546,
    "\u2581mu\u1ed9i": 5547,
    "\u2581H\u00fap": 5548,
    "AM": 5549,
    "\u2581Code": 5550,
    "eck": 5551,
    "arro": 5552,
    "\u2581Brent": 5553,
    "\u2581Shack": 5554,
    "ph\u1ea7n": 5555,
    "\u2581Nghi\u1ec7p": 5556,
    "\u2581Gaga": 5557,
    "\u2581200.000": 5558,
    "\u2581Tulle": 5559,
    "\u2581sin": 5560,
    "\u2581Matth": 5561,
    "\u2581Bowl": 5562,
    "ubble": 5563,
    "\u2581Lis": 5564,
    "u\u1eadt": 5565,
    "\u2581Pol": 5566,
    "\u2581Kerry": 5567,
    "rew": 5568,
    "\u2581Whe": 5569,
    "\u2581Jeann": 5570,
    "\u2581Barbi": 5571,
    "nsky": 5572,
    "Gregor": 5573,
    "t\u1ea1o": 5574,
    "ngh\u0129": 5575,
    "tr": 5576,
    "ir": 5577,
    "\u258180.000": 5578,
    "gger": 5579,
    "\u2581Kid": 5580,
    "ieber": 5581,
    "ick": 5582,
    "ite": 5583,
    "dan": 5584,
    "\u2581Paol": 5585,
    "ment": 5586,
    "\u2581Tuc": 5587,
    "\u2581Khali": 5588,
    "u\u1ed9": 5589,
    "aux": 5590,
    "lia": 5591,
    "\u2581th\u1eaf": 5592,
    "erba": 5593,
    "mon": 5594,
    "\u2581Hama": 5595,
    "\u2581Carib": 5596,
    "\u2581\u00e2u": 5597,
    "mu\u1ed1n": 5598,
    "dema": 5599,
    "uynh": 5600,
    "bell": 5601,
    "\u2581h\u00e1": 5602,
    "\u2581Wag": 5603,
    "\u2581LM": 5604,
    "\u2581BM": 5605,
    "\u01a1ng": 5606,
    "ec": 5607,
    "theo": 5608,
    "\u2581goi": 5609,
    "yum": 5610,
    "\u2581Abd": 5611,
    "\u2581Pink": 5612,
    "\u2581Carro": 5613,
    "aro": 5614,
    "\u2581IM": 5615,
    "\u00faa": 5616,
    "\u2581Hadr": 5617,
    "erald": 5618,
    "\u2581Hud": 5619,
    "\u2581D\u01b0": 5620,
    "hi\u1ec3u": 5621,
    "koko": 5622,
    "rego": 5623,
    "uana": 5624,
    "omi": 5625,
    "\u2581Shirk": 5626,
    "\u25814,5": 5627,
    "\u2581Rocke": 5628,
    "il": 5629,
    "\u2581Merc": 5630,
    "ISA": 5631,
    "gu": 5632,
    "\u2581Pia": 5633,
    "\u2581ng\u1ea1": 5634,
    "\u2581Hu": 5635,
    "\u2581s\u1ec9": 5636,
    "onald": 5637,
    "r\u00e1ch": 5638,
    "50": 5639,
    "read": 5640,
    "\u2581Penn": 5641,
    "sta": 5642,
    "\u2581Cole": 5643,
    "\u2581Hanse": 5644,
    "\u2581Er": 5645,
    "min": 5646,
    "etc": 5647,
    "\u2581Trac": 5648,
    "nil": 5649,
    "v\u1eady": 5650,
    "war": 5651,
    "ryn": 5652,
    "\u2581Dy": 5653,
    "\u2581geo": 5654,
    "\u2581qu\u1ec7": 5655,
    "\u2581m\u1ee5": 5656,
    "\u2581Gil": 5657,
    "\u2581Fer": 5658,
    "rming": 5659,
    "ome": 5660,
    "\u2581Rot": 5661,
    "iles": 5662,
    "\u258125000": 5663,
    "\u2581ch\u1ecd": 5664,
    "ch\u00ednh": 5665,
    "indle": 5666,
    "iki": 5667,
    "\u25817.5": 5668,
    "\u2581l\u00fa": 5669,
    "\u2581Aria": 5670,
    "ius": 5671,
    "press": 5672,
    "\u2581Hal": 5673,
    "\u2581L\u1ec7": 5674,
    "agen": 5675,
    "\u2581\u0111\u1edd": 5676,
    "h\u1eb1ng": 5677,
    "h\u1ea7y": 5678,
    "\u2581Kin": 5679,
    "azo": 5680,
    "\u2581t\u1ea5u": 5681,
    "ER": 5682,
    "\u2581Bi\u1ec3": 5683,
    "\u2581Tere": 5684,
    "sama": 5685,
    "\u2581Wid": 5686,
    "\u2581Marsha": 5687,
    "18": 5688,
    "\u2581x\u00f9": 5689,
    "47": 5690,
    "40": 5691,
    "wl": 5692,
    "\u2581Rese": 5693,
    "h\u1ed9p": 5694,
    "via": 5695,
    "cz": 5696,
    "?": 5697,
    "h\u1eebng": 5698,
    "\u2581c\u01a1m": 5699,
    "\u2581Gran": 5700,
    "500": 5701,
    "\u2581AB": 5702,
    "lder": 5703,
    "\u2581Rea": 5704,
    "oul": 5705,
    "igr": 5706,
    "\u2581Sala": 5707,
    "\u2581l\u1eaf": 5708,
    "\u2581Sand": 5709,
    "\u2581Lou": 5710,
    "\u2581Hua": 5711,
    "TB": 5712,
    "\u25811,6": 5713,
    "\u2581Inter": 5714,
    "\u2581ru": 5715,
    "\u1ea5c": 5716,
    "\u2581Dro": 5717,
    "\u2581Min": 5718,
    "\u2581Mon": 5719,
    "SG": 5720,
    "the": 5721,
    "AA": 5722,
    "\u2581m\u00e8": 5723,
    "\u2581Lago": 5724,
    "beta": 5725,
    "m\u00f4": 5726,
    "tern": 5727,
    "\u2581\u0111\u1ec5": 5728,
    "\u258162": 5729,
    "\u2581v\u01a1": 5730,
    "\u258171": 5731,
    "\u2581Carolin": 5732,
    "\u2581Electro": 5733,
    "c\u0169ng": 5734,
    "60": 5735,
    "phi": 5736,
    "\u2581Chev": 5737,
    "l\u01a1": 5738,
    "chu": 5739,
    "\u2581rap": 5740,
    "\u2581Lak": 5741,
    "\u2581Loa": 5742,
    "ehr": 5743,
    "\u2581Hot": 5744,
    "ap": 5745,
    "SB": 5746,
    "TD": 5747,
    "\u2581Tan": 5748,
    "\u2581tr\u1eaf": 5749,
    "\u2581Gram": 5750,
    "\u2581Khad": 5751,
    "\u2581Gw": 5752,
    "nom": 5753,
    "\u2581Ter": 5754,
    "h\u00f2ng": 5755,
    "y\u1ec1n": 5756,
    "Fi": 5757,
    "ance": 5758,
    "nee": 5759,
    "10": 5760,
    "t\u1ed1t": 5761,
    "\u2581gi\u00f4ng": 5762,
    "ora": 5763,
    "\u2581Economi": 5764,
    "\u2581Les": 5765,
    "98": 5766,
    "h\u00fa": 5767,
    "rtis": 5768,
    "hung": 5769,
    "gi\u1edd": 5770,
    "roge": 5771,
    "\u1eebm": 5772,
    "\u2581Gh": 5773,
    "\u2581tuy\u00ea": 5774,
    "\u2581Ng\u1eef": 5775,
    "\u2581Nor": 5776,
    "\u2581x\u00ea": 5777,
    "lab": 5778,
    "\u2581PR": 5779,
    "\u2581Jen": 5780,
    "\u2581r\u1ea1": 5781,
    "\u2581Old": 5782,
    "eed": 5783,
    "mble": 5784,
    "ss": 5785,
    "\u2581Para": 5786,
    "\u2581Wes": 5787,
    "\u2581tr\u1ecd": 5788,
    "\u2581Rup": 5789,
    "\u2581170": 5790,
    "r\u1ea5": 5791,
    "\u2581Meg": 5792,
    "late": 5793,
    "\u2581Swa": 5794,
    "\u2581Sol": 5795,
    "\u2581Rhode": 5796,
    "\u2581Engel": 5797,
    "\u2581How": 5798,
    "rug": 5799,
    "h\u00f9ng": 5800,
    "\u2581Vik": 5801,
    "SA": 5802,
    "\u2581Grou": 5803,
    "\u2581BB": 5804,
    "\u2581Sue": 5805,
    "nic": 5806,
    "\u2581Hono": 5807,
    "inawa": 5808,
    "ulli": 5809,
    "\u2581Motor": 5810,
    "\u2581Virgin": 5811,
    "\u2581Joa": 5812,
    "\u2581Mob": 5813,
    "\u2581KIPP": 5814,
    "\u2581Kuznet": 5815,
    "\u2581Thatcher": 5816,
    "\u2581Wisconsin": 5817,
    "\u2581Yellowstone": 5818,
    "\u2581guitar": 5819,
    "\u2581terawatt": 5820,
    "\u2581Ahmad": 5821,
    "\u2581Bolivia": 5822,
    "\u2581DIY": 5823,
    "\u2581Debora": 5824,
    "\u2581IPCC": 5825,
    "\u2581Sachs": 5826,
    "\u2581Journal": 5827,
    "\u2581Mohamed": 5828,
    "\u2581Igbo": 5829,
    "\u2581Bernard": 5830,
    "\u2581Griffi": 5831,
    "\u2581adrenalin": 5832,
    "\u2581Democra": 5833,
    "\u2581Orwell": 5834,
    "\u2581Durga": 5835,
    "\u2581Derart": 5836,
    "\u2581Budape": 5837,
    "\u2581Greenville": 5838,
    "\u2581Peace": 5839,
    "\u2581Earle": 5840,
    "\u2581Kirk": 5841,
    "\u2581Duke": 5842,
    "\u25811977": 5843,
    "\u2581McL": 5844,
    "\u2581Hatz": 5845,
    "\u2581neutron": 5846,
    "\u2581MAS": 5847,
    "\u2581Bionicle": 5848,
    "\u2581Gell": 5849,
    "\u2581Titan": 5850,
    "\u2581Life": 5851,
    "\u2581Kamen": 5852,
    "\u2581Smithson": 5853,
    "\u2581Jaw": 5854,
    "\u2581Marx": 5855,
    "Card": 5856,
    "\u2581Snowden": 5857,
    "\u2581Wilkins": 5858,
    "\u2581Porter": 5859,
    "\u2581Gross": 5860,
    "\u2581kilomet": 5861,
    "\u2581Ice": 5862,
    "\u2581sexy": 5863,
    "\u2581Fear": 5864,
    "Atten": 5865,
    "\u2581H\u1ee1i": 5866,
    "roll": 5867,
    "\u2581Music": 5868,
    "\u25811981": 5869,
    "\u2581ngh\u00e9n": 5870,
    "\u2581socola": 5871,
    "\u2581Pope": 5872,
    "ethan": 5873,
    "\u2581Silver": 5874,
    "urich": 5875,
    "NES": 5876,
    "vi\u1ebft": 5877,
    "\u2581Deb": 5878,
    "\u2581NSA": 5879,
    "\u2581Bank": 5880,
    "\u2581Night": 5881,
    "\u2581Bro": 5882,
    "\u2581l\u00f9n": 5883,
    "\u2581Bart": 5884,
    "\u2581gu\u1ed3ng": 5885,
    "elli": 5886,
    "\u2581Nixon": 5887,
    "\u2581TNC": 5888,
    "\u25811100": 5889,
    "\u2581Tru": 5890,
    "enzi": 5891,
    "\u2581s\u00e1n": 5892,
    "N\u00f3": 5893,
    "\u2581All": 5894,
    "ited": 5895,
    "\u2581rup": 5896,
    "\u2581Rem": 5897,
    "code": 5898,
    "\u2581Barry": 5899,
    "rocco": 5900,
    "\u2581Cash": 5901,
    "\u2581India": 5902,
    "incent": 5903,
    "\u2581Natal": 5904,
    "\u2581Atlant": 5905,
    "\u2581acr": 5906,
    "h\u00e1ng": 5907,
    "\u2581Brita": 5908,
    "\u2581Atala": 5909,
    "\u2581Kurdis": 5910,
    "\u2581Albani": 5911,
    "ops": 5912,
    "\u2581Leh": 5913,
    "\u2581Citi": 5914,
    "wal": 5915,
    "\u2581Midwest": 5916,
    "go\u1ea1i": 5917,
    "\u2581\u00e1i": 5918,
    "\u25811978": 5919,
    "\u2581Pur": 5920,
    "\u2581Hell": 5921,
    "of": 5922,
    "\u2581Edd": 5923,
    "weil": 5924,
    "\u2581Genev": 5925,
    "\u2581Glenn": 5926,
    "Scrip": 5927,
    "AT": 5928,
    "ote": 5929,
    "yo": 5930,
    "\u2581Jac": 5931,
    "ding": 5932,
    "\u2581h\u1ee3": 5933,
    "\u2581k\u1ec1n": 5934,
    "\u2581Yan": 5935,
    "eibo": 5936,
    "\u2581Mecha": 5937,
    "h\u00f4": 5938,
    "\u2581Suzan": 5939,
    "\u2581Turk": 5940,
    "\u2581Mulli": 5941,
    "\u2581nh\u00e2": 5942,
    "\u2581Antoni": 5943,
    "\u2581Mani": 5944,
    "\u2581D\u01b0\u1ee3c": 5945,
    "\u2581Vel": 5946,
    "\u2581Watt": 5947,
    "\u2581C\u1eed": 5948,
    "\u2581Bei": 5949,
    "\u2581Schul": 5950,
    "nus": 5951,
    "\u2581Pug": 5952,
    "\u2581fis": 5953,
    "ole": 5954,
    "\u2581Dhara": 5955,
    "sh": 5956,
    "dne": 5957,
    "\u1eddng": 5958,
    "\u2581Fire": 5959,
    "\u2581Guy": 5960,
    "\u2581d\u1eadt": 5961,
    "\u01b0\u1ee3u": 5962,
    "\u2581x\u1ec9n": 5963,
    "\u2581Verme": 5964,
    "\u2581Av": 5965,
    "ok": 5966,
    "\u2581V\u1ec7": 5967,
    "\u2581Luk": 5968,
    "ump": 5969,
    "ushi": 5970,
    "\u2581Mi\u1ebfn": 5971,
    "\u2581M\u00e2y": 5972,
    "\u2581Coll": 5973,
    "s\u1ed1": 5974,
    "ust": 5975,
    "ert": 5976,
    "tas": 5977,
    "\u2581cacbonat": 5978,
    "ickli": 5979,
    "ana": 5980,
    "ffen": 5981,
    "b\u0103ng": 5982,
    "ise": 5983,
    "abin": 5984,
    "\u2581Evel": 5985,
    "Pes": 5986,
    "\u2581AD": 5987,
    "huy\u1ec3n": 5988,
    "\u2581r\u00e2": 5989,
    "\u2581Marcel": 5990,
    "\u2581b\u00fap": 5991,
    "\u2581mode": 5992,
    "\u258188": 5993,
    "\u2581Kap": 5994,
    "for": 5995,
    "\u2581Beck": 5996,
    "thay": 5997,
    "ee": 5998,
    "lub": 5999,
    "\u2581Hart": 6000,
    "DH": 6001,
    "isco": 6002,
    "ahl": 6003,
    "owa": 6004,
    "\u2581Chand": 6005,
    "\u2581Mala": 6006,
    "edia": 6007,
    "kov": 6008,
    "\u2581v\u1ec9": 6009,
    "PA": 6010,
    "raniu": 6011,
    "plin": 6012,
    "\u1eefu": 6013,
    "nh\u00e0": 6014,
    "\u0111\u1ed5i": 6015,
    "\u2581n\u00fa": 6016,
    "FL": 6017,
    "\u2581th\u0103": 6018,
    "Edwards": 6019,
    "hall": 6020,
    "cini": 6021,
    "abyte": 6022,
    "\u2581c\u1ea5": 6023,
    "cam": 6024,
    "chim": 6025,
    "kar": 6026,
    "PO": 6027,
    "\u2581Dep": 6028,
    "\u2581Bett": 6029,
    "\u2581Dai": 6030,
    "\u2581r\u1ea1n": 6031,
    "\u2581Ses": 6032,
    "C\u1ee7a": 6033,
    "ho\u00e1": 6034,
    "n\u00ean": 6035,
    "fon": 6036,
    "\u2581Per": 6037,
    "\u2581t\u1ea5": 6038,
    "\u2581IV": 6039,
    "loch": 6040,
    "\u2581Game": 6041,
    "ague": 6042,
    "\u2581Bir": 6043,
    "\u2581nick": 6044,
    "\u2581Nint": 6045,
    "\u2581th\u1edb": 6046,
    "\u2581Bre": 6047,
    "sel": 6048,
    "view": 6049,
    "\u2581bass": 6050,
    "\u2581Buy": 6051,
    "wan": 6052,
    "r\u1ecb": 6053,
    "\u2581SI": 6054,
    "eise": 6055,
    "\u2581t\u00f3": 6056,
    "\u2581no": 6057,
    "\u2581g\u1ecd": 6058,
    "ullin": 6059,
    "\u2581Than": 6060,
    "g\u1ea7m": 6061,
    "inux": 6062,
    "\u2581Sar": 6063,
    "etz": 6064,
    "hoa": 6065,
    "\u2581ES": 6066,
    "\u2581Wy": 6067,
    "\u2581Pen": 6068,
    "\u2581Jani": 6069,
    "\u2581nh\u1ee1": 6070,
    "\u2581Jun": 6071,
    "ese": 6072,
    "iger": 6073,
    "\u1edbm": 6074,
    "\u2581TE": 6075,
    "\u2581Cod": 6076,
    "SS": 6077,
    "tal": 6078,
    "tu": 6079,
    "\u2581L\u01b0\u1ee3": 6080,
    "imo": 6081,
    "rbus": 6082,
    "\u2581Joan": 6083,
    "\u25812500": 6084,
    "\u2581XI": 6085,
    "core": 6086,
    "\u2581Dew": 6087,
    "foot": 6088,
    "\u2581River": 6089,
    "s\u1ed1ng": 6090,
    "\u2581oli": 6091,
    "\u2581Christin": 6092,
    "\u2581Qu\u00ea": 6093,
    "bur": 6094,
    "ink": 6095,
    "nh\u1ea5t": 6096,
    "\u2581u\u00fd": 6097,
    "val": 6098,
    "virus": 6099,
    "\u2581Ros": 6100,
    "3-4": 6101,
    "\u2581khu\u1ef7": 6102,
    "\u2581qu\u1eady": 6103,
    "36": 6104,
    "\u2581lim": 6105,
    "\u2581dioxi": 6106,
    "\u2581Va": 6107,
    "\u2581ep": 6108,
    "33": 6109,
    "carbon": 6110,
    "\u2581AC": 6111,
    "\u2581pro": 6112,
    "\u2581GI": 6113,
    "\u2581Nova": 6114,
    "ury": 6115,
    "\u2581TB": 6116,
    "ock": 6117,
    "TC": 6118,
    "fe": 6119,
    "\u2581L\u1ea1c": 6120,
    "\u2581Nhu": 6121,
    "\u2581Richards": 6122,
    "eal": 6123,
    "\u2581Liz": 6124,
    "95": 6125,
    "\u2581\u1ecfi": 6126,
    "\u2581est": 6127,
    "ood": 6128,
    "\u2581On": 6129,
    "MCA": 6130,
    "gas": 6131,
    "ima": 6132,
    "\u2581Moi": 6133,
    "thai": 6134,
    "Hub": 6135,
    "AC": 6136,
    "lus": 6137,
    "out": 6138,
    "xa": 6139,
    "\u2581Sha": 6140,
    "\u2581tweets": 6141,
    "\u2581IN": 6142,
    "u\u00fd": 6143,
    "\u2581HI": 6144,
    "erin": 6145,
    "\u2581Cous": 6146,
    "arch": 6147,
    "\u2581Fre": 6148,
    "\u2581ph\u00e0": 6149,
    "\u2581hect": 6150,
    "lean": 6151,
    "ens": 6152,
    "pat": 6153,
    "zer": 6154,
    "stone": 6155,
    "oko": 6156,
    "\u2581Ran": 6157,
    "\u2581Cor": 6158,
    "mo": 6159,
    "\u2581Dun": 6160,
    "\u2581Tr\u1ea1": 6161,
    "\u2581Palme": 6162,
    "hu\u1ed1c": 6163,
    "eine": 6164,
    "\u2581AT": 6165,
    "rung": 6166,
    "uhan": 6167,
    "enz": 6168,
    "tanbu": 6169,
    "Bund": 6170,
    "TV": 6171,
    "ein": 6172,
    "\u2581Krist": 6173,
    "\u2581Low": 6174,
    "onica": 6175,
    "\u2581Bus": 6176,
    "68": 6177,
    "zman": 6178,
    "uba": 6179,
    "oyd": 6180,
    "\u1ec5n": 6181,
    "\u2581Kaa": 6182,
    "terdam": 6183,
    "ho\u00e0": 6184,
    "arcelo": 6185,
    "ist": 6186,
    "\u2581n\u1eafn": 6187,
    "ather": 6188,
    "plan": 6189,
    "\u2581Tam": 6190,
    "\u2581tr\u0129": 6191,
    "\u2581Den": 6192,
    "l\u00ean": 6193,
    "rque": 6194,
    "-20": 6195,
    "dol": 6196,
    "si": 6197,
    "\u2581v\u00ea": 6198,
    "\u1ed5n": 6199,
    "\u2581Bul": 6200,
    "\u2581th\u1ea7": 6201,
    "\u2581h\u1eaft": 6202,
    "heim": 6203,
    "\u2581Comp": 6204,
    "\u2581nh\u00fa": 6205,
    "ash": 6206,
    "asa": 6207,
    "him": 6208,
    "\u2581Harri": 6209,
    "ati": 6210,
    "nder": 6211,
    "\u2581Patt": 6212,
    "\u2581Cru": 6213,
    "\u2581Burt": 6214,
    "\u2581Ces": 6215,
    "sala": 6216,
    "\u2581Pinke": 6217,
    "\u25819000": 6218,
    "MW": 6219,
    "\u2581g\u01b0\u01a1": 6220,
    "kinh": 6221,
    "\u2581Reut": 6222,
    "ling": 6223,
    "\u2581vaccin": 6224,
    "\u2581Michoac": 6225,
    "\u25811,": 6226,
    "\u25811300": 6227,
    "\u2581kilo": 6228,
    "h\u1edbt": 6229,
    "krain": 6230,
    "\u2581Pyth": 6231,
    "andel": 6232,
    "\u1ec3n": 6233,
    "\u2581Adventist": 6234,
    "\u2581favela": 6235,
    "\u2581soundscape": 6236,
    "\u2581BRCK": 6237,
    "\u2581Improv": 6238,
    "\u2581Malthus": 6239,
    "\u2581Ecuado": 6240,
    "Miguel": 6241,
    "\u2581NRK": 6242,
    "\u2581Morris": 6243,
    "\u2581Toxo": 6244,
    "\u2581Pimp": 6245,
    "\u2581fMRI": 6246,
    "\u2581Coast": 6247,
    "\u2581Daily": 6248,
    "\u2581Meadow": 6249,
    "\u2581Anato": 6250,
    "\u2581amyloid": 6251,
    "\u2581Monster": 6252,
    "\u2581Maasai": 6253,
    "Houston": 6254,
    "\u2581khi\u00ea": 6255,
    "\u25811926": 6256,
    "\u2581Grove": 6257,
    "\u2581Parik": 6258,
    "\u2581Johannes": 6259,
    "\u2581Hyper": 6260,
    "\u2581Kool": 6261,
    "\u2581Socrate": 6262,
    "\u2581cocaine": 6263,
    "\u2581PSA": 6264,
    "\u2581Galen": 6265,
    "\u2581Astro": 6266,
    "\u2581Health": 6267,
    "\u2581Loren": 6268,
    "\u25811963": 6269,
    "\u2581Shephela": 6270,
    "\u2581transistor": 6271,
    "\u2581Prospera": 6272,
    "\u25811910": 6273,
    "\u2581JE": 6274,
    "erial": 6275,
    "wind": 6276,
    "\u2581Hacker": 6277,
    "\u2581TEDxR": 6278,
    "\u2581\u00f4xy": 6279,
    "\u2581Milan": 6280,
    "\u2581Motors": 6281,
    "\u2581Out": 6282,
    "\u2581Springs": 6283,
    "\u2581Moham": 6284,
    "\u2581blue": 6285,
    "\u2581Rodrig": 6286,
    "\u2581Lance": 6287,
    "\u2581radar": 6288,
    "\u2581Babb": 6289,
    "\u2581Damas": 6290,
    "\u2581Franken": 6291,
    "\u2581Burk": 6292,
    "\u2581Benoi": 6293,
    "\u2581Ay": 6294,
    "\u2581Ida": 6295,
    "abasc": 6296,
    "\u2581Agar": 6297,
    "\u2581Novo": 6298,
    "\u2581ESP": 6299,
    "ckel": 6300,
    "\u2581Rosali": 6301,
    "\u2581Sufi": 6302,
    "\u2581Puer": 6303,
    "\u2581Denis": 6304,
    "\u25811600": 6305,
    "88": 6306,
    "\u2581hep": 6307,
    "\u2581DAR": 6308,
    "\u258120000": 6309,
    "\u2581Volta": 6310,
    "\u2581Buck": 6311,
    "\u2581ROV": 6312,
    "ntosh": 6313,
    "\u2581Nina": 6314,
    "\u2581Bel": 6315,
    "n\u1ebfu": 6316,
    "ile": 6317,
    "\u2581Ghr": 6318,
    "\u2581M\u00e8o": 6319,
    "\u2581tr\u01b0\u1edb": 6320,
    "\u2581Blanc": 6321,
    "\u2581Cornel": 6322,
    "\u2581pH": 6323,
    "\u2581Heid": 6324,
    "\u2581Por": 6325,
    "\u2581Market": 6326,
    "list": 6327,
    "\u2581Webb": 6328,
    "\u2581Ethe": 6329,
    "\u2581Niels": 6330,
    "\u2581Colleg": 6331,
    "bit": 6332,
    "apa": 6333,
    "\u2581Bike": 6334,
    "\u2581Flow": 6335,
    "\u2581Dry": 6336,
    "tr\u1edf": 6337,
    "\u2581Des": 6338,
    "\u2581FB": 6339,
    "\u2581Beatri": 6340,
    "homa": 6341,
    "\u2581Pino": 6342,
    "m\u00e1y": 6343,
    "\u2581Fey": 6344,
    "gh\u00e8o": 6345,
    "illi": 6346,
    "iel": 6347,
    "shoo": 6348,
    "loud": 6349,
    "ability": 6350,
    "gaga": 6351,
    "\u2581Diet": 6352,
    "\u00e2t": 6353,
    "\u2581NH": 6354,
    "Jazz": 6355,
    "\u2581Cope": 6356,
    "\u2581Rau": 6357,
    "cker": 6358,
    "erners": 6359,
    "bel": 6360,
    "llis": 6361,
    "\u2581Missi": 6362,
    "ierre": 6363,
    "ose": 6364,
    "\u2581M\u00f3c": 6365,
    "avi": 6366,
    "esha": 6367,
    "\u2581mega": 6368,
    "\u2581toan": 6369,
    "\u2581Now": 6370,
    "ano": 6371,
    "\u2581Apo": 6372,
    "\u2581Tal": 6373,
    "\u2581hoocm": 6374,
    "gli": 6375,
    "\u2581rain": 6376,
    "\u2581Vul": 6377,
    "\u2581post": 6378,
    "\u2581calorie": 6379,
    "\u2581Every": 6380,
    "\u2581Ely": 6381,
    "\u2581Gulf": 6382,
    "\u2581Fish": 6383,
    "37": 6384,
    "\u2581Holo": 6385,
    "\u2581Master": 6386,
    "\u2581Donn": 6387,
    "cola": 6388,
    "\u2581Karm": 6389,
    "\u2581R\u0103n": 6390,
    "\u2581SM": 6391,
    "\u2581Best": 6392,
    "\u258161": 6393,
    "\u2581Ren": 6394,
    "\u2581Ly": 6395,
    "\u2581Kne": 6396,
    "\u25817.": 6397,
    "\u2581Lord": 6398,
    "\u2581sunf": 6399,
    "\u2581Vishn": 6400,
    "\u2581Jod": 6401,
    "\u2581Solo": 6402,
    "lian": 6403,
    "bab": 6404,
    "\u2581Vibr": 6405,
    "u\u1ea5t": 6406,
    "\u2581Pin": 6407,
    "\u25816.5": 6408,
    "\u2581Lynn": 6409,
    "erony": 6410,
    "ibu": 6411,
    "ea": 6412,
    "\u2581Stewar": 6413,
    "\u2581Main": 6414,
    "Your": 6415,
    "54": 6416,
    "\u2581Ath": 6417,
    "\u2581Bi\u1ec7t": 6418,
    "\u2581it": 6419,
    "\u2581Boe": 6420,
    "endor": 6421,
    "\u2581\u0110\u1ea5": 6422,
    "g\u1eafn": 6423,
    "\u2581Mobi": 6424,
    "\u2581Bab": 6425,
    "\u2581Laura": 6426,
    "han": 6427,
    "\u0111\u1ed3ng": 6428,
    "\u2581th\u1edbt": 6429,
    "\u2581Nghi": 6430,
    "\u2581Maci": 6431,
    "uflo": 6432,
    "c\u1ea7n": 6433,
    "NH": 6434,
    "\u2581t\u00ecn": 6435,
    "\u2581nh\u00e1": 6436,
    "\u2581Templ": 6437,
    "etson": 6438,
    "fell": 6439,
    "g\u00f4n": 6440,
    "ur": 6441,
    "nay": 6442,
    "\u2581th\u00e1n": 6443,
    "\u2581g\u1edf": 6444,
    "\u2581Ker": 6445,
    "\u2581Levin": 6446,
    "\u2581Hol": 6447,
    "-10": 6448,
    "\u2581v\u1eafn": 6449,
    "\u2581Maris": 6450,
    "\u2581Mor": 6451,
    "trin": 6452,
    "\u2581Diam": 6453,
    "CR": 6454,
    "\u2581Luca": 6455,
    "ye": 6456,
    "\u2581kara": 6457,
    "\u2581tu\u1ed1c": 6458,
    "u\u1ed9i": 6459,
    "26": 6460,
    "\u2581Kerm": 6461,
    "\u2581Veg": 6462,
    "hhh": 6463,
    "pta": 6464,
    "\u2581Jur": 6465,
    "pam": 6466,
    "ncou": 6467,
    "\u2581Sur": 6468,
    "\u2581L\u00f2": 6469,
    "\u2581Bora": 6470,
    "\u2581Lun": 6471,
    "pha": 6472,
    "\u2581ten": 6473,
    "hirl": 6474,
    "monia": 6475,
    "b\u1ecb": 6476,
    "g\u00f4": 6477,
    "fisch": 6478,
    "ovan": 6479,
    "oza": 6480,
    ".6": 6481,
    "c\u01a1": 6482,
    "\u2581Ver": 6483,
    "\u2581Jacobs": 6484,
    "\u2581L\u00e1": 6485,
    "kia": 6486,
    "h\u1edf": 6487,
    "\u2581Page": 6488,
    "\u2581Kho\u00e1": 6489,
    "\u2581Dall": 6490,
    "\u00f4la": 6491,
    "\u2581192": 6492,
    "evin": 6493,
    "\u2581Hamburg": 6494,
    "chan": 6495,
    "\u2581out": 6496,
    "\u2581Lau": 6497,
    ",8": 6498,
    "\u2581Dust": 6499,
    "ive": 6500,
    "\u2581Alb": 6501,
    "asma": 6502,
    "ery": 6503,
    "h\u1ee3p": 6504,
    "\u2581EL": 6505,
    "ipe": 6506,
    "\u2581Lars": 6507,
    "h\u00e1n": 6508,
    "ony": 6509,
    "orse": 6510,
    "hanh": 6511,
    "uke": 6512,
    "tor": 6513,
    "alad": 6514,
    "OM": 6515,
    "\u2581C\u00f4n": 6516,
    "\u2581l\u1ed5": 6517,
    "h\u1ea3": 6518,
    "l\u00f4ng": 6519,
    "\u2581Marian": 6520,
    "\u2581qu\u1ead": 6521,
    "\u2581Yah": 6522,
    "its": 6523,
    "ngo": 6524,
    "\u2581fa": 6525,
    "\u2581LB": 6526,
    "\u2581h\u00e3n": 6527,
    "\u2581Fr": 6528,
    "\u2581Rid": 6529,
    "yd": 6530,
    "\u2581DB": 6531,
    "19": 6532,
    "\u2581Tata": 6533,
    "it": 6534,
    "49": 6535,
    "\u2581M\u00f4n": 6536,
    "\u2581Tech": 6537,
    "bre": 6538,
    "\u2581Maa": 6539,
    "reas": 6540,
    "th\u1eadt": 6541,
    "\u2581Fed": 6542,
    "verl": 6543,
    "feld": 6544,
    "hi\u1ec5m": 6545,
    "chen": 6546,
    "aspar": 6547,
    "\u2581th\u00f3": 6548,
    "84": 6549,
    "\u2581ch\u00f9n": 6550,
    "thi": 6551,
    "\u2581Marl": 6552,
    "\u2581Torre": 6553,
    "\u2581c\u00e0n": 6554,
    "\u2581li\u1ec7": 6555,
    "\u2581organ": 6556,
    "\u2581Angelin": 6557,
    "uriti": 6558,
    "nh\u1eadn": 6559,
    "\u2581gi\u1ee1": 6560,
    "x\u01a1": 6561,
    "b\u1eaft": 6562,
    "\u2581t\u00e2": 6563,
    "\u2581Gri": 6564,
    "\u2581Ande": 6565,
    "oh": 6566,
    "io": 6567,
    "974": 6568,
    "wak": 6569,
    "umen": 6570,
    "abe": 6571,
    "ool": 6572,
    "\u2581Carte": 6573,
    "pp": 6574,
    "erro": 6575,
    "\u2581Stephan": 6576,
    "osta": 6577,
    "rit": 6578,
    "\u2581Rey": 6579,
    "opper": 6580,
    "08": 6581,
    "\u2581ki\u1ebf": 6582,
    "wee": 6583,
    "ov": 6584,
    "g\u00e0": 6585,
    "too": 6586,
    "\u2581b\u1eb9": 6587,
    "h\u1ed7": 6588,
    "\u2581Par": 6589,
    "enny": 6590,
    "olem": 6591,
    "fford": 6592,
    "PL": 6593,
    "HD": 6594,
    "\u2581n\u00f2": 6595,
    "\u2581Tod": 6596,
    "\u2581Kob": 6597,
    "dom": 6598,
    "af": 6599,
    "\u2581DR": 6600,
    "lanh": 6601,
    "h\u1ed9i": 6602,
    "2000": 6603,
    "lis": 6604,
    "reen": 6605,
    "\u2581Mug": 6606,
    "\u2581Blai": 6607,
    "oo": 6608,
    "ello": 6609,
    "koff": 6610,
    "upp": 6611,
    "Ex": 6612,
    "Mann": 6613,
    "\u258151": 6614,
    "obe": 6615,
    "\u25811400": 6616,
    "g\u01b0\u1ee3c": 6617,
    "cu\u1ed9c": 6618,
    "\u2581Top": 6619,
    "\u2581WT": 6620,
    "\u2581Ap": 6621,
    "iz": 6622,
    "Day": 6623,
    "64": 6624,
    "o\u1ea3": 6625,
    "50,000": 6626,
    "tr\u01b0\u1edbc": 6627,
    "sworth": 6628,
    "\u2581n\u00edt": 6629,
    "\u2581Mino": 6630,
    "anda": 6631,
    "thic": 6632,
    "sinh": 6633,
    "eau": 6634,
    "hore": 6635,
    "\u2581Clar": 6636,
    "c\u1ea3m": 6637,
    "\u2581gi\u1edb": 6638,
    "\u2581Dee": 6639,
    "PT": 6640,
    "\u2581Dicke": 6641,
    "gic": 6642,
    "\u2581Stein": 6643,
    "\u2581Pi": 6644,
    "\u2581calori": 6645,
    "ons": 6646,
    "burger": 6647,
    "nton": 6648,
    "ld": 6649,
    "ell": 6650,
    "\u2581Abo": 6651,
    "ule": 6652,
    "\u2581t\u00e0": 6653,
    "opat": 6654,
    "orio": 6655,
    "\u2581\u00ed": 6656,
    "rillo": 6657,
    "\u2581FE": 6658,
    "\u2581C\u1ea7": 6659,
    "atan": 6660,
    "ML": 6661,
    "\u2581g\u00e0n": 6662,
    "Kohn": 6663,
    "airo": 6664,
    "h\u0129a": 6665,
    "tte": 6666,
    "\u2581d\u01b0\u1ee3": 6667,
    "h\u1eafn": 6668,
    "\u2581Wol": 6669,
    "tron": 6670,
    "ware": 6671,
    "pic": 6672,
    "\u2581to\u00e1": 6673,
    "kin": 6674,
    "sen": 6675,
    "llon": 6676,
    "nson": 6677,
    "\u2581Maz": 6678,
    "laug": 6679,
    "\u2581Read": 6680,
    "\u0111\u1ec1": 6681,
    "und": 6682,
    "\u258150000": 6683,
    "\u2581\u0111\u1ecb": 6684,
    "dka": 6685,
    "\u2581Moz": 6686,
    "h\u01a1": 6687,
    "\u2581Pear": 6688,
    "bee": 6689,
    "\u2581Schwartz": 6690,
    "t\u1ef1": 6691,
    "gian": 6692,
    "\u2581pr\u00f4t": 6693,
    "\u258199.9": 6694,
    "ivers": 6695,
    "\u2581FM": 6696,
    "\u2581Ng\u01b0\u1ee3": 6697,
    "\u2581Es": 6698,
    "\u2581Cruz": 6699,
    "cor": 6700,
    "\u2581SO": 6701,
    "eatbox": 6702,
    "Sh": 6703,
    "\u2581Somali": 6704,
    "\u2581Oc": 6705,
    "borough": 6706,
    "\u2581PostSecret": 6707,
    "Pachycephalosaur": 6708,
    "\u2581Autodesk": 6709,
    "\u2581Avelile": 6710,
    "\u2581Dakota": 6711,
    "\u2581Dunlap": 6712,
    "\u2581Enrique": 6713,
    "\u2581IGF": 6714,
    "\u2581International": 6715,
    "\u2581Lazarus": 6716,
    "\u2581Polaroid": 6717,
    "\u2581SOLE": 6718,
    "\u2581Sardinia": 6719,
    "\u2581Sarkozy": 6720,
    "\u2581bucardo": 6721,
    "\u2581container": 6722,
    "\u2581Creative": 6723,
    "\u2581Participa": 6724,
    "\u2581nucle": 6725,
    "\u2581Ashdown": 6726,
    "\u2581Record": 6727,
    "Bertrand": 6728,
    "\u2581Caucas": 6729,
    "\u2581Manchester": 6730,
    "\u2581Lamanite": 6731,
    "\u2581Sheena": 6732,
    "\u2581Small": 6733,
    "\u2581Wonder": 6734,
    "\u2581impact": 6735,
    "Women": 6736,
    "\u2581caffein": 6737,
    "\u2581Behar": 6738,
    "\u2581Swaptree": 6739,
    "arayan": 6740,
    "\u2581Atlas": 6741,
    "\u2581ozone": 6742,
    "\u2581Flemi": 6743,
    "\u2581WorldWi": 6744,
    "\u2581McCart": 6745,
    "\u2581Quixote": 6746,
    "\u2581Fitz": 6747,
    "\u2581Faso": 6748,
    "Pallot": 6749,
    "\u25811938": 6750,
    "\u2581Tommy": 6751,
    "\u2581Elias": 6752,
    "Spock": 6753,
    "\u2581Bogot": 6754,
    "\u2581Fuller": 6755,
    "\u2581Pomp": 6756,
    "\u2581Telescope": 6757,
    "\u2581Saint": 6758,
    "\u25811929": 6759,
    "\u2581Square": 6760,
    "ommons": 6761,
    "\u2581Kaza": 6762,
    "\u2581CSI": 6763,
    "\u2581Sheikh": 6764,
    "\u2581NGO": 6765,
    "\u2581Volvo": 6766,
    "\u2581Prick": 6767,
    "\u25811850": 6768,
    "rado": 6769,
    "\u2581Birds": 6770,
    "\u2581466": 6771,
    "fel": 6772,
    "\u2581Word": 6773,
    "\u2581def": 6774,
    "\u2581Kiran": 6775,
    "\u2581Rabin": 6776,
    "\u258149": 6777,
    "\u2581Glass": 6778,
    "\u2581Frances": 6779,
    "\u2581Mason": 6780,
    "\u2581Ricard": 6781,
    "\u2581Match": 6782,
    "\u2581TiV": 6783,
    "\u2581Shiv": 6784,
    "\u2581Axi": 6785,
    "\u2581Kit": 6786,
    "path": 6787,
    "\u2581Mul": 6788,
    "\u2581Mahab": 6789,
    "\u2581Pasht": 6790,
    "\u2581Reich": 6791,
    "\u2581Budd": 6792,
    "\u2581Juli": 6793,
    "\u2581c\u00f9n": 6794,
    "\u2581Nash": 6795,
    "gate": 6796,
    "assa": 6797,
    "istry": 6798,
    "\u2581Hemi": 6799,
    "\u2581tr\u1ed5": 6800,
    "\u2581Neanderthals": 6801,
    "wing": 6802,
    "3.7": 6803,
    "\u2581Town": 6804,
    "nisi": 6805,
    "t\u1ea1i": 6806,
    "h\u00e1nh": 6807,
    "trich": 6808,
    "\u2581poke": 6809,
    "\u2581Herb": 6810,
    "\u2581boom": 6811,
    "\u2581Bass": 6812,
    "riend": 6813,
    "unker": 6814,
    "\u2581Spit": 6815,
    "\u2581Born": 6816,
    "\u2581Fernand": 6817,
    "\u2581Type": 6818,
    "upl": 6819,
    "\u2581Hers": 6820,
    "alah": 6821,
    "ooth": 6822,
    "\u2581EP": 6823,
    "suit": 6824,
    "\u2581b\u1ec7n": 6825,
    "\u2581Day": 6826,
    "\u2581LG": 6827,
    "\u2581Parag": 6828,
    "\u2581Fu": 6829,
    "awto": 6830,
    "cer": 6831,
    "\u2581Camill": 6832,
    "mi": 6833,
    "mor": 6834,
    "\u2581Sty": 6835,
    "\u2581Prin": 6836,
    "psy": 6837,
    "\u2581Kis": 6838,
    "\u2581TEDxS": 6839,
    "ldred": 6840,
    "\u2581C\u00e0": 6841,
    "\u2581T\u00e2": 6842,
    "n\u01b0\u1edbc": 6843,
    "\u2581h\u1eb5n": 6844,
    "izza": 6845,
    "ycop": 6846,
    "logy": 6847,
    "\u2581Eman": 6848,
    "\u2581Capit": 6849,
    "\u2581carame": 6850,
    "vik": 6851,
    "if": 6852,
    "\u2581Ventur": 6853,
    "\u2581Barricel": 6854,
    "\u2581Fren": 6855,
    "\u2581us": 6856,
    "\u2581hemo": 6857,
    "\u2581Jenning": 6858,
    "\u2581Jr": 6859,
    "\u2581Adi": 6860,
    "\u2581Gi\u00eang": 6861,
    "form": 6862,
    "lam": 6863,
    "5-6": 6864,
    "\u2581thali": 6865,
    "\u2581Basqu": 6866,
    "\u2581Ango": 6867,
    "\u2581Matty": 6868,
    "\u2581TQ": 6869,
    "tr\u01b0\u1eddng": 6870,
    "r\u00ecnh": 6871,
    "\u2581Huh": 6872,
    "roth": 6873,
    "\u2581Nh\u1ec7n": 6874,
    "ent": 6875,
    "\u2581B\u00e1": 6876,
    "tner": 6877,
    "op": 6878,
    "rman": 6879,
    "\u2581Sing": 6880,
    "\u2581bridge": 6881,
    "\u2581Scal": 6882,
    "refo": 6883,
    "recht": 6884,
    "\u2581Chek": 6885,
    "\u2581Dut": 6886,
    "BO": 6887,
    "\u2581Bee": 6888,
    "\u2581micr": 6889,
    "\u2581Robb": 6890,
    "\u0111a": 6891,
    "ial": 6892,
    "\u2581Hari": 6893,
    "Ward": 6894,
    "\u2581Cave": 6895,
    "\u2581Godi": 6896,
    "\u2581Pana": 6897,
    "tzman": 6898,
    "\u2581\u0111\u01b0": 6899,
    "\u2581cac": 6900,
    "400": 6901,
    "\u2581Cro": 6902,
    "\u2581Nell": 6903,
    "\u2581like": 6904,
    "\u2581Kemp": 6905,
    "erol": 6906,
    "\u2581qu\u1ea9": 6907,
    "800": 6908,
    "dah": 6909,
    "san": 6910,
    "\u2581Wool": 6911,
    "\u2581Fras": 6912,
    "annes": 6913,
    "\u2581T\u00ec": 6914,
    "m\u1eb7t": 6915,
    "\u2581Marsh": 6916,
    "mbia": 6917,
    "\u2581Ph\u00fa": 6918,
    "\u2581MC": 6919,
    "osni": 6920,
    "\u2581Dow": 6921,
    "\u2581Pha": 6922,
    "PP": 6923,
    "\u2581Madr": 6924,
    "light": 6925,
    "\u2581Mick": 6926,
    "17": 6927,
    "\u2581Rap": 6928,
    "\u2581PT": 6929,
    "\u2581Willi": 6930,
    "\u2581L\u1ee3": 6931,
    "had": 6932,
    "h\u1ecb": 6933,
    "ara": 6934,
    "\u2581Gun": 6935,
    "name": 6936,
    "bard": 6937,
    "bor": 6938,
    "\u2581Olso": 6939,
    "\u2581Poll": 6940,
    "\u2581NA": 6941,
    "g\u1ea1c": 6942,
    "\u2581Scra": 6943,
    "91": 6944,
    "\u2581Bluet": 6945,
    "\u2581Aba": 6946,
    "uff": 6947,
    "\u2581Carrie": 6948,
    "\u2581Hyp": 6949,
    "ril": 6950,
    "annon": 6951,
    "\u2581vo": 6952,
    "\u2581Fran": 6953,
    "\u2581Laure": 6954,
    "u\u1ed3i": 6955,
    "\u2581d\u1ebb": 6956,
    "vald": 6957,
    "\u2581hoo": 6958,
    "65": 6959,
    "TA": 6960,
    "\u2581bo": 6961,
    "vante": 6962,
    "\u2581Ol": 6963,
    "rma": 6964,
    "\u2581Act": 6965,
    "\u2581Mat": 6966,
    "\u2581Rush": 6967,
    "uay": 6968,
    "rs": 6969,
    "\u2581Boyd": 6970,
    "\u0111\u1ecbnh": 6971,
    "aster": 6972,
    "\u2581cu\u00f4": 6973,
    "\u2581Wil": 6974,
    "ilwa": 6975,
    "eric": 6976,
    "\u2581Tr\u1ee5": 6977,
    "\u2581Oxi": 6978,
    "\u2581Ger": 6979,
    "\u2581Have": 6980,
    "\u2581Shin": 6981,
    "\u2581Interv": 6982,
    "ory": 6983,
    "\u2581l\u1ea3": 6984,
    "\u2581Ree": 6985,
    "\u2581Are": 6986,
    "idan": 6987,
    "ab": 6988,
    "\u2581Flor": 6989,
    "\u2581Vir": 6990,
    "\u2581uh": 6991,
    "t\u01b0\u1edfng": 6992,
    "\u1ee1i": 6993,
    "nh\u00ecn": 6994,
    "ino": 6995,
    "chuy\u1ec7n": 6996,
    "azi": 6997,
    "\u2581c\u1ea7": 6998,
    "\u2581h\u1ed5n": 6999,
    "\u2581tr\u1ead": 7000,
    "\u2581Glas": 7001,
    "\u2581Ric": 7002,
    "\u2581Nin": 7003,
    "\u2581Madel": 7004,
    "hu\u1ea5": 7005,
    "\u2581l\u1eb1n": 7006,
    "\u2581S\u00f4": 7007,
    "\u2581Shell": 7008,
    "\u2581Harv": 7009,
    "\u2581Tar": 7010,
    "urst": 7011,
    "\u2581Arch": 7012,
    "\u2581Chap": 7013,
    "\u2581kh\u00e9": 7014,
    "pro": 7015,
    "\u2581Cali": 7016,
    "\u2581Stu": 7017,
    "\u2581Flip": 7018,
    "\u2581Nei": 7019,
    "\u2581Gut": 7020,
    "\u2581Bara": 7021,
    "gi\u1ed1ng": 7022,
    "\u2581son": 7023,
    "Sp": 7024,
    "\u2581Je": 7025,
    "aw": 7026,
    "\u2581Madi": 7027,
    "ovic": 7028,
    "\u2581BAS": 7029,
    "\u2581H\u00e8": 7030,
    "\u2581Roth": 7031,
    "cken": 7032,
    "ortland": 7033,
    "c\u00f9ng": 7034,
    "eh": 7035,
    "\u2581L\u00ea": 7036,
    "iving": 7037,
    "ini": 7038,
    "b\u1eb1ng": 7039,
    "\u01b0\u01a1": 7040,
    "\u2581si": 7041,
    "\u2581K\u00ea": 7042,
    "\u2581Mas": 7043,
    "Trung": 7044,
    "\u2581\u0111\u1ea1": 7045,
    "burn": 7046,
    "\u2581Hipp": 7047,
    "ps": 7048,
    "\u2581Donne": 7049,
    "nesia": 7050,
    "urz": 7051,
    "\u2581Cath": 7052,
    "th\u1ed1ng": 7053,
    "AP": 7054,
    "\u2581l\u1edf": 7055,
    "bine": 7056,
    "\u2581Moh": 7057,
    "cal": 7058,
    "t\u01a1": 7059,
    "\u2581Qu\u1ea1": 7060,
    "\u2581r\u1ecf": 7061,
    "chel": 7062,
    "xem": 7063,
    "\u2581Kh\u00f4": 7064,
    "abba": 7065,
    "\u2581v\u1ed3": 7066,
    "\u2581Hep": 7067,
    "\u2581Mw": 7068,
    "TT": 7069,
    "\u2581Laur": 7070,
    "\u2581Borg": 7071,
    "tow": 7072,
    "pin": 7073,
    "\u2581B\u00f3": 7074,
    "\u2581Mil": 7075,
    "ox": 7076,
    "down": 7077,
    "tus": 7078,
    "olic": 7079,
    "hy": 7080,
    "\u2581Kh\u1ed5": 7081,
    "\u00edc": 7082,
    "h\u1ed3ng": 7083,
    "\u2581Pav": 7084,
    "\u2581ami": 7085,
    "ndberg": 7086,
    "shir": 7087,
    "d\u1ee5ng": 7088,
    "\u2581Pas": 7089,
    "\u2581Aur": 7090,
    ":": 7091,
    "\u2581Jung": 7092,
    "\u2581t\u1eb1m": 7093,
    "\u00d4ng": 7094,
    "tu\u1ed5i": 7095,
    "24": 7096,
    "b\u1edfi": 7097,
    "lest": 7098,
    "pper": 7099,
    "\u2581Dia": 7100,
    "oard": 7101,
    "\u2581Save": 7102,
    "\u2581Toda": 7103,
    "\u2581Pr": 7104,
    "\u2581Cran": 7105,
    "afi": 7106,
    "\u2581Ng\u1ef1": 7107,
    "sis": 7108,
    "ndy": 7109,
    "ail": 7110,
    "\u2581nh\u1ead": 7111,
    "t\u1edbi": 7112,
    "ted": 7113,
    "\u2581m\u00ed": 7114,
    "OR": 7115,
    "box": 7116,
    "\u2581175": 7117,
    "\u2581Laf": 7118,
    "anzi": 7119,
    "\u1ee1n": 7120,
    "ussel": 7121,
    "itchi": 7122,
    "\u2581ch\u1ee5": 7123,
    "M\u1ed9t": 7124,
    "\u2581Bas": 7125,
    "11": 7126,
    "\u2581Nou": 7127,
    "\u2581Less": 7128,
    "\u2581Mai": 7129,
    "nett": 7130,
    "vi\u00ean": 7131,
    "\u2581Band": 7132,
    "zar": 7133,
    "\u2581m\u00e9": 7134,
    "R\u1eadp": 7135,
    "\u2581ngo\u1eb1n": 7136,
    "\u2581Prat": 7137,
    "\u2581Ras": 7138,
    "zo": 7139,
    "rner": 7140,
    "\u2581Champ": 7141,
    "\u0111\u1ed1i": 7142,
    "\u2581x\u00fa": 7143,
    "t\u1ed1i": 7144,
    "h\u00e1m": 7145,
    "tium": 7146,
    "DI": 7147,
    "Ba": 7148,
    "outh": 7149,
    "amer": 7150,
    "2010": 7151,
    "c\u00f2n": 7152,
    "\u2581ng\u1ed7": 7153,
    "\u2581Goo": 7154,
    "g\u1ea7n": 7155,
    "\u2581Emp": 7156,
    "wling": 7157,
    "\u2581220": 7158,
    "tri": 7159,
    "aib": 7160,
    "\u2581nh\u1eb1n": 7161,
    "rry": 7162,
    "tica": 7163,
    "aste": 7164,
    "TM": 7165,
    "\u2581Gle": 7166,
    "urma": 7167,
    "\u2581Bris": 7168,
    "l\u1edbn": 7169,
    "\u2581Wad": 7170,
    "2011": 7171,
    "\u2581Cl": 7172,
    "\u2581Kimb": 7173,
    "\u2581Eva": 7174,
    "\u2581Kha": 7175,
    "face": 7176,
    "\u2581Ch\u00e2": 7177,
    "\u0111un": 7178,
    "Space": 7179,
    "loa": 7180,
    "\u2581Ope": 7181,
    "\u2581CT": 7182,
    "\u2581Tali": 7183,
    "\u2581Dari": 7184,
    "hoo": 7185,
    "pur": 7186,
    "\u2581d\u1ea5": 7187,
    "set": 7188,
    "pop": 7189,
    "\u2581Fin": 7190,
    "ison": 7191,
    "rvey": 7192,
    "ng\u00e0y": 7193,
    "\u2581H\u00e1": 7194,
    "\u2581bio": 7195,
    "eri": 7196,
    "\u2581Lux": 7197,
    "\u2581Coi": 7198,
    "nh\u00e2n": 7199,
    "u\u00f4i": 7200,
    "ark": 7201,
    "heid": 7202,
    "\u2581Nao": 7203,
    "\u2581v\u1ecbn": 7204,
    "star": 7205,
    "t\u00ea": 7206,
    "Mart": 7207,
    "\u2581Cron": 7208,
    "\u2581Sk": 7209,
    "des": 7210,
    "\u25818.": 7211,
    "y\u1ec3n": 7212,
    "81": 7213,
    "\u2581Mass": 7214,
    "\u2581Lem": 7215,
    "agan": 7216,
    "oa": 7217,
    "\u2581Kai": 7218,
    "\u2581Aru": 7219,
    "\u2581Lev": 7220,
    "\u2581lu\u00e2": 7221,
    "\u2581Janet": 7222,
    "\u2581188": 7223,
    "\u2581b\u1ecbt": 7224,
    "\u2581Ye": 7225,
    "\u2581Mach": 7226,
    "yon": 7227,
    "stafa": 7228,
    "\u2581Alli": 7229,
    "wings": 7230,
    "\u2581se": 7231,
    "\u2581h\u00ed": 7232,
    "ening": 7233,
    "\u2581Gang": 7234,
    "In": 7235,
    "\u2581Forer": 7236,
    "Bot": 7237,
    "\u2581Walk": 7238,
    "\u2581Sz": 7239,
    "apar": 7240,
    "\u2581Mer": 7241,
    "NY": 7242,
    "\u2581Monro": 7243,
    "r\u1eafng": 7244,
    ",4": 7245,
    "\u2581M\u1ed9": 7246,
    "\u2581g\u1ea1": 7247,
    "\u2581ng\u1ea5y": 7248,
    "\u2581240": 7249,
    "ishman": 7250,
    "v\u1eadt": 7251,
    "\u2581min": 7252,
    "\u2581Kam": 7253,
    "\u2581vi\u1ebf": 7254,
    "ave": 7255,
    "acha": 7256,
    "\u2581Genera": 7257,
    "chuy\u1ec3n": 7258,
    "\u2581Saga": 7259,
    "tec": 7260,
    "oming": 7261,
    "\u2581Krishna": 7262,
    "\u2581\u0111\u1ea7": 7263,
    "ador": 7264,
    "pus": 7265,
    "oss": 7266,
    "\u2581Camero": 7267,
    "b\u1ea3n": 7268,
    "c\u00e2u": 7269,
    "graph": 7270,
    "\u2581Bear": 7271,
    "Ch\u1ed1ng": 7272,
    "\u2581330": 7273,
    "\u2581s\u00ea": 7274,
    "ubli": 7275,
    "cester": 7276,
    "\u2581Leonard": 7277,
    "luegrass": 7278,
    "\u2581z": 7279,
    "aroo": 7280,
    "\u2581cocain": 7281,
    "ahid": 7282,
    "\u2581Dor": 7283,
    "\u2581sulfur": 7284,
    "\u2581FOX": 7285,
    "\u2581Cedars": 7286,
    "\u2581Benedict": 7287,
    "\u2581Discover": 7288,
    "\u2581Goliath": 7289,
    "\u2581Kymaerica": 7290,
    "\u2581Lindbergh": 7291,
    "\u2581Lovegrove": 7292,
    "\u2581Negroponte": 7293,
    "\u2581Pandora": 7294,
    "\u2581Paralympic": 7295,
    "\u2581Partners": 7296,
    "\u2581Scrubs": 7297,
    "\u2581Yosemite": 7298,
    "\u2581analog": 7299,
    "\u2581hotdog": 7300,
    "\u2581Armenia": 7301,
    "\u2581Taniyama": 7302,
    "\u2581headphone": 7303,
    "\u2581Belshaz": 7304,
    "\u2581LGBT": 7305,
    "\u2581Snoop": 7306,
    "\u2581vacxin": 7307,
    "\u2581parabol": 7308,
    "\u2581nicotin": 7309,
    "\u2581Control": 7310,
    "\u2581Financ": 7311,
    "\u2581Mormon": 7312,
    "\u2581kilowatt": 7313,
    "\u2581Garret": 7314,
    "\u2581reCAPTCH": 7315,
    "\u2581Ommm": 7316,
    "\u2581free": 7317,
    "xytocin": 7318,
    "\u2581Mercedes": 7319,
    "\u2581Magell": 7320,
    "\u2581Rift": 7321,
    "\u2581Ibra": 7322,
    "\u2581Hebrew": 7323,
    "\u2581Yugoslavia": 7324,
    "\u2581PBS": 7325,
    "NAIDS": 7326,
    "\u2581Mountain": 7327,
    "\u25812,3": 7328,
    "\u2581Joyce": 7329,
    "\u2581m\u0103t": 7330,
    "\u2581biophon": 7331,
    "\u2581Vasco": 7332,
    "\u2581xenlulo": 7333,
    "\u25811904": 7334,
    "\u2581Fai": 7335,
    "\u2581KPI": 7336,
    "\u2581Castle": 7337,
    "\u2581v\u00e8": 7338,
    "lawa": 7339,
    "\u2581with": 7340,
    "\u25811919": 7341,
    "\u2581Eisen": 7342,
    "\u2581Worth": 7343,
    "\u2581silic": 7344,
    "\u2581Satur": 7345,
    "plex": 7346,
    "fast": 7347,
    "\u2581Karolin": 7348,
    "\u25811956": 7349,
    "\u2581Milk": 7350,
    "\u2581Golden": 7351,
    "\u2581Rolls": 7352,
    "\u2581Off": 7353,
    "Raymond": 7354,
    "\u2581Summer": 7355,
    "\u2581Dooli": 7356,
    "\u2581Babble": 7357,
    "\u2581Rookie": 7358,
    "\u2581lbs": 7359,
    "\u25813.3": 7360,
    "\u2581Dennet": 7361,
    "\u2581Ines": 7362,
    "\u2581Lear": 7363,
    "\u2581Audio": 7364,
    "\u2581Kamkwam": 7365,
    "\u2581Frans": 7366,
    "rigami": 7367,
    "\u2581Scot": 7368,
    "\u2581Next": 7369,
    "\u2581Law": 7370,
    "fur": 7371,
    "fee": 7372,
    "\u2581GBM": 7373,
    "glob": 7374,
    "\u2581Dela": 7375,
    "\u2581App": 7376,
    "\u2581Bismar": 7377,
    "\u2581Tuts": 7378,
    "\u2581Petra": 7379,
    "akis": 7380,
    "\u2581PRI": 7381,
    "\u2581Benefiel": 7382,
    "\u2581Smart": 7383,
    "\u2581Mmmm": 7384,
    "\u2581Pretor": 7385,
    "bucha": 7386,
    "inas": 7387,
    "omo": 7388,
    "\u2581Image": 7389,
    "\u2581Tree": 7390,
    "esign": 7391,
    "pont": 7392,
    "\u2581Take": 7393,
    "\u2581Aldo": 7394,
    "\u2581Christie": 7395,
    "\u2581tr\u01b0": 7396,
    "\u2581homeo": 7397,
    "\u2581Wolpe": 7398,
    "\u2581SP": 7399,
    "\u2581Tiger": 7400,
    "\u2581check": 7401,
    "\u2581Queens": 7402,
    "\u2581gh": 7403,
    "ienna": 7404,
    "\u2581Mons": 7405,
    "\u2581Tahit": 7406,
    "\u2581Whites": 7407,
    "\u2581Ramon": 7408,
    "\u2581ph\u0103ng": 7409,
    "\u2581gelat": 7410,
    "span": 7411,
    "AID": 7412,
    "\u2581Johann": 7413,
    "ycin": 7414,
    "\u2581Stud": 7415,
    "\u2581Ganesh": 7416,
    "\u2581Gallo": 7417,
    "\u2581play": 7418,
    "agra": 7419,
    "\u2581Finn": 7420,
    "\u2581List": 7421,
    "\u2581See": 7422,
    "\u2581Wis": 7423,
    "39": 7424,
    "\u2581Imp": 7425,
    "\u2581Lama": 7426,
    "Change": 7427,
    "\u2581Natural": 7428,
    "\u2581oxal": 7429,
    "\u2581megawatt": 7430,
    "\u2581Herman": 7431,
    "\u2581solo": 7432,
    "bows": 7433,
    "\u2581Aqua": 7434,
    "olf": 7435,
    "\u2581Pepper": 7436,
    "\u2581high": 7437,
    "\u2581Real": 7438,
    "no": 7439,
    "\u2581Roche": 7440,
    "tive": 7441,
    "\u2581Two": 7442,
    "n\u0103ng": 7443,
    "mens": 7444,
    "\u2581Mahal": 7445,
    "\u2581Thor": 7446,
    "\u2581105": 7447,
    "\u2581Gol": 7448,
    "\u2581Blake": 7449,
    "\u2581Sid": 7450,
    "illus": 7451,
    "\u2581Rhodes": 7452,
    "AW": 7453,
    "r\u01b0\u1edfng": 7454,
    "orldchanging": 7455,
    "0-50": 7456,
    "\u2581Sear": 7457,
    "\u1ebfc": 7458,
    "channelrhodopsin": 7459,
    "th\u00edch": 7460,
    "\u2581Tul": 7461,
    "\u2581Karti": 7462,
    "embran": 7463,
    "\u2581beat": 7464,
    "awat": 7465,
    "ough": 7466,
    "OPA": 7467,
    "\u2581Petri": 7468,
    "\u2581Mode": 7469,
    "\u2581Ferre": 7470,
    "\u2581v\u00e2": 7471,
    "th\u00f4ng": 7472,
    "iness": 7473,
    "\u2581Abb": 7474,
    "augh": 7475,
    "\u2581Swe": 7476,
    "\u2581h\u00e9c": 7477,
    "\u2581Rahm": 7478,
    "\u2581Girl": 7479,
    "\u2581Ayl": 7480,
    "\u2581Maurit": 7481,
    "\u2581Aber": 7482,
    "\u25812.7": 7483,
    "B\u1ea1n": 7484,
    "\u2581s\u00e2m": 7485,
    "\u2581Jak": 7486,
    "d\u1eabn": 7487,
    "sche": 7488,
    "\u2581Haz": 7489,
    "\u2581Jehan": 7490,
    "\u2581Ob": 7491,
    "\u2581Lip": 7492,
    "\u2581Germa": 7493,
    "\u2581Pack": 7494,
    "\u2581Canale": 7495,
    "\u2581Yuc": 7496,
    "ph\u00e1t": 7497,
    "\u2581Stac": 7498,
    "\u2581Merri": 7499,
    "\u2581Voi": 7500,
    "sao": 7501,
    "inson": 7502,
    "\u2581Pan": 7503,
    "\u2581L\u00e9": 7504,
    "\u2581Halle": 7505,
    "EF": 7506,
    "g\u1ecdn": 7507,
    "\u2581li\u1ec1": 7508,
    "\u2581Ab": 7509,
    "erver": 7510,
    "zbek": 7511,
    "oxide": 7512,
    "\u2581Camer": 7513,
    "\u2581Carme": 7514,
    "amela": 7515,
    "\u2581Mun": 7516,
    "opia": 7517,
    "\u2581Nap": 7518,
    "ters": 7519,
    "\u2581Serbi": 7520,
    "22": 7521,
    "MM": 7522,
    "\u2581cu\u1ed3n": 7523,
    "\u2581Agu": 7524,
    "\u2581nin": 7525,
    "wif": 7526,
    "tri\u1ec7u": 7527,
    "\u2581Sit": 7528,
    "aled": 7529,
    "Napol": 7530,
    "\u2581Leib": 7531,
    "lah": 7532,
    "HC": 7533,
    "\u2581byte": 7534,
    "\u2581Benn": 7535,
    "eli": 7536,
    "\u2581Woods": 7537,
    "\u2581Oba": 7538,
    "\u2581RT": 7539,
    "rina": 7540,
    "\u2581CB": 7541,
    "\u2581Ji": 7542,
    "\u2581Jonh": 7543,
    "bian": 7544,
    "owle": 7545,
    "\u2581x\u01b0\u1edbc": 7546,
    "\u2581Belle": 7547,
    "\u2581Treat": 7548,
    "RC": 7549,
    "ofi": 7550,
    "\u2581Cis": 7551,
    "uez": 7552,
    "\u2581Eps": 7553,
    "\u2581IT": 7554,
    "\u25811,0": 7555,
    "hane": 7556,
    "\u2581Mello": 7557,
    "acebook": 7558,
    "\u2581Global": 7559,
    "\u2581Atti": 7560,
    "\u2581Keyn": 7561,
    "\u2581Grave": 7562,
    "live": 7563,
    "to\u00e0n": 7564,
    "ther": 7565,
    "\u2581Mega": 7566,
    "eaver": 7567,
    "\u2581T\u1ee9": 7568,
    "\u2581Samb": 7569,
    "nia": 7570,
    "\u2581Seng": 7571,
    "\u2581156": 7572,
    "\u2581Alam": 7573,
    "amas": 7574,
    "\u2581Shand": 7575,
    "\u2581Vide": 7576,
    "\u2581NY": 7577,
    "\u2581Mile": 7578,
    "\u2581Alle": 7579,
    "0.6": 7580,
    "th\u01b0\u1eddng": 7581,
    "voir": 7582,
    "s\u1eed": 7583,
    "\u2581Reme": 7584,
    "utu": 7585,
    "\u2581Mys": 7586,
    "trung": 7587,
    "uce": 7588,
    "ourne": 7589,
    "\u2581Booth": 7590,
    "\u2581Gam": 7591,
    "\u2581rip": 7592,
    "ulk": 7593,
    "\u2581dum": 7594,
    "\u2581l\u00ec": 7595,
    "m\u1ea1ng": 7596,
    "esta": 7597,
    "uts": 7598,
    "\u2581nhi\u00ea": 7599,
    "bble": 7600,
    "M\u1ef9": 7601,
    "\u2581McCu": 7602,
    "ada": 7603,
    "\u2581Twi": 7604,
    "rump": 7605,
    "\u2581tr\u1ed9": 7606,
    "\u2581data": 7607,
    "lla": 7608,
    "hip": 7609,
    "\u2581\u0111\u1ec5n": 7610,
    "aka": 7611,
    "uz": 7612,
    "\u2581Pet": 7613,
    "\u2581t\u1eaf": 7614,
    "bot": 7615,
    "\u2581Seni": 7616,
    "rger": 7617,
    "\u2581S\u00e1n": 7618,
    "cut": 7619,
    "\u2581Googler": 7620,
    "oma": 7621,
    "ology": 7622,
    "ees": 7623,
    "\u2581M\u00f3": 7624,
    "\u0111\u1eb7c": 7625,
    "\u2581Kelle": 7626,
    "\u2581ID": 7627,
    "\u2581Assa": 7628,
    "dies": 7629,
    "\u2581Ph\u00f4": 7630,
    "ines": 7631,
    "\u2581Flo": 7632,
    "eros": 7633,
    "\u2581PA": 7634,
    "hov": 7635,
    "cas": 7636,
    "d\u00e2n": 7637,
    "\u0111\u1ea1i": 7638,
    "ult": 7639,
    "\u2581PCC": 7640,
    "nhau": 7641,
    "38": 7642,
    "nhi\u00ean": 7643,
    "\u2581m\u00f4ng": 7644,
    "\u2581Frid": 7645,
    "ates": 7646,
    "\u2581103": 7647,
    "\u2581boo": 7648,
    "vaz": 7649,
    "\u2581Giacome": 7650,
    "\u2581Kell": 7651,
    "\u2581T\u1ea7n": 7652,
    "\u2581Jorge": 7653,
    "\u2581Monte": 7654,
    "\u2581Joy": 7655,
    "aire": 7656,
    "back": 7657,
    "\u2581kh\u1eb3": 7658,
    "\u2581plas": 7659,
    "Buil": 7660,
    "\u2581Koh": 7661,
    "\u2581Kas": 7662,
    "irut": 7663,
    "uate": 7664,
    "\u2581read": 7665,
    "\u2581Nation": 7666,
    "irke": 7667,
    ".7": 7668,
    "tune": 7669,
    "\u2581DE": 7670,
    "\u2581H\u1ea1n": 7671,
    "\u2581Qu\u00e1c": 7672,
    "ess": 7673,
    "\u2581Shad": 7674,
    "\u2581Sr": 7675,
    "\u2581Cac": 7676,
    "\u2581en": 7677,
    "bay": 7678,
    "use": 7679,
    "\u2581Ad": 7680,
    "\u2581Spie": 7681,
    "\u2581\u0111\u1ee5n": 7682,
    "\u2581c\u1eaf": 7683,
    "\u2581Sharo": 7684,
    "ern": 7685,
    "mania": 7686,
    "rani": 7687,
    "phia": 7688,
    "NC": 7689,
    "\u2581B\u00f9": 7690,
    "\u2581Rubi": 7691,
    "ofl": 7692,
    "\u2581Thu\u1ead": 7693,
    "cav": 7694,
    "hwaite": 7695,
    "\u2581Marv": 7696,
    "\u2581Rain": 7697,
    "tr\u00ecnh": 7698,
    "\u2581spec": 7699,
    "onim": 7700,
    "mbard": 7701,
    "\u2581yard": 7702,
    "del": 7703,
    "amal": 7704,
    "MPA": 7705,
    "t\u00f4ng": 7706,
    "nger": 7707,
    "\u2581Pad": 7708,
    "rill": 7709,
    "\u2581Ng\u1ecd": 7710,
    "\u2581m\u1eeda": 7711,
    "hu\u1ea9n": 7712,
    "\u2581Ami": 7713,
    "itte": 7714,
    "aba": 7715,
    "bun": 7716,
    "apal": 7717,
    "erly": 7718,
    "\u2581Tz": 7719,
    "\u2581Berk": 7720,
    "lang": 7721,
    "\u2581Wing": 7722,
    "log": 7723,
    "\u2581TM": 7724,
    "99": 7725,
    "\u2581Acti": 7726,
    "\u00e2": 7727,
    "\u2581pi": 7728,
    "\u2581Jans": 7729,
    "t\u1ebf": 7730,
    "\u2581Bert": 7731,
    "\u2581Dung": 7732,
    "\u2581Shap": 7733,
    "n\u01a1": 7734,
    "\u258109": 7735,
    "\u2581Ferr": 7736,
    "\u2581die": 7737,
    "\u2581Slo": 7738,
    "ula": 7739,
    "\u2581Sacr": 7740,
    "ilda": 7741,
    "\u1ea7ng": 7742,
    "824": 7743,
    "avat": 7744,
    "\u2581Carta": 7745,
    "r\u00e0ng": 7746,
    "\u2581Pla": 7747,
    "\u2581Hut": 7748,
    "\u2581tr\u1edbn": 7749,
    "\u2581Iwa": 7750,
    "kara": 7751,
    "nion": 7752,
    "\u2581is": 7753,
    "\u2581Dami": 7754,
    "ardo": 7755,
    "ain": 7756,
    "\u2581x\u1ea1c": 7757,
    "mat": 7758,
    "\u25811.1": 7759,
    "\u2581Bri": 7760,
    "\u2581Gero": 7761,
    "\u2581n\u00e1": 7762,
    "\u2581Clare": 7763,
    "\u2581Kie": 7764,
    "anti": 7765,
    "\u2581Hab": 7766,
    "llo": 7767,
    "\u1ec7u": 7768,
    "anna": 7769,
    "table": 7770,
    "lad": 7771,
    "n\u01a1i": 7772,
    "oro": 7773,
    "o\u00e8": 7774,
    "ami": 7775,
    "\u2581Nadi": 7776,
    "\u2581Aw": 7777,
    "\u2581phen": 7778,
    "\u2581Col": 7779,
    "\u2581Bio": 7780,
    "\u2581ch\u1edb": 7781,
    "t\u00ednh": 7782,
    "\u2581Herz": 7783,
    "\u2581we": 7784,
    "\u2581Mann": 7785,
    "\u2581tuy\u1ec3": 7786,
    "ond": 7787,
    "outer": 7788,
    "\u2581Cos": 7789,
    "itis": 7790,
    "\u2581Mead": 7791,
    "\u2581Sen": 7792,
    "\u2581Sy": 7793,
    "end": 7794,
    "\u2581PET": 7795,
    "\u2581Baz": 7796,
    "\u2581Roll": 7797,
    "ova": 7798,
    "\u2581MA": 7799,
    "\u2581Eb": 7800,
    "ph\u00ea": 7801,
    "\u2581S\u01b0": 7802,
    "\u2581\u0111\u1ead": 7803,
    "Iva": 7804,
    "ldes": 7805,
    "\u2581Maed": 7806,
    "\u2581Ske": 7807,
    "CH": 7808,
    "oke": 7809,
    "\u25811,1": 7810,
    "\u2581MI": 7811,
    "evar": 7812,
    "\u2581Aid": 7813,
    "\u2581Kick": 7814,
    "\u2581M\u00ecn": 7815,
    "\u2581T\u1ea7": 7816,
    "kim": 7817,
    "lai": 7818,
    "uru": 7819,
    "t\u00ecm": 7820,
    "tay": 7821,
    "auf": 7822,
    "itz": 7823,
    "oca": 7824,
    "ugge": 7825,
    "\u2581th\u00e9": 7826,
    "m\u1ee9c": 7827,
    "\u2581Kh\u1ea9": 7828,
    "ustin": 7829,
    "ounde": 7830,
    "wo": 7831,
    "m\u1edbi": 7832,
    "iall": 7833,
    "\u0110\u00f3": 7834,
    "\u2581Ral": 7835,
    "\u2581Mus": 7836,
    "b\u1ed9": 7837,
    "oe": 7838,
    "62": 7839,
    "\u2581Prag": 7840,
    "\u2581V\u00e2n": 7841,
    "h\u1ecf": 7842,
    "\u2581Oma": 7843,
    "Kh\u00f4ng": 7844,
    "yad": 7845,
    "ida": 7846,
    "rio": 7847,
    "zie": 7848,
    "ses": 7849,
    "parna": 7850,
    "\u2581v\u1edbt": 7851,
    "other": 7852,
    "\u2581Arg": 7853,
    "Israel": 7854,
    "\u2581Edu": 7855,
    "paca": 7856,
    "\u2581Mit": 7857,
    "v\u1ea5n": 7858,
    "tain": 7859,
    "iology": 7860,
    "\u2581Tomb": 7861,
    "h\u1ea5m": 7862,
    "ocrate": 7863,
    "\u2581ng\u1eaf": 7864,
    "lif": 7865,
    "b\u1ec7nh": 7866,
    "ks": 7867,
    "dro": 7868,
    "ane": 7869,
    "itra": 7870,
    "sprin": 7871,
    "u\u00f4ng": 7872,
    "\u2581Pale": 7873,
    "\u2581Ede": 7874,
    "DG": 7875,
    "\u2581Start": 7876,
    "\u2581Magi": 7877,
    "l\u1ee3i": 7878,
    "urk": 7879,
    "\u2581IC": 7880,
    "oyce": 7881,
    "roe": 7882,
    "\u2581Down": 7883,
    "ides": 7884,
    "\u2581Chate": 7885,
    "h\u00e8": 7886,
    "qu\u00e1": 7887,
    "urf": 7888,
    "\u2581viol": 7889,
    "stati": 7890,
    "tes": 7891,
    "pace": 7892,
    "undi": 7893,
    "gar": 7894,
    "rr": 7895,
    "\u2581Met": 7896,
    "\u2581Lesl": 7897,
    "\u2581c\u1eb7": 7898,
    "m\u1ecd": 7899,
    "edi": 7900,
    "sto": 7901,
    "\u2581Arno": 7902,
    "2008": 7903,
    "\u2581loan": 7904,
    "ilon": 7905,
    "\u2581Eige": 7906,
    "\u2581Kh\u1ed1": 7907,
    "\u2581Mis": 7908,
    "\u2581Joll": 7909,
    "pson": 7910,
    "\u2581Lead": 7911,
    "h\u00e1": 7912,
    "h\u0169": 7913,
    "\u2581n\u00e3": 7914,
    "\u25815.": 7915,
    "\u2581Stock": 7916,
    "\u2581TW": 7917,
    "huy": 7918,
    "rect": 7919,
    "\u2581Carlo": 7920,
    "\u2581ke": 7921,
    "eter": 7922,
    "\u2581Kohl": 7923,
    "\u2581ph\u1ea9": 7924,
    "\u2581Nye": 7925,
    "vic": 7926,
    "nky": 7927,
    "\u2581Taka": 7928,
    "tema": 7929,
    "\u2581Shr": 7930,
    "\u2581Shu": 7931,
    "\u2581Dah": 7932,
    "\u2581l\u1eef": 7933,
    "ethyl": 7934,
    "sor": 7935,
    "h\u00e8o": 7936,
    "\u2581Hero": 7937,
    "andon": 7938,
    "\u2581Truy": 7939,
    "35": 7940,
    "Arthu": 7941,
    "zi": 7942,
    "ho\u1ebb": 7943,
    "indl": 7944,
    "\u2581Bess": 7945,
    "S\u00e1u": 7946,
    "RD": 7947,
    "PJ": 7948,
    "Andrea": 7949,
    "nik": 7950,
    "reme": 7951,
    "ocola": 7952,
    "\u2581s\u1eafn": 7953,
    "Tech": 7954,
    "PC": 7955,
    "oang": 7956,
    "\u2581Steine": 7957,
    "\u2581Ball": 7958,
    "\u2581h\u00ea": 7959,
    "head": 7960,
    "\u2581550": 7961,
    "wi": 7962,
    "side": 7963,
    "\u2581M\u00ec": 7964,
    "\u2581Mart": 7965,
    "\u2581R\u00f4": 7966,
    "\u2581Th\u1ea3": 7967,
    "DT": 7968,
    "\u2581D\u1ee5": 7969,
    "Bird": 7970,
    "\u2581Arr": 7971,
    "\u2581Bod": 7972,
    "Colomb": 7973,
    "\u2581Hand": 7974,
    "LM": 7975,
    "\u2581Tana": 7976,
    "opren": 7977,
    "nghi\u1ec7p": 7978,
    "\u2581Hale": 7979,
    "\u01b0\u1ee3": 7980,
    "IP": 7981,
    "\u2581gal": 7982,
    "\u2581Kings": 7983,
    "wart": 7984,
    "VC": 7985,
    "ove": 7986,
    "rusha": 7987,
    "\u2581Dav": 7988,
    "3,7": 7989,
    "nes": 7990,
    "\u2581Sharm": 7991,
    "rban": 7992,
    "izz": 7993,
    "\u0111\u01b0\u1eddng": 7994,
    "oft": 7995,
    "unni": 7996,
    ".4": 7997,
    "21": 7998,
    "ku": 7999,
    "\u2581Hur": 8000,
    "\u2581Ic": 8001,
    "\u2581ng\u1ea9": 8002,
    "\u2581L\u00e3n": 8003,
    "\u2581Anton": 8004,
    "\u2581ng\u1ecd": 8005,
    "\u2581Sat": 8006,
    "rell": 8007,
    "k\u1ebft": 8008,
    "SE": 8009,
    "caus": 8010,
    "illett": 8011,
    "FO": 8012,
    "\u2581V\u00e1": 8013,
    "\u0111\u1ed9": 8014,
    "CN": 8015,
    "\u2581Ahh": 8016,
    "\u2581v\u1ea7": 8017,
    "ferr": 8018,
    "ids": 8019,
    "\u2581230": 8020,
    "\u2581Madd": 8021,
    "sur": 8022,
    "\u2581Barne": 8023,
    "\u2581Ern": 8024,
    "\u2581Kno": 8025,
    "ival": 8026,
    "iano": 8027,
    "\u2581ng\u00e1n": 8028,
    "\u2581CN": 8029,
    "ella": 8030,
    "ozi": 8031,
    "\u2581Pisa": 8032,
    "\u2581iO": 8033,
    "\u2581Edit": 8034,
    "\u25811.": 8035,
    "bio": 8036,
    "KO": 8037,
    "umar": 8038,
    "\u2581Blak": 8039,
    "\u2581Feder": 8040,
    "thar": 8041,
    "\u2581Reg": 8042,
    "\u2581g\u1eebng": 8043,
    "\u2581Russ": 8044,
    "\u2581189": 8045,
    "ombo": 8046,
    "du": 8047,
    "asteur": 8048,
    "arta": 8049,
    "\u2581260": 8050,
    "h\u1edbp": 8051,
    "rove": 8052,
    "lie": 8053,
    "gles": 8054,
    "Rev": 8055,
    "\u2581McDo": 8056,
    "\u2581Tate": 8057,
    "sopre": 8058,
    "\u2581Hind": 8059,
    "\u2581T\u1ed5n": 8060,
    "ude": 8061,
    "\u2581Eddi": 8062,
    "tophan": 8063,
    "\u2581nh\u1ecd": 8064,
    "\u25813500": 8065,
    "acki": 8066,
    "\u2581N\u1ed7": 8067,
    "etwork": 8068,
    "\u2581Mandel": 8069,
    "\u2581S\u01a1": 8070,
    "ncer": 8071,
    "\u2581Shephe": 8072,
    "dt": 8073,
    "\u2581wiki": 8074,
    "\u2581s\u1eef": 8075,
    "\u2581Chla": 8076,
    "\u2581Clint": 8077,
    "liss": 8078,
    "\u2581McFadd": 8079,
    "ASDF": 8080,
    "alencia": 8081,
    "aswam": 8082,
    "\u2581Alessandr": 8083,
    "\u2581Arduino": 8084,
    "\u2581Bamiyan": 8085,
    "\u2581Caledonia": 8086,
    "\u2581Citizen": 8087,
    "\u2581Dhabi": 8088,
    "\u2581Flintstone": 8089,
    "\u2581Gerhard": 8090,
    "\u2581Hitchcock": 8091,
    "\u2581Humphrey": 8092,
    "\u2581Krypton": 8093,
    "\u2581Kwabena": 8094,
    "\u2581Metropoli": 8095,
    "\u2581Pleist": 8096,
    "\u2581Providenc": 8097,
    "\u2581Siyathemba": 8098,
    "\u2581Skinner": 8099,
    "\u2581carbohydrat": 8100,
    "\u2581cricket": 8101,
    "\u2581formaldehyde": 8102,
    "\u2581sulfate": 8103,
    "\u2581trumpet": 8104,
    "enschatz": 8105,
    "\u2581Medicine": 8106,
    "\u2581PDF": 8107,
    "\u2581Pablo": 8108,
    "\u2581Pringle": 8109,
    "\u2581Stratford": 8110,
    "\u2581Auschwitz": 8111,
    "\u2581Botox": 8112,
    "\u2581Pentium": 8113,
    "\u2581Resource": 8114,
    "\u2581Schwarz": 8115,
    "\u2581Tuscany": 8116,
    "\u2581ounce": 8117,
    "\u2581Adolf": 8118,
    "\u25811-2-3": 8119,
    "\u2581Fransisco": 8120,
    "\u2581Hancock": 8121,
    "\u2581Mairead": 8122,
    "\u2581Africa": 8123,
    "\u2581Northwest": 8124,
    "\u2581Shankar": 8125,
    "\u2581Braille": 8126,
    "\u2581Narcis": 8127,
    "\u2581WOW": 8128,
    "\u2581Frost": 8129,
    "\u2581Lithuan": 8130,
    "\u2581IDEO": 8131,
    "\u2581Humbo": 8132,
    "\u2581Pedro": 8133,
    "\u2581Turkmen": 8134,
    "exicograph": 8135,
    "\u2581Jetman": 8136,
    "\u2581Islam": 8137,
    "\u2581wug": 8138,
    "\u2581scrot": 8139,
    "\u2581Spider": 8140,
    "ewild": 8141,
    "ollywo": 8142,
    "\u2581Forrest": 8143,
    "\u2581GCSE": 8144,
    "\u2581Schrod": 8145,
    "\u2581starsha": 8146,
    "\u2581Easy": 8147,
    "Houdin": 8148,
    "\u2581Promet": 8149,
    "\u2581break": 8150,
    "\u2581TEDtalk": 8151,
    "\u2581Heffer": 8152,
    "\u2581CyAr": 8153,
    "\u2581Bihar": 8154,
    "\u2581Verna": 8155,
    "\u2581Tuft": 8156,
    "\u2581Gibra": 8157,
    "\u2581sapien": 8158,
    "\u2581Stux": 8159,
    "\u2581Emory": 8160,
    "\u2581Jee": 8161,
    "\u2581Oxf": 8162,
    "\u2581Barcia": 8163,
    "\u2581Chaplin": 8164,
    "\u2581Production": 8165,
    "\u2581Dream": 8166,
    "\u2581Kab": 8167,
    "\u2581Telecom": 8168,
    "\u2581Ballbot": 8169,
    "\u2581Baobab": 8170,
    "\u2581TEDYou": 8171,
    "\u2581Nature": 8172,
    "\u2581Pythago": 8173,
    "\u2581Oak": 8174,
    "\u25817.6": 8175,
    "\u2581alpha": 8176,
    "\u2581Hercul": 8177,
    "\u2581Sadow": 8178,
    "\u258110-15": 8179,
    "\u2581Ng\u1ee5": 8180,
    "thi\u1ebft": 8181,
    "ups": 8182,
    "\u2581Shake": 8183,
    "\u2581Giudi": 8184,
    "\u2581snack": 8185,
    "\u2581Ritz": 8186,
    "\u2581thu\u00e2t": 8187,
    "\u2581Kitty": 8188,
    "\u2581Waal": 8189,
    "warf": 8190,
    "\u25812.4": 8191,
    "\u2581Hexan": 8192,
    "\u2581Rider": 8193,
    "ermont": 8194,
    "\u2581xentim": 8195,
    "zzar": 8196,
    "brid": 8197,
    "\u2581Chaos": 8198,
    "\u2581FI": 8199,
    "\u2581Entrop": 8200,
    "\u25811812": 8201,
    "\u2581Fark": 8202,
    "\u2581Ludwi": 8203,
    "\u2581Knop": 8204,
    "XD": 8205,
    "\u2581Rudy": 8206,
    "\u2581Ishi": 8207,
    "\u2581Liver": 8208,
    "\u2581Rustic": 8209,
    "\u2581Pete": 8210,
    "\u2581Kras": 8211,
    "\u2581Court": 8212,
    "\u2581Hux": 8213,
    "\u2581Chihu": 8214,
    "\u2581Shuk": 8215,
    "\u2581Boyle": 8216,
    "\u2581Pavlov": 8217,
    "\u2581Nair": 8218,
    "\u2581Bluegrass": 8219,
    "eace": 8220,
    "\u2581Schwa": 8221,
    "\u2581Elah": 8222,
    "\u2581Ghos": 8223,
    "\u2581Hilton": 8224,
    "\u2581Swaz": 8225,
    "\u2581Brett": 8226,
    "\u2581Money": 8227,
    "\u2581TCN": 8228,
    "\u2581fusi": 8229,
    "\u2581Network": 8230,
    "\u2581Athen": 8231,
    "\u2581Issa": 8232,
    "\u2581Hunts": 8233,
    "\u2581sonicat": 8234,
    "\u2581Haha": 8235,
    "\u2581End": 8236,
    "\u2581Borde": 8237,
    "uska": 8238,
    "\u2581Bros": 8239,
    "lier": 8240,
    "\u2581Nathali": 8241,
    "\u2581Sabia": 8242,
    "\u2581Schaef": 8243,
    "\u2581Berr": 8244,
    "\u2581Michoacan": 8245,
    "\u2581Padd": 8246,
    "\u2581multi": 8247,
    "\u2581Rosa": 8248,
    "\u2581NGH": 8249,
    "\u2581Mies": 8250,
    "\u2581Jain": 8251,
    "\u2581Jaipu": 8252,
    "\u2581Daw": 8253,
    "\u2581Acheul": 8254,
    "\u2581Malone": 8255,
    "\u2581Amen": 8256,
    "\u2581Heer": 8257,
    "83": 8258,
    "\u2581Niger": 8259,
    "\u2581Anant": 8260,
    "hites": 8261,
    "\u258199.999": 8262,
    "\u2581Shige": 8263,
    "\u2581gh\u1ec1nh": 8264,
    "\u2581Economic": 8265,
    "hili": 8266,
    "ator": 8267,
    "WF": 8268,
    "vali": 8269,
    "\u2581135": 8270,
    "wartz": 8271,
    "\u2581Dass": 8272,
    "\u2581Appalachian": 8273,
    "\u2581996": 8274,
    "\u2581Charle": 8275,
    "ghi\u1ec7m": 8276,
    "ars": 8277,
    "\u2581nanomet": 8278,
    "yaw": 8279,
    "bane": 8280,
    "\u2581Grim": 8281,
    "\u2581nacho": 8282,
    "\u2581Holly": 8283,
    "ital": 8284,
    "\u2581Mono": 8285,
    "\u2581Okoll": 8286,
    "\u2581Pearl": 8287,
    "alal": 8288,
    "\u2581117": 8289,
    "ltra": 8290,
    "\u2581y\u1ebf": 8291,
    "\u2581shot": 8292,
    "\u2581Reinh": 8293,
    "\u2581Side": 8294,
    "ch\u1ee9ng": 8295,
    "\u2581methan": 8296,
    "\u2581Yam": 8297,
    "ites": 8298,
    "\u2581Angr": 8299,
    "\u2581Mess": 8300,
    "oc": 8301,
    "\u2581Slav": 8302,
    "\u2581Ferra": 8303,
    "\u2581Maker": 8304,
    "ezza": 8305,
    "\u2581Agra": 8306,
    "\u2581Force": 8307,
    "\u2581Slu": 8308,
    "opath": 8309,
    "\u2581rupee": 8310,
    "700": 8311,
    "ets": 8312,
    "\u2581Exc": 8313,
    "\u2581Sheep": 8314,
    "\u2581Cas": 8315,
    "sterda": 8316,
    "La": 8317,
    "\u2581VI": 8318,
    "\u2581Neuron": 8319,
    "\u2581Beer": 8320,
    "\u2581Goro": 8321,
    "\u2581Greenp": 8322,
    "\u2581hipp": 8323,
    "ewer": 8324,
    "\u2581Diffe": 8325,
    "anic": 8326,
    "llum": 8327,
    "\u2581b\u1ea1t": 8328,
    "\u2581Lil": 8329,
    "\u2581Tia": 8330,
    "EB": 8331,
    "\u2581Blog": 8332,
    "\u2581Sharp": 8333,
    "m\u00e1t": 8334,
    "\u2581Y\u1ebfn": 8335,
    "\u2581Skol": 8336,
    "\u2581Sieg": 8337,
    "hol": 8338,
    "elit": 8339,
    "abo": 8340,
    "\u2581104": 8341,
    "\u2581Adin": 8342,
    "\u2581den": 8343,
    "PLA": 8344,
    "\u2581Harbi": 8345,
    "\u2581Miche": 8346,
    "ti\u1ebfp": 8347,
    "\u2581Lyn": 8348,
    "\u25810.3": 8349,
    "\u2581glu": 8350,
    "Rex": 8351,
    "IDA": 8352,
    "\u2581b\u1ebd": 8353,
    "\u2581Lemm": 8354,
    "gel": 8355,
    "\u2581Lenno": 8356,
    "\u2581Marle": 8357,
    "\u2581Tab": 8358,
    "\u2581Egg": 8359,
    "\u2581Jeh": 8360,
    "g\u1ecdi": 8361,
    "\u2581R\u00e9t": 8362,
    "ort": 8363,
    "tr\u1ecdng": 8364,
    "\u2581Hobb": 8365,
    "ebr": 8366,
    "\u2581Annan": 8367,
    "\u2581Hutchi": 8368,
    "\u2581Lyd": 8369,
    "exe": 8370,
    "ahua": 8371,
    "\u2581\u0111\u1eb5": 8372,
    "\u2581Advi": 8373,
    "\u2581Nep": 8374,
    "\u2581T\u00fai": 8375,
    "\u25816,5": 8376,
    "Dodi": 8377,
    "\u2581Smol": 8378,
    "o\u1eb9": 8379,
    "\u2581\u00e0oo": 8380,
    "\u2581Weh": 8381,
    "\u2581Boo": 8382,
    "\u2581Solei": 8383,
    "eren": 8384,
    "\u2581casset": 8385,
    "\u2581Bront": 8386,
    "IC": 8387,
    "mage": 8388,
    "adda": 8389,
    "lvani": 8390,
    "\u2581Corp": 8391,
    "\u2581Jam": 8392,
    "\u2581Pari": 8393,
    "\u2581B\u1ec1": 8394,
    "\u2581Thum": 8395,
    "72": 8396,
    "\u2581Fiore": 8397,
    "\u2581Dion": 8398,
    "less": 8399,
    "\u2581Reggi": 8400,
    "\u2581Krug": 8401,
    "\u2581Mise": 8402,
    "\u2581Cr": 8403,
    "97": 8404,
    "inker": 8405,
    "laugh": 8406,
    "\u2581Theme": 8407,
    "\u2581Gee": 8408,
    "\u2581four": 8409,
    "\u2581es": 8410,
    "\u2581581": 8411,
    "\u2581D\u1ecb": 8412,
    "\u2581Bute": 8413,
    "\u2581Phel": 8414,
    "\u2581Bela": 8415,
    "\u2581Chop": 8416,
    "atchi": 8417,
    "\u2581Arcad": 8418,
    "\u2581Ada": 8419,
    "-12": 8420,
    "\u2581para": 8421,
    "ashimi": 8422,
    "\u2581Jou": 8423,
    "\u2581Hawke": 8424,
    "\u2581Enter": 8425,
    "\u2581Bave": 8426,
    "Mari": 8427,
    "\u2581Tomas": 8428,
    "\u2581Kil": 8429,
    "8,7": 8430,
    "\u2581Musa": 8431,
    "\u2581Bom": 8432,
    "ladi": 8433,
    "\u2581Ll": 8434,
    "\u2581Superma": 8435,
    "\u2581Ale": 8436,
    "ndura": 8437,
    "ord": 8438,
    "strep": 8439,
    "\u2581tuy\u00eat": 8440,
    "Li": 8441,
    "\u2581Heal": 8442,
    "\u2581Mund": 8443,
    "hrive": 8444,
    "\u2581Ign": 8445,
    "53": 8446,
    "\u2581r\u1edd": 8447,
    "\u2581x\u1ecbn": 8448,
    "beca": 8449,
    "logger": 8450,
[...]
